, 143934
. 128796
the 102692
and 73967
to 61631
of 56334
a 52045
that 46133
i 41752
in 38623
it 37391
you 35587
we 33218
is 32408
&apos;s 28151
this 24595
so 18673
&quot; 17758
they 16597
was 15307
for 15028
are 13867
have 13573
what 13290
but 13080
on 12743
with 12541
can 11780
? 11442
-- 11258
&apos;t 11098
about 10550
there 10422
be 9810
as 9435
at 9373
all 9354
not 9199
my 9175
do 9086
one 8521
people 8373
&apos;re 8188
like 7934
if 7808
from 7734
now 7412
an 7071
he 6910
these 6906
just 6838
our 6830
: 6712
when 6648
or 6536
because 6364
me 6168
very 6140
how 6007
out 5789
by 5739
them 5697
more 5564
going 5492
up 5450
know 5420
your 5222
had 5131
think 5118
who 5055
see 5049
here 4966
were 4964
which 4935
their 4931
really 4897
would 4897
get 4701
then 4545
us 4427
&apos;m 4385
&apos;ve 4365
world 4349
some 4291
time 4170
actually 4119
don 4095
has 4013
way 3960
into 3874
years 3775
things 3715
will 3659
other 3621
where 3602
no 3596
want 3546
could 3488
go 3484
well 3471
make 3381
she 3278
been 3260
said 3223
first 3117
something 3084
right 3069
two 3055
much 2966
than 2960
those 2952
also 2889
look 2818
new 2768
thing 2740
little 2645
back 2644
say 2628
life 2623
most 2613
got 2610
his 2592
over 2562
even 2551
only 2531
work 2524
need 2507
many 2467
why 2433
take 2431
did 2412
good 2273
lot 2272
around 2210
different 2163
kind 2133
her 2102
; 2098
every 2095
let 2091
through 1966
down 1963
&apos;ll 1938
same 1936
come 1927
being 1892
use 1876
day 1873
doing 1830
put 1758
any 1754
three 1737
thank 1734
today 1705
called 1695
percent 1674
&apos;d 1649
tell 1624
made 1617
after 1594
talk 1580
year 1535
didn 1531
great 1531
change 1518
find 1503
fact 1502
own 1495
should 1473
big 1463
brain 1446
started 1442
idea 1439
last 1432
human 1423
before 1415
went 1412
its 1395
thought 1369
able 1359
another 1356
give 1347
important 1340
course 1337
problem 1325
never 1318
might 1310
show 1296
better 1295
story 1288
still 1287
next 1286
each 1282
part 1274
does 1265
again 1247
came 1233
start 1218
off 1212
together 1205
ago 1193
system 1191
few 1178
between 1169
him 1167
bit 1156
women 1149
question 1144
used 1137
love 1136
place 1121
mean 1119
data 1112
&apos; 1105
school 1100
found 1099
maybe 1098
example 1097
too 1093
end 1089
doesn 1083
done 1079
long 1058
technology 1054
wanted 1047
live 1041
understand 1038
always 1037
water 1035
children 1032
looking 1023
call 1020
believe 1012
real 1003
may 1001
money 996
point 995
four 990
person 980
ever 970
working 970
information 966
sort 964
kids 962
away 955
whole 948
try 944
feel 936
trying 936
everything 935
10 928
country 924
using 922
second 920
create 911
help 904
million 902
less 892
food 891
means 889
five 886
quite 870
man 868
space 868
home 861
number 858
thinking 857
become 854
power 854
took 854
times 851
old 835
best 833
am 827
future 823
light 818
small 812
design 811
making 811
energy 806
enough 805
okay 801
comes 800
getting 800
ask 799
social 799
probably 791
! 788
happened 785
lives 780
left 775
body 773
without 772
pretty 770
science 766
says 763
countries 758
dollars 748
talking 748
sense 741
makes 738
told 737
imagine 734
city 732
while 731
yet 722
learn 719
such 716
interesting 715
room 715
simple 715
experience 712
happen 709
asked 708
cells 707
moment 705
stuff 700
case 699
once 696
saw 696
across 695
living 695
inside 693
men 690
building 689
anything 688
hard 688
ways 686
goes 684
build 683
else 682
coming 679
happens 676
family 670
later 670
project 667
half 666
side 666
reason 663
process 662
high 656
health 652
days 649
having 646
wrong 645
business 643
within 640
basically 636
nothing 636
music 635
states 633
book 631
bad 629
seen 627
young 626
problems 623
single 623
someone 621
everybody 617
move 617
20 616
earth 616
myself 614
picture 614
words 613
age 612
both 612
hand 612
play 612
language 610
mind 610
ideas 609
care 608
looked 608
often 608
whether 605
billion 603
saying 601
almost 600
far 600
answer 598
true 596
computer 595
child 592
remember 591
video 588
possible 587
top 585
global 584
matter 584
keep 581
africa 579
ted 579
sure 575
set 574
six 573
yes 569
control 567
looks 567
war 567
community 565
form 564
art 563
public 563
already 559
guy 559
sometimes 559
history 558
research 557
job 556
face 553
amazing 552
decided 552
hope 552
heard 548
read 548
built 545
word 543
couple 542
united 542
education 540
works 540
until 538
piece 535
wasn 534
bring 532
stories 532
car 531
open 530
months 529
since 529
instead 528
order 527
oh 525
minutes 524
universe 524
beautiful 523
&#91; 522
&#93; 522
group 522
taking 521
government 520
isn 519
though 519
under 518
everyone 517
share 517
turn 517
woman 517
exactly 513
friends 513
became 512
completely 512
nature 511
run 511
somebody 511
learned 509
middle 508
30 505
society 505
china 503
huge 498
heart 496
internet 496
line 496
study 496
mother 492
state 492
themselves 492
cancer 491
gets 491
night 491
created 486
planet 485
kinds 480
stop 480
hours 479
happening 478
questions 477
knew 475
news 475
environment 473
students 473
against 472
head 468
house 467
model 467
places 467
hear 466
rather 466
game 465
itself 465
company 463
others 463
yeah 463
50 459
name 458
worked 457
couldn 455
level 454
ourselves 453
difference 452
gave 452
ones 452
sound 452
thousands 451
front 449
turns 449
happy 447
third 447
finally 445
god 444
learning 442
during 440
past 440
entire 438
won 436
large 434
american 433
particular 433
india 432
lots 432
must 432
outside 432
re@@ 432
america 431
changed 430
machine 429
per 426
perhaps 426
... 425
early 424
100 422
disease 422
guys 419
population 419
spend 419
takes 416
animals 414
— 414
systems 413
audience 411
figure 411
given 411
along 410
natural 410
u.s. 409
least 408
easy 407
oil 407
species 407
cell 406
shows 406
needed 402
realized 401
culture 400
yourself 399
black 398
difficult 398
simply 397
behind 396
powerful 396
century 395
image 395
media 392
air 391
needs 389
close 388
father 387
free 387
seven 387
companies 386
leave 386
&amp; 381
grow 378
felt 377
local 377
team 377
walk 377
area 375
full 374
economic 373
paper 373
eat 372
turned 372
seeing 371
certain 370
hands 367
un@@ 365
cannot 364
value 364
eyes 363
taken 363
-@@ 362
voice 362
girl 361
moving 361
political 360
red 360
wonderful 360
green 359
longer 359
size 359
spent 357
speak 354
beginning 353
view 353
cities 352
quickly 352
parts 351
15 350
death 350
week 349
amount 348
wouldn 347
began 346
behavior 345
eight 345
parents 344
terms 344
york 343
whatever 341
growth 340
test 340
lost 339
step 339
tried 339
based 337
stage 337
watch 337
average 335
center 335
buy 333
morning 333
complex 332
attention 331
born 331
images 331
write 331
either 330
friend 330
books 329
common 329
pay 329
opportunity 327
weeks 327
interested 326
land 326
sitting 326
street 326
cost 325
reality 325
rest 325
field 324
ability 322
animal 322
changes 322
deal 320
fear 319
national 319
brought 318
economy 318
giving 318
anyone 317
lab 317
physical 317
film 316
growing 315
knowledge 315
english 314
act 313
ground 313
feeling 312
poor 311
scientists 310
gone 309
south 308
blue 307
developed 306
dna 306
ice 306
scale 306
seems 306
key 305
personal 305
running 305
issue 304
save 304
incredible 302
numbers 302
structure 301
humans 300
known 300
material 299
nice 298
playing 298
realize 298
white 297
chinese 296
developing 296
climate 295
individual 295
led 295
short 295
challenge 294
fun 294
girls 294
creating 292
literally 292
millions 292
online 292
tools 292
access 291
starting 291
writing 291
wrote 291
die 290
focus 290
met 290
absolutely 289
hold 289
innovation 287
40 286
box 286
ocean 286
type 286
market 285
movement 285
seem 285
university 285
force 283
hundreds 283
product 283
solution 283
teach 283
theory 283
alone 282
rate 282
experiment 281
program 281
ok 280
feet 278
knows 278
asking 277
cool 277
discovered 277
especially 276
nobody 276
result 276
understanding 276
generation 275
patient 275
stand 275
areas 274
telling 274
baby 273
modern 273
showed 273
changing 272
bottom 271
dead 271
pictures 271
risk 271
cars 270
gives 270
obviously 270
forward 269
incredibly 268
patients 268
indeed 267
meet 267
aren 266
cut 266
network 266
materials 265
soon 265
blood 264
clear 264
games 264
involved 264
teachers 264
east 263
development 262
fast 262
kid 262
phone 262
produce 262
sex 262
son 262
deep 261
explain 261
schools 261
success 261
office 260
industry 259
law 259
eye 258
solve 258
fly 257
general 257
potential 257
recently 257
support 257
guess 256
impact 256
normal 256
present 256
sleep 256
sounds 256
sun 256
truth 256
haven 255
listen 255
/ 254
choice 254
europe 254
resources 254
revolution 254
surface 254
talked 254
groups 253
map 253
stay 253
relationship 252
table 252
technologies 252
color 251
google 251
rules 251
shape 251
begin 250
beyond 250
west 250
major 249
please 248
situation 248
tiny 248
send 247
chance 246
democracy 246
digital 246
everywhere 246
north 246
died 245
robot 245
issues 244
message 244
happiness 243
designed 242
hundred 242
wait 242
becomes 241
dark 241
journey 241
miles 241
walking 241
available 240
boy 240
month 240
suddenly 240
12 239
allow 238
certainly 238
anybody 237
creative 237
hit 237
memory 237
similar 237
teacher 237
medical 236
carbon 235
individuals 235
perfect 235
approach 233
device 233
likely 233
peace 233
projects 233
cause 232
computers 232
special 232
bigger 231
evidence 231
drive 230
notice 230
reasons 230
wall 230
results 229
basic 228
de@@ 228
effect 228
lived 228
moral 228
putting 228
quality 228
ready 228
add 227
code 227
crazy 227
measure 227
sit 227
smart 227
towards 227
examples 226
vision 226
favorite 225
fight 225
lose 225
25 224
action 224
fish 224
sea 224
taught 224
fall 222
low 222
minute 222
scientific 222
several 222
starts 222
student 222
totally 222
moved 221
nine 221
road 221
college 220
meaning 220
tells 220
biggest 219
leaders 219
mom 219
showing 219
camera 218
choose 218
hospital 218
worse 218
further 217
onto 217
develop 216
software 216
worth 216
content 215
follow 215
response 215
strong 215
trust 215
particularly 214
waste 214
region 213
eventually 212
reach 212
violence 212
watching 212
activity 211
compassion 211
plan 211
rich 211
drug 210
o 210
tool 210
jobs 209
break 208
connected 208
faster 208
grew 208
in@@ 208
village 208
allowed 207
buildings 207
largest 207
lead 207
decisions 206
drugs 206
brains 205
class 205
communities 205
dream 205
ended 205
freedom 205
mass 205
shown 205
wants 205
extremely 204
hour 204
meant 204
safe 204
solar 204
wish 204
late 203
spread 202
usually 202
among 201
fine 201
however 201
wife 201
conditions 200
context 200
mine 200
movie 200
pick 200
crisis 199
expect 199
finding 199
income 199
killed 199
magic 199
poverty 199
training 199
fire 198
list 198
listening 198
positive 198
skin 198
hiv 197
named 197
period 197
service 197
trees 197
tv 197
bodies 196
continue 196
door 196
reading 196
traditional 196
excited 195
international 195
plant 195
source 195
including 194
objects 194
anymore 193
forms 193
kill 193
math 193
plants 193
web 193
e 192
main 192
points 192
artist 191
doctor 191
exciting 191
goal 191
screen 191
david 190
kept 190
square 190
truly 190
alive 189
allows 189
dad 189
evolution 189
pain 189
position 189
products 189
robots 189
sorts 189
specific 189
anyway 188
impossible 188
raise 188
rights 188
solutions 188
successful 188
western 188
60 187
cases 187
conversation 187
hot 187
mental 187
travel 187
central 186
skills 186
studies 186
wind 186
board 185
essentially 185
interest 185
security 185
americans 184
bunch 184
expensive 184
lower 184
organization 184
page 184
politics 184
somewhere 184
200 183
bank 183
higher 183
larger 183
supposed 183
loved 182
machines 182
neurons 182
above 181
bed 181
consider 181
extraordinary 181
fantastic 181
models 181
pieces 181
sent 181
teaching 181
written 181
doctors 180
families 180
rise 180
an@@ 179
clearly 179
hole 179
perspective 179
site 179
tend 179
actual 178
becoming 178
object 178
older 178
patterns 178
police 178
thousand 178
treatment 178
types 178
11 177
provide 177
role 177
seconds 177
somehow 177
version 177
legs 176
therefore 176
80 175
famous 175
financial 175
molecules 175
self 175
series 175
throughout 175
beauty 174
critical 174
familiar 174
progress 174
standing 174
train 174
upon 174
visual 174
bacteria 173
cold 173
costs 173
current 173
pattern 173
recognize 173
societies 173
architecture 172
babies 172
complicated 172
conflict 172
creativity 172
dangerous 172
except 172
increase 172
mobile 172
production 172
a@@ 171
biology 171
talks 171
concept 170
electricity 170
greater 170
john 170
store 170
thanks 170
afghanistan 169
female 169
humanity 169
immediately 169
uses 169
al 168
connect 168
engineering 168
genes 168
none 168
party 168
plastic 168
serious 168
smaller 168
wonder 168
er 167
healthy 167
minds 167
speaking 167
surgery 167
win 167
african 166
anywhere 166
em 166
protect 166
ran 166
website 166
evolved 165
funny 165
medicine 165
record 165
weight 165
beings 164
connection 164
decades 164
earlier 164
effective 164
fundamental 164
levels 164
practice 164
pull 164
waiting 164
forth 163
glass 163
lines 163
path 163
policy 163
eating 162
forget 162
remarkable 162
shared 162
speed 162
emotional 161
following 161
environmental 160
final 160
genetic 160
organizations 160
television 160
18 159
dance 159
decision 159
sell 159
draw 158
strange 158
career 157
lt 157
museum 157
nuclear 157
price 157
s@@ 157
subject 157
weren 157
although 156
bill 156
cultural 156
decide 156
exist 156
intelligence 156
lights 156
military 156
physics 156
services 156
walked 156
blind 155
direction 155
e@@ 155
function 155
massive 155
president 155
sat 155
slightly 155
useful 155
es 154
invented 154
radio 154
s 154
search 154
song 154
t 154
touch 154
aware 153
challenges 153
creates 153
focused 153
gas 153
improve 153
k@@ 153
race 153
secret 153
understood 153
90 152
choices 152
daughter 152
fully 152
helped 152
king 152
obvious 152
press 152
prison 152
stress 152
summer 152
unfortunately 152
unique 152
b 151
birds 151
conference 151
gt 151
himself 151
performance 151
private 151
complexity 150
differences 150
experiments 150
identity 150
instance 150
meeting 150
values 150
be@@ 149
citizens 149
d@@ 149
slide 149
slow 149
temperature 149
coffee 148
ed 148
ing 148
nation 148
track 148
virus 148
clean 147
driving 147
highly 147
paid 147
recent 147
shot 147
spending 147
stars 147
task 147
networks 146
park 146
survive 146
trial 146
$ 145
ate 145
boys 145
flow 145
inspired 145
mostly 145
speech 145
sustainable 145
terrible 145
whose 145
active 144
knowing 144
london 144
near 144
noticed 144
push 144
sorry 144
treat 144
aid 143
bread 143
civil 143
etc 143
event 143
popular 143
standard 143
trade 143
al@@ 142
answers 142
artists 142
birth 142
fit 142
range 142
tree 142
capacity 141
flying 141
hey 141
photograph 141
sign 141
surprising 141
various 141
willing 141
worst 141
ahead 140
brings 140
causes 140
male 140
pass 140
scientist 140
streets 140
text 140
twice 140
communicate 139
de 139
devices 139
dying 139
extra 139
floor 139
greatest 139
published 139
ca@@ 138
directly 138
facebook 138
leadership 138
possibly 138
produced 138
spaces 138
decade 137
diseases 137
experiences 137
foundation 137
missing 137
purpose 137
rule 137
zero 137
afraid 136
basis 136
closer 136
dr. 136
moon 136
nearly 136
self-@@ 136
sharing 136
stopped 136
trouble 136
c 135
chemical 135
communication 135
corruption 135
explore 135
forces 135
iraq 135
join 135
apart 134
below 134
foot 134
institutions 134
mission 134
quick 134
saving 134
sky 134
town 134
70 133
california 133
molecule 133
played 133
aids 132
bought 132
chris 132
degrees 132
industrial 132
shift 132
stem 132
supply 132
traffic 132
500 131
ers 131
feed 131
moments 131
opportunities 131
opposite 131
passed 131
stick 131
14 130
16 130
autism 130
complete 130
dog 130
drop 130
hearing 130
colleagues 129
entirely 129
forest 129
husband 129
programs 129
reduce 129
related 129
religion 129
return 129
straight 129
consciousness 128
di@@ 128
lucky 128
oxygen 128
apply 127
ar@@ 127
cover 127
effort 127
faces 127
feels 127
original 127
significant 127
structures 127
vote 127
bringing 126
carry 126
differently 126
dollar 126
held 126
indian 126
sand 126
address 125
agree 125
bees 125
d 125
engine 125
governments 125
i@@ 125
justice 125
photo 125
studying 125
arm 124
bone 124
broken 124
condition 124
core 124
easily 124
majority 124
matters 124
necessary 124
ra@@ 124
total 124
ts 124
cloud 123
en@@ 123
failure 123
fix 123
foreign 123
helping 123
importantly 123
members 123
mountain 123
mr. 123
smell 123
statistics 123
turning 123
u.k. 123
urban 123
worry 123
ancient 122
despite 122
fashion 122
french 122
g@@ 122
interact 122
island 122
lesson 122
ma@@ 122
meters 122
report 122
river 122
sexual 122
shoes 122
star 122
tissue 122
typical 122
atmosphere 121
describe 121
emotions 121
forever 121
imagination 121
laws 121
method 121
responsible 121
throw 121
breast 120
brother 120
enormous 120
graph 120
nations 120
passion 120
professor 120
received 120
suffering 120
wisdom 120
y@@ 120
13 119
events 119
leading 119
relationships 119
300 118
achieve 118
argument 118
attack 118
british 118
corner 118
effects 118
equal 118
photos 118
pressure 118
random 118
character 117
check 117
fighting 117
gotten 117
landscape 117
loss 117
non-@@ 117
window 117
10,000 116
adults 116
benefits 116
bo@@ 116
brazil 116
campaign 116
extreme 116
failed 116
heat 116
interaction 116
invisible 116
japan 116
mouse 116
rock 116
voices 116
workers 116
3@@ 115
according 115
b@@ 115
ball 115
capital 115
compared 115
due 115
flu 115
genome 115
o@@ 115
painting 115
researchers 115
se@@ 115
term 115
yellow 115
3d 114
department 114
dinner 114
diversity 114
drawing 114
engage 114
figured 114
gay 114
infrastructure 114
insects 114
perfectly 114
responsibility 114
seemed 114
stuck 114
24 113
afford 113
arab 113
benefit 113
billions 113
bridge 113
creatures 113
crime 113
daily 113
detail 113
fairly 113
languages 113
lunch 113
married 113
names 113
ro@@ 113
shouldn 113
sing 113
apple 112
c@@ 112
colors 112
cycle 112
dreams 112
giant 112
holding 112
li@@ 112
m@@ 112
n@@ 112
strategy 112
asia 111
classroom 111
compare 111
emotion 111
hate 111
hidden 111
otherwise 111
protein 111
t@@ 111
target 111
ultimately 111
users 111
vast 111
y 111
aging 110
balance 110
belief 110
biological 110
block 110
collective 110
easier 110
email 110
equipment 110
fair 110
fascinating 110
gdp 110
keeping 110
magazine 110
negative 110
normally 110
versus 110
background 109
designer 109
discovery 109
managed 109
meat 109
necessarily 109
opened 109
quote 109
raised 109
respect 109
ti@@ 109
trained 109
whenever 109
17 108
con@@ 108
definition 108
degree 108
deliver 108
desire 108
edge 108
electrical 108
enjoy 108
farmers 108
fuel 108
investment 108
japanese 108
lack 108
ladies 108
losing 108
mark 108
mars 108
mothers 108
note 108
notion 108
offer 108
sector 108
sick 108
studied 108
transform 108
1,000 107
account 107
deeply 107
distance 107
experts 107
finished 107
increasingly 107
influence 107
invited 107
leads 107
p@@ 107
paint 107
planning 107
sudden 107
tremendous 107
virtual 107
x 107
affect 106
argue 106
awesome 106
chair 106
creation 106
damage 106
democratic 106
discover 106
european 106
la@@ 106
leaving 106
possibility 106
ting 106
universal 106
visit 106
worldwide 106
ated 105
brand 105
flight 105
followed 105
hair 105
houses 105
leader 105
legal 105
planets 105
profound 105
r 105
respond 105
san 105
separate 105
seriously 105
ship 105
thinks 105
watched 105
18@@ 104
advantage 104
airplane 104
associated 104
at@@ 104
collect 104
date 104
grown 104
iran 104
shapes 104
sister 104
station 104
surprised 104
u@@ 104
vaccine 104
2 103
400 103
base 103
believed 103
childhood 103
era 103
gene 103
k 103
rid 103
sold 103
ates 102
breath 102
brilliant 102
capable 102
competition 102
described 102
everyday 102
helps 102
le@@ 102
limited 102
phenomenon 102
re-@@ 102
survival 102
washington 102
wearing 102
20th 101
avoid 101
begins 101
businesses 101
comfortable 101
einstein 101
elements 101
engineers 101
heads 101
holes 101
kenya 101
labor 101
mouth 101
neighborhood 101
spirit 101
spot 101
wear 101
beat 100
economics 100
essential 100
experienced 100
facing 100
harder 100
joy 100
letters 100
ly 100
malaria 100
noise 100
organs 100
pole 100
predict 100
prize 100
struggle 100
tomorrow 100
army 99
bi@@ 99
catch 99
charles 99
cheap 99
collection 99
commercial 99
concerned 99
constantly 99
construction 99
currently 99
factory 99
facts 99
fold 99
grade 99
hasn 99
hopefully 99
killing 99
le 99
leaves 99
letter 99
mexico 99
operating 99
organic 99
penguins 99
proud 99
sugar 99
weapons 99
wood 99
bu@@ 98
charge 98
dimensions 98
expression 98
faith 98
g 98
george 98
gift 98
homes 98
honest 98
liked 98
marriage 98
moves 98
ri@@ 98
sad 98
surprise 98
tens 98
unless 98
wealth 98
9 97
appear 97
camp 97
israel 97
jump 97
multiple 97
net 97
paying 97
soldiers 97
ten 97
tough 97
twitter 97
caused 96
characters 96
circle 96
dots 96
fourth 96
markets 96
ordinary 96
threat 96
weird 96
1 95
awful 95
bubble 95
demand 95
depression 95
distribution 95
efficient 95
employees 95
identify 95
over@@ 95
safety 95
sharks 95
specifically 95
theater 95
wild 95
wow 95
2@@ 94
amp 94
arms 94
artificial 94
cognitive 94
highest 94
invest 94
molecular 94
property 94
rural 94
sentence 94
strength 94
valuable 94
wide 94
article 93
chicken 93
considered 93
count 93
diet 93
filled 93
gap 93
leg 93
minister 93
radical 93
remote 93
si@@ 93
slowly 93
steps 93
whereas 93
analysis 92
arts 92
ating 92
calls 92
church 92
contact 92
england 92
fell 92
generations 92
grandmother 92
horse 92
lady 92
metaphor 92
player 92
pounds 92
r@@ 92
underneath 92
wondering 92
2008 91
australia 91
canada 91
chemistry 91
dry 91
election 91
equivalent 91
feedback 91
fellow 91
finish 91
interface 91
motion 91
organized 91
phones 91
photographs 91
rain 91
religious 91
ride 91
round 91
sending 91
shop 91
testing 91
treated 91
ah 90
battery 90
clinical 90
co@@ 90
curious 90
debate 90
dogs 90
northern 90
pages 90
perception 90
pleasure 90
pro@@ 90
professional 90
protection 90
represent 90
row 90
studio 90
swim 90
videos 90
warming 90
bus 89
ch@@ 89
cross 89
cultures 89
details 89
empathy 89
engineer 89
fail 89
feelings 89
lie 89
manage 89
mit 89
musical 89
plane 89
politicians 89
prevent 89
psychology 89
puts 89
sa@@ 89
shares 89
spoke 89
tumor 89
whom 89
2,000 88
accident 88
adult 88
am@@ 88
bear 88
coast 88
empty 88
er@@ 88
evil 88
hell 88
illness 88
l 88
launched 88
location 88
partner 88
pollen 88
print 88
printing 88
scene 88
silence 88
transition 88
typically 88
vehicle 88
walls 88
ac@@ 87
accept 87
ba@@ 87
card 87
caught 87
chain 87
define 87
definitely 87
dynamic 87
fewer 87
fiction 87
fields 87
forced 87
gentlemen 87
intelligent 87
lies 87
management 87
passionate 87
paul 87
personally 87
picked 87
producing 87
resource 87
saved 87
stood 87
absolute 86
ages 86
birthday 86
convinced 86
covered 86
designers 86
direct 86
folks 86
hadn 86
honor 86
infected 86
metal 86
poetry 86
promise 86
roll 86
shark 86
soil 86
algorithms 85
arrived 85
car@@ 85
co2 85
consequences 85
consumption 85
deeper 85
driver 85
grand 85
hurt 85
independent 85
mo@@ 85
mountains 85
organisms 85
requires 85
sh@@ 85
signal 85
victims 85
wars 85
weather 85
3 84
ab@@ 84
adam 84
ation 84
bits 84
buying 84
driven 84
effectively 84
ends 84
exercise 84
expected 84
f@@ 84
false 84
farm 84
gold 84
gravity 84
heavy 84
hospitals 84
invention 84
lessons 84
lifetime 84
los 84
opening 84
plus 84
principle 84
reaction 84
released 84
sources 84
staff 84
topic 84
tracking 84
user 84
150 83
35 83
blocks 83
calling 83
emerging 83
emissions 83
exact 83
fat 83
galaxy 83
ha@@ 83
importance 83
liquid 83
maps 83
mortality 83
newspaper 83
patent 83
thomas 83
worried 83
addition 82
affected 82
ant 82
civilization 82
closed 82
designing 82
eastern 82
error 82
falling 82
germany 82
graduate 82
introduced 82
layer 82
link 82
lo@@ 82
marketing 82
miss 82
nose 82
notes 82
practical 82
processes 82
prove 82
relatively 82
risks 82
roughly 82
serve 82
shame 82
technical 82
tradition 82
trials 82
trick 82
unexpected 82
van 82
authority 81
budget 81
epidemic 81
existing 81
express 81
gps 81
mistakes 81
narrative 81
platform 81
players 81
release 81
reward 81
sides 81
status 81
stupid 81
switch 81
thoughts 81
toward 81
valley 81
added 80
battle 80
carefully 80
en 80
engaged 80
gain 80
garden 80
gender 80
grid 80
long-term 80
match 80
mathematics 80
me@@ 80
mentioned 80
milk 80
nervous 80
novel 80
organ 80
particles 80
pre@@ 80
seat 80
selling 80
spectrum 80
stream 80
stronger 80
transformation 80
u 80
vulnerable 80
3,000 79
4 79
cave 79
controlled 79
copy 79
da 79
depends 79
exists 79
factor 79
goods 79
gun 79
he@@ 79
memories 79
mention 79
michael 79
pm 79
polio 79
remain 79
require 79
root 79
singing 79
sweden 79
w@@ 79
z@@ 79
accurate 78
acting 78
amounts 78
as@@ 78
bird 78
bright 78
chose 78
credit 78
ded 78
double 78
electric 78
fill 78
harvard 78
inner 78
laboratory 78
motor 78
possibilities 78
principles 78
relevant 78
restaurant 78
scared 78
suggests 78
trip 78
unit 78
yesterday 78
2010 77
alternative 77
bang 77
beach 77
bike 77
brothers 77
carrying 77
connections 77
cutting 77
desert 77
dis@@ 77
drink 77
economists 77
ecosystem 77
enter 77
humor 77
hydrogen 77
institute 77
introduce 77
master 77
p 77
peak 77
pop 77
ring 77
sees 77
senses 77
signals 77
telescope 77
tons 77
unlike 77
winter 77
youtube 77
acts 76
atoms 76
boxes 76
cat 76
components 76
fake 76
fund 76
grandfather 76
m 76
mechanical 76
medium 76
per@@ 76
proteins 76
rapidly 76
regular 76
resistance 76
sample 76
setting 76
shake 76
solid 76
techniques 76
vaccines 76
wondered 76
actions 75
agriculture 75
animation 75
anti-@@ 75
capture 75
dealing 75
defined 75
dramatic 75
economies 75
encourage 75
environments 75
h@@ 75
haiti 75
hoping 75
increased 75
interests 75
james 75
pair 75
participate 75
pe@@ 75
rare 75
rates 75
regions 75
runs 75
sequence 75
southern 75
subjects 75
sunlight 75
tail 75
ton 75
wine 75
45 74
behavioral 74
britain 74
chemicals 74
concrete 74
cooking 74
entrepreneurs 74
exchange 74
finance 74
framework 74
fresh 74
goals 74
hi 74
interview 74
it@@ 74
la 74
messages 74
operate 74
opinion 74
philosophy 74
sets 74
stayed 74
string 74
suggest 74
sweet 74
swimming 74
tea 74
v@@ 74
wave 74
well-being 74
2000 73
advice 73
applied 73
bar 73
bar@@ 73
borders 73
court 73
embrace 73
films 73
formed 73
fundamentally 73
funding 73
generate 73
joined 73
literature 73
lung 73
member 73
movements 73
n 73
ne@@ 73
option 73
plans 73
richard 73
sports 73
spring 73
st@@ 73
traveling 73
u.n. 73
variety 73
worlds 73
als 72
boat 72
bottle 72
channel 72
clouds 72
combination 72
computing 72
confidence 72
earthquake 72
hotel 72
ii 72
illegal 72
instrument 72
intellectual 72
judge 72
manufacturing 72
meaningful 72
mirror 72
operation 72
percentage 72
robert 72
sites 72
skill 72
smile 72
solved 72
solving 72
steel 72
teeth 72
year-old 72
100,000 71
75 71
ants 71
awareness 71
brown 71
circumstances 71
correct 71
dan 71
danger 71
forests 71
generally 71
intense 71
library 71
males 71
on@@ 71
previous 71
primary 71
processing 71
represents 71
russia 71
ss 71
teams 71
unusual 71
viruses 71
2007 70
applications 70
burn 70
challenging 70
conscious 70
constant 70
dancing 70
display 70
element 70
german 70
grateful 70
gulf 70
healthcare 70
hunger 70
identical 70
im@@ 70
insight 70
kilometers 70
laptop 70
mechanism 70
mix 70
nasa 70
obama 70
oceans 70
parent 70
replace 70
sir 70
tape 70
union 70
wake 70
windows 70
writer 70
&apos;@@ 69
21st 69
8 69
advanced 69
appropriate 69
behaviors 69
bush 69
centers 69
cents 69
chart 69
click 69
cortex 69
crowd 69
destruction 69
doubt 69
eggs 69
frame 69
greenhouse 69
hall 69
heroes 69
immune 69
include 69
innovative 69
joke 69
lying 69
mainly 69
march 69
mistake 69
movies 69
or@@ 69
phase 69
physically 69
reverse 69
samples 69
section 69
stands 69
stone 69
suppose 69
surely 69
waves 69
welcome 69
actor 68
advertising 68
architect 68
busy 68
chocolate 68
closely 68
collaboration 68
contrast 68
conventional 68
convince 68
cup 68
defense 68
determine 68
dictionary 68
divide 68
equally 68
fears 68
grab 68
iphone 68
kitchen 68
largely 68
lifestyle 68
mu@@ 68
naturally 68
nor 68
po@@ 68
sensitive 68
signed 68
sustainability 68
2009 67
author 67
chip 67
collected 67
combine 67
consumer 67
ding 67
do@@ 67
dot 67
entertainment 67
facial 67
hide 67
horrible 67
inter@@ 67
islamic 67
keeps 67
latin 67
lets 67
mathematical 67
measuring 67
ought 67
ous 67
painful 67
paris 67
parking 67
passwords 67
post 67
prepared 67
properties 67
prototype 67
puzzle 67
radiation 67
severe 67
shoot 67
signs 67
situations 67
somewhat 67
tests 67
transformed 67
ultimate 67
vulnerability 67
warm 67
app 66
arguments 66
burning 66
disaster 66
discussion 66
du@@ 66
explained 66
faced 66
flowers 66
former 66
francisco 66
frankly 66
globe 66
h 66
hits 66
housing 66
islands 66
j@@ 66
kingdom 66
knee 66
mi@@ 66
nigeria 66
options 66
overall 66
perform 66
pollution 66
pre-@@ 66
prefer 66
pure 66
shaped 66
tonight 66
vehicles 66
z 66
21 65
4@@ 65
5 65
7@@ 65
activities 65
admit 65
asks 65
assume 65
axis 65
blog 65
cameras 65
centuries 65
ch 65
collapse 65
collecting 65
conversations 65
derek 65
detect 65
fascinated 65
fingers 65
flower 65
galaxies 65
insurance 65
invent 65
january 65
mystery 65
neither 65
nobel 65
obsessed 65
oxytocin 65
pakistan 65
plays 65
presence 65
pulled 65
quiet 65
reached 65
records 65
remove 65
satellite 65
shut 65
spreading 65
steve 65
survey 65
symptoms 65
taste 65
technique 65
transportation 65
unknown 65
walks 65
wikipedia 65
19th 64
600 64
bag 64
bio@@ 64
broke 64
congress 64
continent 64
continued 64
existence 64
hang 64
interactive 64
l@@ 64
lay 64
length 64
liver 64
man@@ 64
martin 64
muslim 64
neighbors 64
nurses 64
photography 64
september 64
sight 64
sophisticated 64
sts 64
whale 64
wise 64
6 63
6@@ 63
apartment 63
border 63
button 63
christmas 63
classes 63
courage 63
disappear 63
dropped 63
ds 63
efficiency 63
explains 63
furniture 63
handle 63
increasing 63
input 63
inspiration 63
interactions 63
mile 63
nowhere 63
obesity 63
papers 63
phrase 63
plate 63
pregnant 63
rational 63
reaching 63
recorded 63
struck 63
suffer 63
tall 63
theme 63
toilet 63
tribe 63
visible 63
worker 63
agency 62
allowing 62
boring 62
cards 62
coal 62
cure 62
curve 62
darwin 62
dense 62
designs 62
diagnosed 62
educational 62
expert 62
factors 62
gates 62
grain 62
ideal 62
implications 62
incentives 62
ine 62
likes 62
manhattan 62
meetings 62
methods 62
offered 62
one-@@ 62
outcome 62
productive 62
pushing 62
required 62
sensors 62
songs 62
soul 62
spoken 62
statement 62
su@@ 62
tour 62
underwater 62
well-@@ 62
whales 62
wheel 62
wing 62
x-ray 62
zone 62
5,000 61
5@@ 61
ad 61
angry 61
arabic 61
band 61
bias 61
boston 61
careful 61
causing 61
classic 61
coral 61
customers 61
director 61
ear 61
flat 61
granted 61
gray 61
gu@@ 61
hearts 61
hero 61
jail 61
joe 61
launch 61
license 61
lu@@ 61
mar@@ 61
potentially 61
protected 61
religions 61
romantic 61
ru@@ 61
technological 61
teenagers 61
ter 61
tested 61
therapy 61
tom 61
translate 61
tribes 61
vi@@ 61
violent 61
volume 61
younger 61
application 60
attacks 60
attempt 60
bomb 60
cartoon 60
cats 60
combined 60
conflicts 60
conservation 60
deaths 60
dramatically 60
ears 60
egypt 60
equation 60
feeding 60
fi@@ 60
fifth 60
france 60
frozen 60
height 60
higgs 60
internal 60
journalist 60
latest 60
laugh 60
maintain 60
plenty 60
pool 60
providing 60
seeds 60
selection 60
shall 60
sheep 60
snow 60
soft 60
standards 60
stations 60
surrounded 60
tax 60
touched 60
under@@ 60
ver@@ 60
wherever 60
angeles 59
bell 59
breathe 59
claim 59
component 59
conclusion 59
disorder 59
distributed 59
evolutionary 59
existed 59
golf 59
happier 59
high-@@ 59
historical 59
illusion 59
mt 59
neuroscience 59
precisely 59
raw 59
relate 59
roads 59
robotic 59
roof 59
shock 59
smith 59
sphere 59
successfully 59
t-@@ 59
three-dimensional 59
transparency 59
traveled 59
trend 59
trillion 59
tube 59
volunteers 59
abstract 58
alzheimer 58
antibiotics 58
apparently 58
appears 58
behave 58
bur@@ 58
clock 58
clothes 58
commitment 58
cook 58
d-@@ 58
decline 58
destroyed 58
el 58
enemy 58
engagement 58
exploration 58
figures 58
fortunately 58
ge@@ 58
ignore 58
increases 58
linked 58
occurred 58
official 58
out@@ 58
outcomes 58
partners 58
pocket 58
proof 58
regret 58
removed 58
rooms 58
savings 58
score 58
shadow 58
sp@@ 58
speakers 58
te@@ 58
ties 58
treating 58
wanting 58
22 57
academic 57
airport 57
amazon 57
appeared 57
appreciate 57
bible 57
breaking 57
celebrate 57
classical 57
clay 57
consume 57
cow 57
cry 57
divided 57
drill 57
drives 57
engaging 57
flies 57
ho@@ 57
imaging 57
invite 57
limits 57
loud 57
orange 57
peter 57
pilot 57
poem 57
poorest 57
populations 57
prime 57
raising 57
scan 57
secondly 57
seed 57
silent 57
smoke 57
stable 57
style 57
title 57
upper 57
2005 56
ad@@ 56
afternoon 56
banks 56
bicycle 56
charity 56
clever 56
colony 56
copyright 56
crying 56
curiosity 56
elections 56
elephant 56
evening 56
expand 56
extent 56
extinct 56
fixed 56
functional 56
funded 56
go@@ 56
imagined 56
injury 56
ling 56
logic 56
makers 56
mess 56
meter 56
mri 56
oldest 56
paintings 56
participants 56
privacy 56
pu@@ 56
reference 56
remains 56
remind 56
speaker 56
split 56
sticks 56
suicide 56
suit 56
thin 56
y-@@ 56
- 55
95 55
99 55
achieved 55
agenda 55
amongst 55
angle 55
bet 55
bones 55
cha@@ 55
chaos 55
cheaper 55
cheese 55
climb 55
contribute 55
cor@@ 55
corporate 55
density 55
der 55
desk 55
destroy 55
expectations 55
farmer 55
fathers 55
females 55
foods 55
footprint 55
fusion 55
gather 55
generated 55
har@@ 55
hello 55
mall 55
mate 55
monkey 55
offers 55
organize 55
origami 55
pa@@ 55
provided 55
receive 55
repair 55
sculpture 55
strangers 55
super 55
th@@ 55
tries 55
tu@@ 55
unclear 55
wired 55
23 54
accessible 54
adapt 54
ag@@ 54
agencies 54
agreed 54
anonymous 54
ans 54
aspect 54
aspects 54
bears 54
boundaries 54
breathing 54
captured 54
cartoons 54
chicago 54
chosen 54
circuit 54
congo 54
criminal 54
depending 54
dinosaurs 54
efforts 54
falls 54
finds 54
for@@ 54
functions 54
ga@@ 54
hungry 54
ignorance 54
islam 54
les 54
measured 54
microscope 54
morality 54
multi-@@ 54
musician 54
native 54
occur 54
open-source 54
optimistic 54
par@@ 54
permanent 54
presented 54
properly 54
ps 54
scratch 54
season 54
shed 54
sub@@ 54
symbol 54
ta@@ 54
talent 54
to@@ 54
tony 54
anger 53
architects 53
aside 53
astonishing 53
beer 53
carried 53
clip 53
comedy 53
concepts 53
creature 53
delivered 53
demonstrate 53
document 53
drone 53
embedded 53
enable 53
evolve 53
fabric 53
ford 53
fortune 53
instruments 53
interestingly 53
lake 53
missed 53
needle 53
neighbor 53
performing 53
piano 53
placed 53
presentation 53
recognition 53
recording 53
recovery 53
relations 53
rescue 53
rio 53
rising 53
sensory 53
shell 53
so@@ 53
spinal 53
spiritual 53
surgeon 53
thrown 53
tic 53
till 53
tower 53
usual 53
80s 52
afterwards 52
beliefs 52
calculate 52
capita 52
connecting 52
diverse 52
dozen 52
dung 52
e-@@ 52
essence 52
ex@@ 52
explanation 52
exploring 52
extract 52
failing 52
features 52
fed 52
fishing 52
frog 52
grows 52
hackers 52
improvement 52
ingredients 52
institution 52
lovely 52
mice 52
mon@@ 52
no@@ 52
op@@ 52
produces 52
profit 52
proper 52
quest 52
rat 52
relative 52
reported 52
ridiculous 52
se 52
searching 52
sheet 52
sleeping 52
so-called 52
stock 52
surprisingly 52
tasks 52
tri@@ 52
underground 52
villages 52
wire 52
yours 52
zoom 52
2004 51
50,000 51
70s 51
affordable 51
ally 51
arctic 51
attached 51
ban@@ 51
ben 51
consumers 51
county 51
district 51
dive 51
dolphins 51
electronic 51
emergency 51
fan 51
floating 51
fossil 51
frank 51
graphic 51
harm 51
herself 51
ic 51
inequality 51
is@@ 51
muscles 51
muslims 51
physicist 51
practices 51
protecting 51
quantum 51
queen 51
react 51
reform 51
rely 51
represented 51
returned 51
robust 51
rocket 51
scary 51
silicon 51
st 51
struggling 51
sum 51
ters 51
three-@@ 51
tied 51
uncomfortable 51
units 51
unlikely 51
wireless 51
.@@ 50
automatically 50
balloon 50
ber@@ 50
cake 50
characteristics 50
chest 50
contains 50
controlling 50
cooperation 50
cute 50
da@@ 50
dependent 50
des 50
dish 50
el@@ 50
electronics 50
entered 50
eric 50
expectancy 50
flew 50
harvest 50
hip 50
hu@@ 50
inspiring 50
intuitive 50
jazz 50
ks 50
laid 50
laser 50
lighting 50
lions 50
mad 50
musicians 50
nowadays 50
pack 50
password 50
poet 50
rarely 50
recognized 50
richer 50
s-@@ 50
separated 50
shopping 50
soup 50
staying 50
synthetic 50
yorker 50
7 49
advance 49
baseball 49
che@@ 49
continues 49
crossing 49
depend 49
depressed 49
dioxide 49
directions 49
discuss 49
distant 49
drawn 49
drivers 49
drones 49
es@@ 49
estimate 49
feature 49
flag 49
gabby 49
genius 49
geographic 49
guide 49
holds 49
howard 49
identified 49
imagery 49
instantly 49
involves 49
june 49
killer 49
meal 49
mushroom 49
personality 49
plastics 49
productivity 49
psychological 49
reduced 49
restore 49
review 49
senior 49
slides 49
stages 49
stanford 49
stroke 49
succeed 49
thick 49
trends 49
virtually 49
2006 48
abuse 48
adding 48
ads 48
anxiety 48
attract 48
au@@ 48
barely 48
cambridge 48
comfort 48
contract 48
controls 48
crops 48
debt 48
dies 48
dominant 48
dress 48
ending 48
ensure 48
hardly 48
hitting 48
impacts 48
instructions 48
iron 48
luck 48
motivation 48
na@@ 48
nets 48
opens 48
orbit 48
pace 48
palm 48
paradigm 48
phosphorus 48
pig 48
pizza 48
policies 48
predictions 48
prepare 48
prices 48
probability 48
provides 48
quarter 48
reveal 48
served 48
shifting 48
strategies 48
suggesting 48
tech 48
translation 48
ugly 48
uncertainty 48
vegetables 48
vessels 48
views 48
visited 48
wheat 48
wheelchair 48
winning 48
-like 47
20,000 47
2003 47
accidents 47
agricultural 47
al-@@ 47
antarctica 47
bri@@ 47
bug 47
chairs 47
crucial 47
demonstration 47
disappeared 47
elderly 47
entropy 47
explaining 47
facility 47
february 47
football 47
founded 47
frequency 47
grass 47
ha 47
henry 47
hill 47
improved 47
instant 47
jihad 47
limit 47
lock 47
loop 47
luckily 47
micro@@ 47
mining 47
mixed 47
mor@@ 47
openness 47
optimism 47
pacific 47
picking 47
plain 47
polar 47
precise 47
reduction 47
researcher 47
retirement 47
rose 47
rwanda 47
scanner 47
secure 47
seek 47
silver 47
spots 47
stores 47
sub-saharan 47
sw 47
telephone 47
tes 47
tricks 47
writers 47
27 46
4,000 46
affects 46
arrive 46
assumptions 46
blank 46
blow 46
category 46
ceiling 46
clients 46
colleague 46
detailed 46
determined 46
diabetes 46
drinking 46
equality 46
escape 46
f 46
flip 46
gathering 46
improving 46
ings 46
korea 46
laughing 46
lawyers 46
layers 46
letting 46
locked 46
ma 46
microsoft 46
ni@@ 46
organism 46
ours 46
ously 46
overcome 46
photographer 46
powers 46
prosthetic 46
rats 46
ray 46
revenue 46
scores 46
secrets 46
session 46
silly 46
smiling 46
sunday 46
toy 46
trash 46
truck 46
trucks 46
viewer 46
2011 45
65 45
8@@ 45
additional 45
ancestors 45
begun 45
bold 45
bra@@ 45
brian 45
colonies 45
combat 45
committed 45
dignity 45
economist 45
egg 45
exposed 45
external 45
federal 45
filter 45
fires 45
forgotten 45
frustrated 45
globalization 45
governance 45
hypothesis 45
inevitable 45
infinite 45
initial 45
ink 45
interacting 45
ism 45
leap 45
load 45
logical 45
maker 45
odds 45
ooh 45
originally 45
output 45
painted 45
parallel 45
penguin 45
philosopher 45
photographed 45
privilege 45
programming 45
pushed 45
reflect 45
sauce 45
sciences 45
serving 45
simplicity 45
suggested 45
te 45
tears 45
toxic 45
transplant 45
v 45
19 44
33 44
activist 44
backwards 44
biologists 44
boom 44
cash 44
chances 44
chief 44
choosing 44
club 44
conservative 44
cord 44
damn 44
difficulty 44
dig 44
drove 44
educated 44
enables 44
encounter 44
favor 44
formula 44
friendly 44
hat 44
headlines 44
integrated 44
links 44
magnetic 44
mayor 44
microbes 44
muscle 44
neighborhoods 44
nurse 44
objective 44
offices 44
operations 44
outer 44
ownership 44
oxford 44
parties 44
pause 44
pen 44
ph.d. 44
pretend 44
printed 44
pulling 44
resilience 44
rice 44
route 44
sacrifice 44
sales 44
sensor 44
sentences 44
sisters 44
soldier 44
st. 44
stops 44
super@@ 44
supported 44
suspended 44
sustain 44
tap 44
texting 44
tired 44
trains 44
tubes 44
turkey 44
victim 44
washing 44
woke 44
&apos;clock 43
17@@ 43
90s 43
alcohol 43
ar 43
assets 43
blame 43
bubbles 43
burden 43
citizen 43
compelling 43
curriculum 43
darkness 43
dedicated 43
doors 43
dressed 43
elsewhere 43
expressions 43
extension 43
forming 43
garage 43
ghana 43
globally 43
habitat 43
hire 43
immediate 43
infection 43
items 43
j 43
journal 43
judgment 43
keyboard 43
lecture 43
limb 43
magical 43
mail 43
matrix 43
merely 43
miserable 43
mosquito 43
naked 43
ness 43
neural 43
occasionally 43
odd 43
ol@@ 43
opposed 43
pi@@ 43
pitch 43
procedure 43
professionals 43
rating 43
refugees 43
remained 43
robotics 43
rush 43
sha@@ 43
shooting 43
sits 43
soviet 43
specialized 43
taliban 43
targets 43
terrorism 43
tions 43
tissues 43
transfer 43
vital 43
voting 43
war@@ 43
whatsoever 43
ze 43
250 42
accepted 42
adventure 42
answered 42
association 42
attitude 42
audio 42
autonomous 42
bal@@ 42
bars 42
beijing 42
belong 42
bin 42
breakfast 42
calories 42
ci@@ 42
circuits 42
clinic 42
collaborative 42
completed 42
confused 42
delivery 42
den@@ 42
devil 42
dough 42
dozens 42
eaten 42
edges 42
engines 42
excellent 42
experimental 42
fastest 42
focusing 42
genetically 42
grandchildren 42
helpful 42
in-@@ 42
independence 42
industries 42
influenced 42
innocent 42
jesus 42
jim 42
jo@@ 42
ke@@ 42
labs 42
landed 42
lens 42
liberal 42
lift 42
monitor 42
newspapers 42
nodes 42
panel 42
paralyzed 42
perceive 42
plot 42
plug 42
pointing 42
poster 42
preserve 42
prior 42
proposed 42
prosperity 42
qu@@ 42
reducing 42
remaining 42
remembered 42
representation 42
roots 42
ses 42
shocking 42
shoulder 42
steal 42
strongly 42
suffered 42
tie 42
toys 42
transparent 42
um 42
uncle 42
underlying 42
universities 42
w 42
wash 42
witness 42
29 41
60s 41
agent 41
ain 41
ak 41
ality 41
analyze 41
array 41
articles 41
attractive 41
beating 41
bee 41
bizarre 41
brief 41
cal@@ 41
cap 41
ceo 41
crows 41
description 41
dirty 41
documents 41
download 41
earn 41
engineered 41
ethical 41
fabulous 41
facilities 41
factories 41
figuring 41
florida 41
gradually 41
half-@@ 41
healthier 41
homeless 41
inch 41
ins 41
investors 41
israeli 41
lawyer 41
leather 41
legacy 41
ley 41
located 41
marine 41
mis@@ 41
observe 41
om@@ 41
panels 41
passenger 41
pet 41
pink 41
posted 41
precious 41
pump 41
quit 41
rebuild 41
restaurants 41
retina 41
russian 41
shelf 41
shipping 41
straightforward 41
tank 41
texas 41
tongue 41
translated 41
vertical 41
widely 41
1970s 40
1@@ 40
800 40
accounts 40
bedroom 40
besides 40
bor@@ 40
briefly 40
bro@@ 40
can@@ 40
categories 40
claims 40
closing 40
concern 40
conclude 40
contrary 40
convert 40
crop 40
currency 40
cyrus 40
december 40
disorders 40
domestic 40
donor 40
emerged 40
firing 40
five-@@ 40
fluid 40
friday 40
fruit 40
fuels 40
gear 40
genetics 40
glad 40
gonna 40
grandparents 40
graphics 40
gs 40
habits 40
hans 40
hemisphere 40
hollywood 40
host 40
inches 40
insights 40
isolated 40
ju@@ 40
loves 40
low-@@ 40
managers 40
mindset 40
miracle 40
narrow 40
neuron 40
observation 40
october 40
officer 40
ongoing 40
origin 40
packed 40
physician 40
pile 40
positions 40
preparing 40
printer 40
rainforest 40
repeat 40
rolling 40
sandwich 40
scenario 40
sharp 40
ships 40
smoking 40
sons 40
ste@@ 40
terrifying 40
tip 40
uganda 40
via 40
warning 40
we@@ 40
wheels 40
120 39
19@@ 39
2001 39
2050 39
academy 39
actors 39
aim 39
amy 39
announced 39
armed 39
artistic 39
athletes 39
ators 39
bite 39
bound 39
bre@@ 39
candidate 39
caring 39
charlie 39
chips 39
clinics 39
comparison 39
contemporary 39
corn 39
council 39
cousin 39
dear 39
describes 39
diagnosis 39
dialogue 39
dictionaries 39
dust 39
ecosystems 39
em@@ 39
finger 39
fought 39
ger 39
glasses 39
gut 39
harbor 39
headed 39
heaven 39
honey 39
hormone 39
ignored 39
illustrate 39
includes 39
index 39
insane 39
jack 39
ken 39
lands 39
lit 39
ls 39
mechanisms 39
mobility 39
mushrooms 39
neat 39
norden 39
os 39
pairs 39
passing 39
performed 39
pound 39
predicted 39
profoundly 39
promote 39
qualities 39
rapid 39
recover 39
regime 39
reminded 39
responses 39
seal 39
silk 39
sized 39
someday 39
spanish 39
speaks 39
stability 39
storm 39
substance 39
subtle 39
tends 39
threw 39
tragedy 39
traits 39
transport 39
ty 39
ubiquitous 39
unprecedented 39
variation 39
ve@@ 39
ward 39
weak 39
wedding 39
william 39
wings 39
x@@ 39
yield 39
28 38
30,000 38
a.m. 38
aircraft 38
alpha 38
architectural 38
backyard 38
bow 38
capitalism 38
captain 38
ceremony 38
christian 38
coke 38
database 38
demands 38
depth 38
diagram 38
distinct 38
division 38
drawings 38
elected 38
flash 38
flowing 38
fortunate 38
fragile 38
freely 38
garbage 38
hanging 38
hardware 38
healing 38
historic 38
homework 38
honestly 38
household 38
id 38
intervention 38
intuition 38
ir@@ 38
jewish 38
koran 38
lamp 38
lee 38
lifespan 38
men@@ 38
ment 38
mood 38
motors 38
ms 38
onstage 38
partly 38
personalized 38
prisons 38
pursuit 38
puzzles 38
racing 38
ratio 38
realizing 38
reminds 38
sam 38
san@@ 38
sheets 38
shine 38
significantly 38
storytelling 38
super-@@ 38
the@@ 38
threats 38
two-@@ 38
unbelievable 38
wealthy 38
wider 38
1960 37
700 37
9@@ 37
a-@@ 37
activate 37
ap@@ 37
arguing 37
arthur 37
bacterial 37
bags 37
banking 37
barrier 37
breeding 37
buried 37
calculations 37
circles 37
co-@@ 37
commit 37
communications 37
consequence 37
contain 37
continuing 37
crash 37
cu@@ 37
daughters 37
deals 37
di 37
domain 37
emerge 37
excitement 37
excuse 37
exhibition 37
experiencing 37
failures 37
fallen 37
fe@@ 37
folding 37
foundations 37
fu@@ 37
generous 37
gi@@ 37
gore 37
grace 37
graduated 37
grave 37
guns 37
hiding 37
highway 37
hometown 37
hunting 37
included 37
innovations 37
iranian 37
kidney 37
ku@@ 37
lottery 37
mammals 37
manager 37
mandela 37
mapping 37
meals 37
meanwhile 37
ministry 37
nearby 37
nerve 37
nuts 37
opera 37
owned 37
owner 37
pants 37
particle 37
pigs 37
previously 37
psychologists 37
re 37
recipe 37
refugee 37
republic 37
resistant 37
sadly 37
sake 37
shanghai 37
shelter 37
singapore 37
skull 37
smarter 37
static 37
structural 37
subway 37
syndrome 37
tag 37
tedtalks 37
threatened 37
tics 37
traditions 37
weapon 37
wires 37
yourselves 37
zealand 37
85 36
achievement 36
air@@ 36
analogy 36
aristotle 36
arrested 36
asleep 36
audiences 36
beneath 36
bottles 36
chapter 36
clusters 36
colored 36
cooperate 36
crimes 36
daniel 36
dawn 36
demographic 36
disabled 36
dose 36
elementary 36
elite 36
endangered 36
expanding 36
fiber 36
firm 36
flexible 36
footage 36
forgot 36
gained 36
gases 36
glacier 36
gods 36
golden 36
guarantee 36
habit 36
happily 36
inspire 36
installed 36
intensive 36
intent 36
italy 36
ke 36
kers 36
knife 36
l.a. 36
label 36
lego 36
mal@@ 36
micro-@@ 36
monkeys 36
mycelium 36
navigate 36
nonprofit 36
nutrients 36
ot@@ 36
package 36
pointed 36
prisoners 36
profits 36
prostate 36
purposes 36
readers 36
safer 36
schizophrenia 36
seeking 36
shocked 36
signature 36
similarly 36
slums 36
socially 36
spreads 36
stewart 36
stored 36
stretch 36
supermarket 36
supporting 36
surfaces 36
swiss 36
symbols 36
telescopes 36
temporary 36
truths 36
up@@ 36
vessel 36
vietnam 36
volunteer 36
wa@@ 36
yards 36
zed 36
1980s 35
1990s 35
20@@ 35
31 35
abilities 35
abraham 35
aggressive 35
airplanes 35
algorithm 35
all-@@ 35
applying 35
approaches 35
ard 35
authors 35
bay 35
biologist 35
blindness 35
brands 35
breaks 35
broad 35
burned 35
chile 35
climbing 35
collapsed 35
comments 35
competitive 35
condoms 35
confident 35
constraints 35
courses 35
crew 35
critic 35
customer 35
cycles 35
cylinder 35
democracies 35
denial 35
dutch 35
dynamics 35
ecological 35
empire 35
entrepreneur 35
errors 35
estimates 35
explosion 35
extend 35
fied 35
four-@@ 35
funds 35
ge 35
ged 35
gesture 35
goodbye 35
gotta 35
gram 35
hallucinations 35
heritage 35
hi@@ 35
holy 35
insulin 35
invested 35
ja@@ 35
keys 35
mainstream 35
marker 35
mike 35
mines 35
obese 35
orchestra 35
parliament 35
passes 35
peaceful 35
perceived 35
physicians 35
pockets 35
portion 35
primitive 35
profile 35
pyramid 35
reports 35
representative 35
request 35
rituals 35
rope 35
rough 35
satellites 35
sexy 35
shy 35
spectacular 35
stopping 35
surrounding 35
tedtalk 35
ten@@ 35
th 35
tion 35
transmission 35
transmit 35
tune 35
unable 35
voted 35
winner 35
worms 35
abandoned 34
adopt 34
affecting 34
agreement 34
answering 34
anti@@ 34
artwork 34
august 34
autistic 34
awkward 34
beautifully 34
believes 34
bob 34
bombs 34
boss 34
carolina 34
channels 34
chi@@ 34
choir 34
cla@@ 34
classrooms 34
clue 34
command 34
comment 34
compete 34
contribution 34
corporations 34
cuts 34
decision-making 34
defining 34
deserve 34
destiny 34
determines 34
devastating 34
drew 34
duck 34
educate 34
electron 34
embarrassing 34
ence 34
et 34
fa@@ 34
file 34
fits 34
freezing 34
gg 34
gorgeous 34
ham 34
han@@ 34
hormones 34
ibm 34
initially 34
inmates 34
interviews 34
ist 34
kills 34
listened 34
locations 34
manual 34
marathon 34
mid-@@ 34
mosquitos 34
ngos 34
nights 34
over-@@ 34
pad 34
paradox 34
parenting 34
patents 34
pen@@ 34
planted 34
portrait 34
powered 34
proven 34
psychologist 34
ran@@ 34
rape 34
reactions 34
recession 34
regardless 34
replicate 34
right-hand 34
rivers 34
sc@@ 34
scales 34
shakespeare 34
shrimp 34
simpler 34
smells 34
smooth 34
spin 34
sport 34
stephen 34
stepped 34
ster 34
strategic 34
surgeons 34
survived 34
tackle 34
ticket 34
tiger 34
tone 34
topics 34
treatments 34
tunnel 34
ultrasound 34
upset 34
watson 34
wildlife 34
youth 34
.com 33
14@@ 33
1990 33
2002 33
32 33
africans 33
alien 33
atlantic 33
authentic 33
autonomy 33
award 33
beetles 33
believing 33
ben@@ 33
bills 33
biosphere 33
bored 33
bowl 33
bridges 33
bronx 33
bucks 33
camps 33
candy 33
carries 33
cast 33
cheat 33
chess 33
column 33
competing 33
compromise 33
covers 33
criteria 33
damaged 33
demo 33
der@@ 33
despair 33
desperately 33
dimension 33
discipline 33
dopamine 33
drum 33
eve 33
extended 33
fate 33
flows 33
gate 33
gathered 33
genocide 33
gentleman 33
glimpse 33
guard 33
guilty 33
helicopter 33
her@@ 33
hunt 33
implant 33
indonesia 33
ingly 33
investments 33
joshua 33
ka@@ 33
lanes 33
le-@@ 33
limitations 33
luxury 33
manipulate 33
mc@@ 33
mechanics 33
momentum 33
mysterious 33
norway 33
november 33
nutrition 33
obstacles 33
pal@@ 33
participation 33
passage 33
passive 33
pie 33
pri@@ 33
pride 33
primarily 33
proposal 33
radically 33
reasonable 33
recall 33
replaced 33
resolve 33
riding 33
rocks 33
sal@@ 33
salt 33
scanning 33
sink 33
smartphone 33
spider 33
storage 33
surveillance 33
suspect 33
tale 33
tasmanian 33
teenage 33
teenager 33
tendency 33
ter@@ 33
threshold 33
tim 33
tragic 33
tumors 33
usage 33
venture 33
websites 33
workforce 33
worthy 33
wound 33
wrap 33
wrapped 33
+ 32
1,@@ 32
36 32
40,000 32
48 32
actively 32
aesthetic 32
afghan 32
agents 32
alized 32
ambitious 32
ao 32
appearance 32
associate 32
ator 32
attacked 32
batteries 32
beetle 32
brave 32
broccoli 32
bs 32
cable 32
capabilities 32
catholic 32
cellular 32
challenged 32
ck 32
coach 32
connects 32
consciously 32
counting 32
covering 32
d.c. 32
den 32
detector 32
detroit 32
discovering 32
electrodes 32
enabled 32
ent 32
ethnic 32
expansion 32
expecting 32
expedition 32
fancy 32
fo@@ 32
frames 32
ger@@ 32
ges 32
hired 32
historically 32
hong 32
ina 32
informed 32
interpret 32
investing 32
izing 32
joint 32
joseph 32
juice 32
july 32
ker 32
kevin 32
labeled 32
legislation 32
likelihood 32
lion 32
lo 32
lungs 32
marrow 32
masters 32
mastery 32
medicines 32
min@@ 32
minority 32
mode 32
myth 32
nelson 32
nevertheless 32
offering 32
officials 32
ons 32
overwhelmed 32
pandemic 32
periods 32
physicists 32
ping 32
planned 32
pray 32
prediction 32
prevention 32
projections 32
realm 32
recycled 32
refer 32
relation 32
remarkably 32
responding 32
rosling 32
sale 32
sh 32
shit 32
simplest 32
sperm 32
stranger 32
strike 32
succeeded 32
suggestion 32
tables 32
technically 32
temperatures 32
terrain 32
throwing 32
thus 32
tight 32
to-@@ 32
trace 32
trajectory 32
unhappy 32
waters 32
winds 32
wooden 32
wright 32
yemen 32
16@@ 31
1999 31
26 31
37 31
acids 31
andrew 31
apples 31
assumed 31
authenticity 31
back@@ 31
badly 31
barriers 31
bathroom 31
bj 31
bribe 31
candidates 31
ce@@ 31
cheating 31
ches 31
civic 31
clothing 31
clues 31
computation 31
conducted 31
constructed 31
continuous 31
cra@@ 31
cube 31
deepest 31
defend 31
disasters 31
disturbing 31
easiest 31
embracing 31
enjoyed 31
established 31
estimated 31
exception 31
exhibit 31
flavor 31
frightening 31
gandhi 31
gaps 31
gh@@ 31
grains 31
grant 31
graphs 31
grasp 31
hand-@@ 31
hardest 31
heading 31
improvisation 31
injuries 31
ked 31
ki@@ 31
laptops 31
leverage 31
longevity 31
lord 31
mac@@ 31
meditation 31
mere 31
messy 31
methane 31
mimic 31
minimum 31
neck 31
nerves 31
offspring 31
opinions 31
overwhelming 31
post-@@ 31
programmers 31
proportion 31
propose 31
publish 31
purple 31
pursue 31
raped 31
reader 31
realization 31
reliable 31
rethink 31
sacred 31
selves 31
seventh 31
shower 31
simulation 31
streams 31
ta 31
temple 31
tide 31
tra@@ 31
tribal 31
trigger 31
versions 31
vice 31
visually 31
wed 31
0@@ 30
15@@ 30
50s 30
administration 30
adopted 30
alexander 30
approved 30
april 30
asian 30
assumption 30
astronomers 30
authorities 30
automobile 30
basking 30
bla@@ 30
blogs 30
bombsight 30
bond 30
calculated 30
cares 30
charged 30
chimpanzees 30
collectively 30
comparing 30
computational 30
concentration 30
controversial 30
correctly 30
cows 30
crack 30
crossed 30
cur@@ 30
dancers 30
deadly 30
detection 30
discrimination 30
dolphin 30
dominated 30
doubled 30
drag 30
earliest 30
edi 30
encouraged 30
enemies 30
exam 30
expertise 30
extraordinarily 30
favorites 30
format 30
fraction 30
frequently 30
hacking 30
high-tech 30
horizon 30
ies 30
il@@ 30
impression 30
incentive 30
ingredient 30
insect 30
interventions 30
italian 30
item 30
jh 30
judgments 30
jumped 30
jumping 30
ky 30
lan@@ 30
landscapes 30
linear 30
loving 30
marry 30
measures 30
medication 30
monitoring 30
motivated 30
namely 30
neanderthals 30
node 30
nu@@ 30
observed 30
octopus 30
origins 30
permission 30
plates 30
poly@@ 30
processed 30
profession 30
proposition 30
protocell 30
real-time 30
realistic 30
reproduce 30
resist 30
rewards 30
saturn 30
sections 30
seemingly 30
ser@@ 30
sexuality 30
shi@@ 30
shortly 30
shots 30
sm 30
soap 30
spain 30
spill 30
sta@@ 30
stack 30
staring 30
sti@@ 30
strings 30
strip 30
supplies 30
switzerland 30
talents 30
terrified 30
theories 30
thumb 30
tically 30
toilets 30
transit 30
understands 30
universes 30
verb 30
veterans 30
virginia 30
wk 30
woods 30
ys 30
1930s 29
55 29
6,000 29
7,000 29
abundance 29
acknowledge 29
alex 29
altitude 29
amazed 29
amazingly 29
archive 29
assignment 29
ations 29
awe 29
balls 29
ban 29
beef 29
belongs 29
bend 29
boards 29
breakthrough 29
bullet 29
cage 29
campus 29
canvas 29
capability 29
ces 29
comic 29
concerns 29
congestion 29
consistent 29
convey 29
corners 29
courageous 29
craft 29
de-@@ 29
delhi 29
disability 29
dly 29
documented 29
dvd 29
electrons 29
encouraging 29
encyclopedia 29
entering 29
exposure 29
famously 29
fireflies 29
forgive 29
ft 29
gen@@ 29
generosity 29
genomes 29
girlfriend 29
hated 29
heal 29
helmet 29
hierarchy 29
hopes 29
hy@@ 29
i. 29
iceland 29
iconic 29
ideology 29
impressive 29
injured 29
installation 29
institutional 29
intact 29
intensity 29
intention 29
interviewed 29
intriguing 29
isolation 29
journalists 29
lean 29
lectures 29
left-hand 29
lists 29
magician 29
magnificent 29
managing 29
masses 29
mer@@ 29
minus 29
narratives 29
neuro@@ 29
occupy 29
ors 29
palestinian 29
pan 29
partnership 29
paths 29
peer 29
penis 29
ph 29
phenomena 29
philosophical 29
pills 29
practicing 29
protest 29
pulse 29
regularly 29
regulations 29
replacement 29
reporter 29
resolution 29
ritual 29
roles 29
rolled 29
ry 29
santa 29
saturday 29
scenes 29
shaking 29
significance 29
simon 29
simultaneously 29
six-@@ 29
sixth 29
smallest 29
spaghetti 29
squ@@ 29
squares 29
stereotypes 29
striking 29
systematically 29
tangible 29
tiles 29
tive 29
toes 29
tolerance 29
touching 29
trapped 29
typing 29
ves 29
vocabulary 29
wi@@ 29
wolfram 29
worrying 29
yeast 29
-based 28
-to-@@ 28
-year-old 28
200,000 28
2030 28
accomplished 28
accounting 28
addiction 28
anesthesia 28
annual 28
anxious 28
boats 28
branches 28
builds 28
ca 28
calculation 28
cart 28
caves 28
chromosomes 28
cigarette 28
civilizations 28
cleaning 28
cliff 28
concert 28
condom 28
confronted 28
cooling 28
copenhagen 28
cotton 28
cousins 28
cro@@ 28
dare 28
demos 28
diplomacy 28
documentary 28
donors 28
downtown 28
drops 28
ecology 28
elegant 28
elephants 28
eliminate 28
fantasy 28
farms 28
fatal 28
filmmaker 28
findings 28
folded 28
friendship 28
goliath 28
grades 28
greek 28
homo 28
hut 28
ill 28
initiative 28
jeopardy 28
jill 28
kindness 28
lama 28
laughed 28
leonardo 28
ler 28
lined 28
literacy 28
log 28
logo 28
mapped 28
matched 28
matt 28
metabolism 28
microphone 28
millimeter 28
miracles 28
mutations 28
observations 28
occurring 28
oecd 28
panic 28
perspectives 28
phoenix 28
platforms 28
poison 28
pot 28
predictable 28
presents 28
producers 28
professors 28
receiving 28
reef 28
refrigerator 28
regenerate 28
rehabilitation 28
rejected 28
ren@@ 28
reveals 28
romance 28
rome 28
satisfaction 28
scott 28
sculptures 28
secular 28
sed 28
selected 28
shepherd 28
shifted 28
shing 28
sion 28
span 28
spare 28
spo@@ 28
st-@@ 28
stones 28
suck 28
sweat 28
sylvia 28
syria 28
tension 28
tent 28
terribly 28
texture 28
torture 28
tracks 28
transforming 28
tro@@ 28
troops 28
tweet 28
urge 28
useless 28
vacation 28
variable 28
vegetable 28
viral 28
votes 28
wins 28
workplace 28
yr 28
zing 28
zones 28
10@@ 27
1950 27
72 27
absence 27
accuracy 27
activated 27
adaptation 27
adjust 27
ambulance 27
ance 27
apartments 27
apps 27
assuming 27
atomic 27
attracted 27
authoritarian 27
binary 27
biodiversity 27
brooklyn 27
brush 27
bugs 27
calm 27
cambodia 27
caps 27
char@@ 27
ched 27
ching 27
chromosome 27
client 27
coca-cola 27
coding 27
concentrated 27
consensus 27
cope 27
counted 27
counts 27
coverage 27
cracks 27
criminals 27
dating 27
decent 27
deforestation 27
delicious 27
destination 27
destroying 27
discussions 27
diving 27
dropping 27
elevator 27
emotionally 27
extinction 27
feminist 27
fore@@ 27
fy 27
g-@@ 27
gallery 27
generating 27
grocery 27
harmony 27
horses 27
humanitarian 27
infections 27
integrate 27
interconnected 27
interpretation 27
introduction 27
ize 27
jellyfish 27
johnny 27
jones 27
lebanon 27
leopard 27
mammography 27
melt 27
mentally 27
mexican 27
montana 27
moore 27
multi@@ 27
neutral 27
obsolete 27
occurs 27
olympic 27
operated 27
optical 27
orgasm 27
overhead 27
parasite 27
parks 27
pays 27
piles 27
pin 27
planes 27
preparation 27
preventing 27
privileged 27
publishing 27
ra 27
raises 27
recycling 27
reflected 27
reflection 27
relates 27
relief 27
repeated 27
richest 27
rises 27
seats 27
server 27
serves 27
sexually 27
she@@ 27
shes 27
shoulders 27
sierra 27
sizes 27
slept 27
squared 27
stolen 27
stressed 27
sur@@ 27
switched 27
systematic 27
talented 27
tar 27
terror 27
therapies 27
tomato 27
towel 27
tru@@ 27
twins 27
unfair 27
vary 27
virtue 27
visions 27
visualize 27
ying 27
12,000 26
1984 26
8,000 26
abundant 26
acquired 26
activists 26
altered 26
analyzed 26
antibodies 26
approaching 26
approximately 26
awake 26
banjo 26
bats 26
beam 26
blocking 26
bother 26
boundary 26
br@@ 26
bulb 26
burst 26
cancers 26
ce 26
celebrity 26
chase 26
clinton 26
coat 26
communicating 26
compassionate 26
construct 26
consumed 26
contributed 26
cosmic 26
creator 26
dates 26
deployed 26
deserves 26
dirt 26
discoveries 26
dishes 26
distances 26
dome 26
down@@ 26
dumb 26
eats 26
egyptian 26
enjoying 26
estate 26
exceptions 26
expressed 26
famine 26
fence 26
fer@@ 26
ff 26
fifty 26
filling 26
fired 26
folds 26
follows 26
formal 26
frightened 26
fruits 26
ful 26
functioning 26
fungi 26
ging 26
greece 26
gross 26
head@@ 26
headline 26
heating 26
ic@@ 26
ically 26
incident 26
inflation 26
interior 26
intimacy 26
involving 26
ireland 26
ity 26
jay 26
je@@ 26
jerusalem 26
jet 26
jews 26
junk 26
laden 26
landing 26
lethal 26
lewis 26
loses 26
mankind 26
manner 26
massively 26
measurements 26
mentor 26
metals 26
mixing 26
monster 26
murder 26
mutation 26
negotiate 26
nest 26
networking 26
norms 26
ob@@ 26
observing 26
obsession 26
odor 26
overseas 26
pan@@ 26
pancreatic 26
parkinson 26
passions 26
ph@@ 26
pharmaceutical 26
pigeon 26
pleasant 26
poems 26
por@@ 26
pour 26
priority 26
promised 26
randomly 26
refuse 26
regard 26
regrets 26
regulation 26
releases 26
researching 26
responded 26
safely 26
scans 26
secretary 26
selfish 26
sensing 26
sheer 26
shifts 26
siblings 26
spell 26
staircase 26
storms 26
submit 26
supreme 26
surgeries 26
tan@@ 26
tanzania 26
tattoo 26
tear 26
tempest 26
teszler 26
thrive 26
treasure 26
tropical 26
two-thirds 26
unconscious 26
uniform 26
vacuum 26
voters 26
wasted 26
weekend 26
welfare 26
ya 26
yo@@ 26
1900 25
1950s 25
2.0 25
2012 25
42 25
accurately 25
angles 25
approached 25
assembly 25
aunt 25
bamboo 25
beaten 25
belly 25
berkeley 25
bl@@ 25
blogging 25
bloody 25
boots 25
bot@@ 25
branch 25
browser 25
budgets 25
bun@@ 25
c. 25
calculating 25
chamber 25
charges 25
chimps 25
christians 25
closest 25
com@@ 25
compounds 25
compute 25
confront 25
connectivity 25
container 25
controversy 25
convicted 25
countless 25
critically 25
cups 25
decides 25
decrease 25
defeat 25
delay 25
demonstrated 25
detected 25
diamond 25
discussing 25
disruptive 25
distinction 25
dy 25
edit 25
embodied 25
empowered 25
ent@@ 25
enterprise 25
equations 25
ethiopia 25
everest 25
exotic 25
favelas 25
feeds 25
generates 25
geography 25
geometry 25
guards 25
hacker 25
hills 25
huh 25
iceberg 25
ics 25
illusions 25
imagining 25
improvements 25
infectious 25
integration 25
intended 25
involve 25
kiss 25
leaf 25
lifted 25
lincoln 25
lowest 25
marco 25
marks 25
mask 25
melting 25
metabolic 25
monday 25
museums 25
mustard 25
neocortex 25
netherlands 25
newton 25
ning 25
nonviolent 25
norm 25
ns 25
o-@@ 25
ology 25
ou@@ 25
paradise 25
philanthropy 25
picks 25
pipeline 25
portraits 25
pose 25
pouring 25
powder 25
presidential 25
priorities 25
procedures 25
propaganda 25
quad 25
recommend 25
register 25
remittances 25
revolutions 25
risky 25
rolls 25
ron 25
sands 25
sarah 25
sen@@ 25
shops 25
sms 25
somalia 25
sted 25
stimulation 25
sting 25
stressful 25
stri@@ 25
sub-@@ 25
subjective 25
sun@@ 25
symphony 25
taxes 25
tedsters 25
terrorists 25
textbooks 25
thylacine 25
timing 25
traces 25
trusted 25
ushahidi 25
va@@ 25
ver 25
visiting 25
visualization 25
warrior 25
weigh 25
well-known 25
wh@@ 25
whoa 25
winners 25
witnessed 25
1.5 24
10-@@ 24
13@@ 24
1998 24
20-@@ 24
25,000 24
30-@@ 24
38 24
80,000 24
adapted 24
advances 24
alize 24
alongside 24
analog 24
anatomy 24
appeal 24
argued 24
assemble 24
balanced 24
banned 24
bas@@ 24
basketball 24
benjamin 24
beside 24
blah 24
ble 24
blowing 24
borrow 24
cameron 24
canadian 24
carnegie 24
cattle 24
celebrated 24
centimeter 24
checking 24
chop 24
clarity 24
collaborate 24
collaborator 24
conception 24
conduct 24
considering 24
continuously 24
copies 24
copying 24
cruel 24
curves 24
cy@@ 24
dalai 24
demographics 24
disagree 24
displays 24
dra@@ 24
edinburgh 24
envelope 24
examine 24
expectation 24
exploit 24
fails 24
farming 24
farther 24
formation 24
founder 24
greatly 24
heavens 24
highlight 24
honesty 24
horizontal 24
hugely 24
ian 24
immense 24
ined 24
inevitably 24
investigation 24
ironic 24
irrational 24
ish 24
ite 24
julia 24
kidding 24
knees 24
kong 24
labels 24
laboratories 24
ladder 24
leone 24
loads 24
loan 24
loose 24
losses 24
luther 24
matches 24
mating 24
mature 24
membrane 24
mic 24
mo 24
modest 24
naive 24
nick 24
non@@ 24
novelty 24
nucleus 24
on-@@ 24
opposition 24
oven 24
owners 24
pat@@ 24
pathways 24
patience 24
peers 24
peoples 24
photo@@ 24
pl@@ 24
pleased 24
politician 24
pops 24
post-conflict 24
premise 24
primate 24
pro-@@ 24
publicly 24
quantities 24
reflective 24
refused 24
residents 24
revealed 24
revenues 24
rings 24
roger 24
sa 24
salary 24
saudi 24
scheme 24
scotland 24
script 24
seawater 24
sel@@ 24
self-interest 24
sends 24
sensation 24
settled 24
shaping 24
shelves 24
shining 24
shirt 24
sin 24
sk@@ 24
slope 24
solo 24
spacecraft 24
spinning 24
sputnik 24
star@@ 24
starbucks 24
stays 24
stealing 24
sticky 24
sto@@ 24
stomach 24
strengths 24
swedish 24
sweeney 24
targeted 24
teaches 24
textbook 24
thailand 24
theoretical 24
ti 24
tr@@ 24
trading 24
trait 24
transported 24
trivial 24
tuned 24
twist 24
uh 24
upside 24
usa 24
utterly 24
valve 24
ven@@ 24
von 24
wonders 24
youngest 24
yves 24
12@@ 23
1980 23
96 23
97 23
ably 23
accelerate 23
accepting 23
ach@@ 23
adaptive 23
album 23
alism 23
analyzing 23
apologize 23
arise 23
ashamed 23
atlanta 23
attach 23
automatic 23
ba 23
biased 23
blew 23
blown 23
bol@@ 23
boost 23
broadcast 23
buddhist 23
buttons 23
cared 23
catching 23
chains 23
chan@@ 23
characteristic 23
chronic 23
clicking 23
clips 23
col@@ 23
columns 23
contagious 23
cooperative 23
copper 23
corporation 23
couch 23
cs 23
cybercriminals 23
deaf 23
dean 23
deception 23
deciding 23
deck 23
declining 23
ders 23
developers 23
digging 23
disney 23
divorce 23
dp 23
ease 23
ed@@ 23
emails 23
emergence 23
entrepreneurial 23
entry 23
equals 23
er-@@ 23
ered 23
erotic 23
experimenting 23
explored 23
fairness 23
fans 23
fetus 23
fg 23
fibers 23
filmed 23
fla@@ 23
gains 23
galapagos 23
generic 23
geo@@ 23
goodness 23
gosh 23
grammar 23
handed 23
harness 23
helium 23
herd 23
hoped 23
hybrid 23
il 23
impaired 23
indians 23
ines 23
infant 23
inherent 23
innovate 23
integrity 23
inventor 23
irrelevant 23
ized 23
jazeera 23
jonathan 23
jordan 23
julian 23
jupiter 23
kennedy 23
kick 23
kilos 23
kindergarten 23
ko@@ 23
league 23
m-@@ 23
magnets 23
migration 23
minerals 23
mm 23
moms 23
mud 23
n-@@ 23
neurological 23
neuroscientist 23
nike 23
noisy 23
occasion 23
palestine 23
parachute 23
participating 23
paste 23
philadelphia 23
philosophers 23
pla@@ 23
posters 23
posture 23
powerpoint 23
problematic 23
projection 23
proved 23
pulls 23
punch 23
punishment 23
reflects 23
reforms 23
relatives 23
renewable 23
rhythm 23
rig 23
rives 23
rows 23
sanitation 23
scarce 23
scientifically 23
screening 23
seattle 23
secondary 23
select 23
shoe 23
skeleton 23
ski 23
skilled 23
snake 23
sometime 23
statistically 23
steady 23
stigma 23
stunning 23
tastes 23
territory 23
tesla 23
tokyo 23
toxins 23
trap 23
tsunami 23
ty@@ 23
ul@@ 23
ve 23
venice 23
viewed 23
visceral 23
vitamin 23
warren 23
whoever 23
wives 23
worm 23
yard 23
zimbabwe 23
130 22
18th 22
1960s 22
1970 22
52 22
98 22
a-rhythm-etic 22
accelerating 22
accompanied 22
accumulate 22
achieving 22
acid 22
af@@ 22
alarm 22
alice 22
alike 22
aluminum 22
animations 22
anticipate 22
appreciation 22
arena 22
asset 22
asteroid 22
attitudes 22
aw@@ 22
axes 22
backed 22
backs 22
bat 22
bat@@ 22
behalf 22
beloved 22
beneficial 22
berlin 22
blend 22
book@@ 22
cathedral 22
censorship 22
charming 22
chasing 22
chord 22
codes 22
coincidence 22
columbia 22
comp@@ 22
compound 22
confined 22
conscience 22
consent 22
constitution 22
contained 22
convincing 22
correlation 22
couples 22
cru@@ 22
ction 22
deficit 22
doses 22
dreamed 22
dreaming 22
drunk 22
e. 22
employment 22
empower 22
empowering 22
encountered 22
episode 22
equity 22
est 22
ethics 22
expense 22
expose 22
far@@ 22
fin@@ 22
flesh 22
flu@@ 22
fox 22
frequencies 22
full-time 22
gar@@ 22
genuine 22
gestures 22
globalized 22
glue 22
goat 22
graham 22
gre@@ 22
gro@@ 22
hamburger 22
hammer 22
handy 22
harmful 22
hawaii 22
headquarters 22
heavily 22
hook 22
humility 22
hurts 22
illustrates 22
implanted 22
implement 22
impulse 22
ing-@@ 22
inherently 22
instinct 22
intentions 22
intervene 22
intimate 22
introducing 22
ipad 22
ivan 22
jaw 22
journalism 22
judges 22
ka 22
kansas 22
ko 22
korean 22
large-scale 22
larry 22
lately 22
lesters 22
liberals 22
lin 22
lips 22
low-cost 22
machinery 22
magazines 22
mb@@ 22
meets 22
mesh 22
migrate 22
mild 22
mind-wandering 22
mirrors 22
misery 22
modified 22
mouths 22
multiply 22
nano 22
ner 22
olympics 22
operates 22
or-@@ 22
ordered 22
overnight 22
pat 22
perceptions 22
phrases 22
pill 22
pilots 22
pity 22
planting 22
plato 22
politically 22
poll 22
posed 22
probe 22
processor 22
psychopath 22
recycle 22
regulate 22
rendering 22
repeatedly 22
replacing 22
reporting 22
representing 22
reputation 22
res 22
revolutionary 22
royal 22
rs 22
rubber 22
screaming 22
seals 22
sequences 22
shadows 22
shore 22
slower 22
spray 22
squid 22
statistical 22
strikes 22
surround 22
suspicious 22
sustained 22
swing 22
sy 22
tedx 22
thermal 22
thirty 22
thrilled 22
ths 22
traditionally 22
trans@@ 22
tricky 22
tuberculosis 22
unemployment 22
unseen 22
variables 22
victory 22
weighs 22
wet 22
widespread 22
year-olds 22
1,500 21
1.2 21
1.@@ 21
140 21
20s 21
34 21
accountability 21
acquire 21
addressing 21
algae 21
alist 21
alizing 21
annoying 21
applies 21
appropriately 21
approval 21
arabia 21
arbitrary 21
argentina 21
arizona 21
arrest 21
ars 21
arteries 21
ary 21
ass 21
assessment 21
athlete 21
atom 21
attributes 21
avoiding 21
barefoot 21
beekeepers 21
bel@@ 21
bikes 21
black@@ 21
bleeding 21
blo@@ 21
bon@@ 21
bonds 21
cardboard 21
cardiac 21
carl 21
catastrophic 21
charcoal 21
charities 21
clitoris 21
coastal 21
colombia 21
colorful 21
coma 21
commandments 21
concentrate 21
corrupt 21
counter 21
crap 21
cried 21
cted 21
dan@@ 21
debris 21
default 21
denied 21
describing 21
desperate 21
diameter 21
disappointed 21
drama 21
ear@@ 21
educating 21
ego 21
eight-@@ 21
elders 21
emerges 21
employee 21
enormously 21
entrance 21
establish 21
et@@ 21
ethic 21
ever-@@ 21
fame 21
filters 21
francis 21
frugal 21
full-@@ 21
funeral 21
gifts 21
govern 21
greenland 21
guinea 21
hal@@ 21
handful 21
happiest 21
heated 21
horror 21
hostile 21
households 21
ia 21
imperative 21
implemented 21
improvise 21
informal 21
install 21
instincts 21
intangible 21
inventors 21
ir 21
jane 21
jo 21
jungle 21
k-@@ 21
kar@@ 21
kes 21
kiribati 21
kit 21
lakota 21
lat@@ 21
legitimate 21
loans 21
locally 21
lonely 21
longest 21
magnitude 21
measurement 21
medi@@ 21
middle-class 21
motivate 21
muhammad 21
multinational 21
mundane 21
mustache 21
my@@ 21
nanopatch 21
nasty 21
nathan 21
ned 21
ney 21
nightmare 21
ninth 21
nonsense 21
nor@@ 21
oops 21
optimal 21
organizing 21
owe 21
oyster 21
parasites 21
payments 21
pencil 21
pies 21
poorly 21
pos@@ 21
practically 21
predator 21
pregnancy 21
prisoner 21
programmed 21
protective 21
rains 21
rays 21
reasoning 21
receptor 21
recognizing 21
reinvent 21
relax 21
reminder 21
representatives 21
reproduction 21
rescued 21
responds 21
returns 21
rob 21
rockets 21
ross 21
routine 21
ruins 21
samuel 21
satisfying 21
sch@@ 21
scope 21
sectors 21
self-assembly 21
semi-@@ 21
separation 21
sighted 21
singer 21
sive 21
sla@@ 21
slip 21
son@@ 21
sounded 21
spatial 21
stadium 21
standpoint 21
stare 21
steam 21
stepping 21
sters 21
storyteller 21
stra@@ 21
sums 21
surgical 21
syringe 21
tanks 21
tar@@ 21
tattoos 21
ted@@ 21
tedglobal 21
therapist 21
thinkers 21
thumbs 21
tickets 21
tortured 21
trauma 21
travels 21
trips 21
twin 21
unemployed 21
unfortunate 21
ups 21
viable 21
vibrating 21
violin 21
watches 21
whistle 21
willingness 21
wiped 21
x-rays 21
zes 21
1.3 20
1975 20
1994 20
1995 20
50-@@ 20
76 20
86 20
abroad 20
absorb 20
accent 20
acceptance 20
acted 20
admire 20
adolescence 20
aged 20
ah@@ 20
ak@@ 20
alization 20
alternatives 20
ambiguity 20
and-@@ 20
anniversary 20
apollo 20
appealing 20
ash 20
assembled 20
attempts 20
attend 20
b. 20
bab@@ 20
bangladesh 20
basement 20
basket 20
bath 20
beats 20
behold 20
bio-@@ 20
bosnia 20
burns 20
cafe 20
calcium 20
calculus 20
cap@@ 20
ced 20
cerebral 20
chad 20
checked 20
chemotherapy 20
christopher 20
cia 20
climbed 20
clo@@ 20
cloth 20
clubs 20
commodities 20
comprehensive 20
constrained 20
consuming 20
continents 20
convention 20
cre@@ 20
crushed 20
cues 20
delight 20
deny 20
derived 20
desires 20
discussed 20
displaced 20
dj 20
documenting 20
don@@ 20
doodling 20
dy@@ 20
earned 20
earning 20
employed 20
empowerment 20
enforcement 20
entrepreneurship 20
ents 20
equipped 20
eradication 20
evaluate 20
evaluation 20
evolving 20
exercises 20
expanded 20
explores 20
expressive 20
ff@@ 20
fgm 20
fights 20
finishing 20
float 20
foster 20
fundraising 20
gardens 20
gel 20
gging 20
glorious 20
gra@@ 20
grabbed 20
grandmothers 20
gratitude 20
grip 20
guidance 20
halfway 20
heroic 20
hopeful 20
hor@@ 20
hypotheses 20
i.q. 20
icon 20
identifying 20
identities 20
impose 20
induced 20
iness 20
ing@@ 20
innovators 20
instruction 20
interfaces 20
investigate 20
ion 20
irony 20
jackson 20
jam 20
johnson 20
joining 20
jokes 20
kelly 20
kenyan 20
kin@@ 20
land@@ 20
lesterland 20
liberty 20
limestone 20
listed 20
lobe 20
ly@@ 20
marketplace 20
matching 20
maximum 20
memorial 20
michigan 20
minor 20
mixture 20
modeling 20
morally 20
multiverse 20
murray 20
mutual 20
myths 20
nectar 20
nicely 20
novels 20
nurture 20
obtained 20
occupation 20
olive 20
ory 20
ot 20
packaging 20
pedestrian 20
pers 20
phenomenal 20
pin@@ 20
pipe 20
pirate 20
pit 20
playground 20
potent 20
pr@@ 20
precision 20
primates 20
prince 20
principal 20
progressive 20
protests 20
prototypes 20
puberty 20
pulses 20
purely 20
qatar 20
quietly 20
rage 20
ram 20
rap 20
ratings 20
recognizes 20
regional 20
reject 20
remembering 20
remotely 20
requirements 20
reserve 20
resilient 20
resonance 20
respected 20
returning 20
rick 20
rushed 20
sadness 20
sessions 20
shuttle 20
slice 20
slowing 20
smallpox 20
sooner 20
specialists 20
spontaneously 20
squeeze 20
stamp 20
statue 20
sticking 20
strangely 20
strict 20
stro@@ 20
stu@@ 20
sucks 20
suits 20
supermassive 20
surveys 20
susan 20
temporal 20
temptation 20
tering 20
terrific 20
testosterone 20
texts 20
tibet 20
tightly 20
toast 20
toll 20
transformations 20
ultraviolet 20
unpredictable 20
ur@@ 20
variations 20
ved 20
velocity 20
vending 20
visitors 20
vocal 20
waited 20
walker 20
washed 20
wells 20
wilderness 20
wolves 20
woo 20
ye@@ 20
1945 19
1996 19
2.5 19
350 19
40s 19
44 19
64 19
93 19
accomplish 19
acres 19
addressed 19
adoption 19
afterward 19
alan 19
ali 19
allies 19
amateurs 19
ambition 19
amino 19
animated 19
anytime 19
applause 19
articulate 19
ash@@ 19
astronomy 19
attachment 19
av 19
avatar 19
bali 19
ballot 19
basics 19
beethoven 19
bent 19
berg 19
biotechnology 19
bless 19
blessed 19
bonus 19
brazilian 19
breasts 19
broader 19
brutal 19
bucket 19
cairo 19
calendar 19
campaigns 19
canyon 19
cape 19
caribbean 19
cartoonist 19
cated 19
cement 19
chat 19
cigarettes 19
cinema 19
circulation 19
cli@@ 19
cnn 19
cochlear 19
collaborators 19
committee 19
commons 19
configuration 19
confusing 19
contents 19
contributing 19
contributions 19
converted 19
craig 19
cream 19
cul@@ 19
d. 19
dancer 19
danish 19
dar@@ 19
deceased 19
declared 19
delivering 19
delta 19
denmark 19
determination 19
diary 19
dictator 19
dining 19
dinosaur 19
disciplines 19
dness 19
donated 19
donation 19
double-@@ 19
draws 19
drilling 19
dubai 19
dude 19
duration 19
duty 19
e.u. 19
editor 19
editors 19
edward 19
embarrassed 19
emily 19
endless 19
enters 19
envision 19
epidemics 19
eternal 19
eu@@ 19
europa 19
explode 19
flourish 19
fort 19
founding 19
frogs 19
frontal 19
frontier 19
fulfilling 19
fying 19
gaining 19
glucose 19
gr@@ 19
graffiti 19
halls 19
han 19
hawking 19
honored 19
hood 19
hooked 19
human-@@ 19
hurricane 19
hypothetical 19
id@@ 19
ideals 19
ig 19
impressed 19
incomplete 19
industrialized 19
inform 19
intersection 19
invitation 19
iranians 19
ironically 19
jefferson 19
jewelry 19
jury 19
justify 19
khan 19
kilograms 19
kin 19
knock 19
kyoto 19
lar@@ 19
laundry 19
lawn 19
lic 19
lin@@ 19
logically 19
malnutrition 19
mammal 19
mammogram 19
manages 19
marked 19
mary 19
mathematicians 19
mcdonald 19
med 19
mer 19
metric 19
metrics 19
milky 19
millennium 19
mp@@ 19
mr 19
nairobi 19
nar@@ 19
nearest 19
nigerian 19
no-@@ 19
noises 19
norwegian 19
numb 19
oliver 19
ounce 19
owns 19
parked 19
partnerships 19
pathway 19
payment 19
peculiar 19
personalities 19
petals 19
philip 19
phthalates 19
pioneer 19
pipes 19
plan@@ 19
playful 19
poets 19
poland 19
poses 19
potato 19
potatoes 19
pper 19
praying 19
predators 19
preferences 19
presenting 19
pressing 19
professions 19
profitable 19
projected 19
protocells 19
purchase 19
qualified 19
questioning 19
races 19
rachel 19
reaches 19
reads 19
realities 19
rebuilding 19
redefine 19
redesign 19
referred 19
refined 19
remembers 19
romo 19
ron@@ 19
rou@@ 19
sanitary 19
scholarship 19
schooling 19
screens 19
seafood 19
settings 19
shallow 19
shorter 19
signing 19
sin@@ 19
singers 19
slum 19
soccer 19
sol@@ 19
spark 19
speeds 19
sr 19
statistic 19
steven 19
stimulate 19
strain 19
strains 19
sufficient 19
suitcase 19
summarize 19
summary 19
supportive 19
survivors 19
sweeping 19
symbolic 19
symptom 19
tales 19
taller 19
tedx@@ 19
theft 19
thoughtful 19
titus 19
tor@@ 19
towns 19
tracked 19
trailer 19
translator 19
tuna 19
urgent 19
utter 19
valid 19
valued 19
viewing 19
wil@@ 19
win@@ 19
wiring 19
wonderfully 19
ws 19
-and-@@ 18
-up 18
.org 18
12th 18
1992 18
30s 18
41 18
43 18
53 18
54 18
57 18
60,000 18
abalone 18
abandon 18
abused 18
acceptable 18
accountable 18
ag 18
airports 18
alaska 18
ale 18
alert 18
all@@ 18
allo@@ 18
alphabet 18
altogether 18
ambiguous 18
an-@@ 18
ang@@ 18
angels 18
anim@@ 18
arithmetic 18
artifacts 18
assistant 18
assure 18
astronauts 18
backgrounds 18
bacterium 18
bad@@ 18
baker 18
bangalore 18
battles 18
bee@@ 18
bench 18
benign 18
bertie 18
bhutan 18
biologically 18
bit@@ 18
ble@@ 18
bottom-up 18
breakdown 18
buddha 18
bul@@ 18
bulbs 18
bull 18
buses 18
candle 18
cardiovascular 18
carol 18
champion 18
checklist 18
christ 18
circuitry 18
claimed 18
combinations 18
commentary 18
commonly 18
communist 18
composition 18
compressed 18
confusion 18
conservatives 18
consistently 18
contest 18
convenience 18
coordination 18
crank 18
cross-@@ 18
dead@@ 18
deer 18
degraded 18
demanding 18
dent 18
detecting 18
diagnose 18
diarrhea 18
diego 18
differ 18
dilemma 18
distracted 18
districts 18
doug 18
drowning 18
dun@@ 18
ea@@ 18
educators 18
elaborate 18
embassy 18
endeavor 18
enlightenment 18
ently 18
envy 18
eradicate 18
ering 18
ery 18
existential 18
exit 18
experimentation 18
explanations 18
explicitly 18
explorer 18
exquisite 18
ey 18
faculty 18
fbi 18
fda 18
fighters 18
fle@@ 18
flights 18
fool 18
forcing 18
foxo 18
franklin 18
fried 18
gaza 18
gentle 18
grams 18
grandma 18
greeks 18
gwen 18
habitats 18
hand@@ 18
handling 18
harry 18
hmm 18
hotter 18
humanities 18
humble 18
hun@@ 18
immigrants 18
indicate 18
indigenous 18
indoor 18
indoors 18
infinity 18
influences 18
injustice 18
insist 18
intellect 18
intend 18
intrigued 18
ipod 18
jacket 18
jennifer 18
joel 18
jonas 18
katrina 18
keith 18
kilometer 18
kim 18
kings 18
knocked 18
laughter 18
laying 18
len@@ 18
likewise 18
literal 18
ll@@ 18
loaded 18
manipulation 18
manufacture 18
marriages 18
mathematician 18
meanings 18
medications 18
ments 18
menu 18
metropolitan 18
mg 18
mount 18
movember 18
mp 18
mumbai 18
mysteries 18
neil 18
nepal 18
new@@ 18
newly 18
ngo 18
noble 18
nonetheless 18
noticing 18
nuclei 18
oftentimes 18
oregon 18
organizational 18
ori@@ 18
oriented 18
p.m. 18
pantheon 18
pathology 18
performs 18
periodic 18
pest 18
physiology 18
planetary 18
policing 18
poorer 18
pp@@ 18
pping 18
prejudice 18
prey 18
princeton 18
promising 18
qaeda 18
quo 18
quotes 18
racial 18
radar 18
radius 18
reactor 18
reasonably 18
recipes 18
reclaim 18
reconciliation 18
recovered 18
reflecting 18
regenerative 18
requirement 18
responsibilities 18
restoration 18
retired 18
rewarded 18
rg 18
ridge 18
rigid 18
roofs 18
rooted 18
rsw 18
saul 18
scaling 18
seasons 18
sensible 18
settle 18
siberia 18
sketches 18
sky@@ 18
skype 18
slate 18
slight 18
smo@@ 18
sobule 18
societal 18
specialist 18
spills 18
ss@@ 18
staggering 18
stairs 18
stake 18
stein 18
stocks 18
strokes 18
struggled 18
successes 18
sudan 18
supercomputer 18
superior 18
surviving 18
sympathy 18
tele@@ 18
themes 18
ther@@ 18
thirdly 18
threatening 18
tical 18
tick 18
tin@@ 18
tips 18
tly 18
ton@@ 18
transformative 18
translating 18
tre@@ 18
treaty 18
triangle 18
tur@@ 18
tweets 18
uniquely 18
unstable 18
urbanization 18
vagina 18
varieties 18
verge 18
viewers 18
ving 18
virtues 18
wishes 18
wounded 18
writes 18
xl 18
,@@ 17
15,000 17
150,000 17
15th 17
17th 17
180 17
2020 17
400,000 17
404 17
500,000 17
58 17
82 17
acknowledged 17
addicted 17
adventures 17
advocate 17
aimee 17
alfred 17
ally-@@ 17
anderson 17
apparent 17
appreciated 17
archie 17
aries 17
ark 17
associations 17
asthma 17
atory 17
ats 17
attempted 17
augmented 17
ax@@ 17
balancing 17
bananas 17
bankers 17
barack 17
bites 17
blocked 17
boo@@ 17
broadcasting 17
bumps 17
by@@ 17
cables 17
camels 17
careers 17
cel@@ 17
certainty 17
certified 17
chaotic 17
cher 17
chickens 17
cho@@ 17
cked 17
cker 17
cks 17
cleaner 17
co 17
cockroach 17
collision 17
comics 17
commercials 17
composed 17
concentrations 17
consideration 17
consists 17
conspiracy 17
cooked 17
cookies 17
cooler 17
cop 17
cop@@ 17
corresponds 17
cosmos 17
counter-@@ 17
counter@@ 17
coupled 17
crow 17
cruise 17
cts 17
cultivate 17
culturally 17
daddy 17
dangers 17
databases 17
dave 17
dental 17
departments 17
deploy 17
detectors 17
developer 17
developmental 17
diagnostic 17
diana 17
diffusion 17
digitally 17
directors 17
disappears 17
disgusting 17
divine 17
dre@@ 17
drinks 17
drought 17
economically 17
editing 17
ef@@ 17
eighth 17
electro@@ 17
electromagnetic 17
elevated 17
eli@@ 17
elizabeth 17
embraced 17
energetic 17
ens 17
entertaining 17
entities 17
evan 17
exploded 17
fees 17
festival 17
fever 17
fibonacci 17
fication 17
filming 17
flourishing 17
forbid 17
four-year-old 17
fran@@ 17
freespeech 17
frequent 17
frustrating 17
frustration 17
ga 17
generator 17
gged 17
glo@@ 17
glory 17
gloves 17
glow 17
governor 17
granny 17
guilt 17
gun@@ 17
harvesting 17
hel@@ 17
helpless 17
historian 17
holiday 17
hub 17
idiot 17
imaginary 17
inadequate 17
ingenuity 17
intrinsic 17
ites 17
jar 17
jerry 17
jr 17
julie 17
key@@ 17
kibera 17
kite 17
landfill 17
legendary 17
liberia 17
lied 17
life-@@ 17
lighter 17
lining 17
long-@@ 17
loser 17
mahmoud 17
margaret 17
mat@@ 17
may@@ 17
meadow 17
meantime 17
melody 17
microbial 17
missions 17
mosque 17
mrs. 17
mum 17
murdered 17
ne 17
nonviolence 17
officers 17
offshore 17
oiled 17
operator 17
outrageous 17
owl 17
paragraph 17
paralysis 17
pasted 17
patch 17
pc 17
pearl 17
pesticides 17
pets 17
pillars 17
pine 17
pit@@ 17
play@@ 17
pneumonia 17
polls 17
pollutants 17
popping 17
porn 17
posts 17
potter 17
poured 17
praise 17
prayer 17
predatory 17
prioritize 17
programmer 17
progression 17
promises 17
prote@@ 17
pumps 17
puppet 17
pursuing 17
que 17
rebel 17
receptors 17
reduces 17
rejection 17
relaxed 17
releasing 17
replied 17
requests 17
reserves 17
retail 17
revelation 17
rider 17
ringing 17
rna 17
rode 17
roughness 17
routinely 17
roy 17
salad 17
sang 17
saves 17
scaffold 17
scarcity 17
scholar 17
scottish 17
sequenced 17
sequencing 17
serotonin 17
sh-@@ 17
simplistic 17
skeptical 17
snakes 17
sopa 17
spends 17
spi@@ 17
spontaneous 17
stanley 17
starvation 17
state-of-the-art 17
stole 17
str@@ 17
strands 17
suey 17
superstar 17
supposedly 17
surplus 17
surroundings 17
survives 17
swallowed 17
swam 17
syrian 17
t. 17
tagged 17
tags 17
tehran 17
tel 17
tense 17
thankfully 17
thereby 17
timber 17
toronto 17
towers 17
transferred 17
transmitted 17
traumatic 17
tt 17
tuesday 17
tunisia 17
tures 17
two-dimensional 17
two-way 17
unite 17
unity 17
update 17
uploaded 17
vancouver 17
veil 17
venus 17
vibrant 17
vicious 17
vivid 17
wages 17
waking 17
wel@@ 17
wipe 17
wor@@ 17
worldview 17
worthwhile 17
zoo 17
é@@ 17
10-year-old 16
10th 16
125 16
1997 16
77 16
aaron 16
accidentally 16
accused 16
acre 16
acute 16
adequate 16
adolescents 16
aggre@@ 16
albert 16
amateur 16
analytics 16
ancestor 16
ani@@ 16
anna 16
anthropology 16
anticipated 16
ara@@ 16
armor 16
arrow 16
artery 16
athletic 16
australian 16
automated 16
avenue 16
babylon 16
beds 16
behaving 16
billboard 16
billy 16
bin@@ 16
bind 16
bing 16
bolt 16
branded 16
bust 16
butt 16
buys 16
cabinet 16
caltech 16
cane 16
carbonate 16
caregivers 16
carrot 16
cc 16
ceos 16
charts 16
cheated 16
chemist 16
chunk 16
cin@@ 16
circular 16
ck@@ 16
cl 16
cocaine 16
cocktail 16
coin 16
commands 16
commodity 16
communal 16
comparable 16
complain 16
conceptual 16
conclusions 16
conditioning 16
continually 16
cookie 16
cosmology 16
cour@@ 16
cracked 16
creepy 16
crosses 16
crowded 16
crude 16
ct 16
ctions 16
cumulative 16
curator 16
cutting-edge 16
cyber 16
cymatics 16
defines 16
delete 16
delighted 16
democrats 16
denser 16
deserts 16
directed 16
disabilities 16
disconnected 16
disruption 16
distinctive 16
distribute 16
divergence 16
doha 16
doo 16
dragged 16
du 16
eg@@ 16
elder 16
eliminated 16
eliminating 16
employ 16
eness 16
enhance 16
environmentally 16
enzyme 16
eradicated 16
euros 16
ex-@@ 16
experimenter 16
explicit 16
explorers 16
fault 16
fe 16
feared 16
fertility 16
financially 16
finite 16
fiscal 16
fl@@ 16
flexibility 16
flo@@ 16
flooding 16
floors 16
followers 16
fragmented 16
freeway 16
friction 16
fur@@ 16
fuzzy 16
gamble 16
gando 16
gasoline 16
gen 16
germans 16
gifted 16
grabs 16
grassroots 16
gravitational 16
guardian 16
guitar 16
hack 16
hal 16
harlem 16
hence 16
home@@ 16
hop 16
hopkins 16
hydro@@ 16
identification 16
ideological 16
iling 16
illnesses 16
immortality 16
inclusive 16
incomes 16
independently 16
indicators 16
individually 16
infrared 16
inherited 16
insisted 16
int 16
intentional 16
intergalactic 16
intricate 16
intrinsically 16
introverts 16
invasion 16
inventions 16
inviting 16
involvement 16
issued 16
ited 16
jersey 16
juvenile 16
ken@@ 16
kicked 16
kidneys 16
kindly 16
l-@@ 16
lakes 16
langley 16
lasting 16
lasts 16
lawrence 16
lazy 16
leak 16
learns 16
lers 16
lesbian 16
lever 16
lightning 16
limitation 16
literary 16
lol 16
louder 16
lover 16
low-income 16
low-tech 16
magnet 16
maintaining 16
man-made 16
mandarin 16
manufacturers 16
margins 16
max 16
maximize 16
medieval 16
melinda 16
memorable 16
mid@@ 16
mil@@ 16
mill 16
millennia 16
minimize 16
mister 16
moma 16
moreover 16
motorcycle 16
mozart 16
nail 16
nazi 16
nba 16
negotiating 16
nerd 16
nico 16
nitrogen 16
nurturing 16
obscure 16
oprah 16
orientation 16
outdoor 16
overweight 16
packaged 16
pe 16
pervasive 16
petition 16
pheromones 16
pipa 16
pollination 16
popped 16
port 16
portugal 16
postcards 16
prefrontal 16
producer 16
provider 16
providers 16
province 16
psychiatric 16
psychotic 16
puppets 16
q@@ 16
railway 16
rainforests 16
realizes 16
rec@@ 16
reconcile 16
reconstruct 16
relativity 16
removing 16
renaissance 16
reply 16
reproductive 16
restricted 16
retire 16
reuse 16
rigorous 16
rip 16
russians 16
ryan 16
sabbatical 16
sahara 16
satisfy 16
scream 16
screw 16
se-@@ 16
searches 16
see@@ 16
selective 16
self-esteem 16
settlement 16
seven-@@ 16
short-term 16
shout 16
sidewalk 16
simulate 16
sis 16
skip 16
slogan 16
solly 16
spaceship 16
spores 16
stand-up 16
steer 16
stimulus 16
stirling 16
sulfide 16
suppress 16
surge 16
surprises 16
susceptible 16
t-shirt 16
tal@@ 16
taylor 16
tedwomen 16
telecommunications 16
tennessee 16
tennis 16
theirs 16
thirds 16
thread 16
timeline 16
tin 16
tion-@@ 16
titles 16
trek 16
ubuntu 16
un-@@ 16
upload 16
ur 16
us@@ 16
utility 16
variability 16
verbal 16
vietnamese 16
volumes 16
voluntary 16
wallet 16
wan@@ 16
watts 16
wi-fi 16
with@@ 16
wo@@ 16
wore 16
yo 16
zo@@ 16
zoning 16
0 15
00 15
1,100 15
110 15
11th 15
12-year-old 15
1989 15
250,000 15
7,@@ 15
84 15
900 15
94 15
abu 15
academics 15
accelerated 15
acumen 15
aesthetics 15
agrees 15
airline 15
ali@@ 15
amsterdam 15
ana 15
ann 15
anthropologist 15
anticipation 15
apparatus 15
arabs 15
arch@@ 15
ari@@ 15
arkansas 15
arose 15
arranged 15
arrangement 15
assigned 15
assistance 15
astronomical 15
ately 15
ative 15
att@@ 15
attraction 15
attribute 15
auditorium 15
aurora 15
awards 15
ballet 15
bands 15
beans 15
beginnings 15
bending 15
bil@@ 15
blink 15
blobs 15
blows 15
bono 15
bot 15
bounce 15
brakes 15
breakthroughs 15
bribes 15
browne 15
bruce 15
bullets 15
bye 15
bypass 15
cad 15
calculator 15
calculators 15
canal 15
captcha 15
cello 15
cellphone 15
centric 15
checks 15
chef 15
chen 15
cing 15
civilian 15
clapping 15
cleaned 15
cluster 15
cochrane 15
cognitively 15
coined 15
collections 15
commission 15
conductor 15
connecticut 15
copernicus 15
cou@@ 15
creators 15
criticism 15
criticized 15
crystal 15
crystals 15
cting 15
cubic 15
daf-2 15
dale 15
dam@@ 15
decode 15
deliberately 15
delivers 15
demonstrates 15
dependence 15
depths 15
desktop 15
dial 15
dolby 15
donate 15
donations 15
dor@@ 15
dump 15
eco-@@ 15
edited 15
effectiveness 15
els 15
embody 15
emphasis 15
epic 15
equator 15
equilibrium 15
europeans 15
evolves 15
executive 15
exile 15
expands 15
extensive 15
fast-forward 15
fatty 15
fellows 15
fifteen 15
fil@@ 15
files 15
finland 15
firmly 15
firms 15
first-@@ 15
firsthand 15
flaw 15
flipping 15
focal 15
focuses 15
folk 15
fooled 15
foremost 15
funders 15
fungus 15
gal@@ 15
gang 15
gangs 15
gary 15
geeks 15
gehry 15
gently 15
germ 15
gl@@ 15
grand@@ 15
grey 15
grim 15
grounded 15
grounds 15
guerrilla 15
guerrillas 15
guesses 15
gy@@ 15
heel 15
high-speed 15
himalayas 15
histories 15
hives 15
hopeless 15
humankind 15
ignorant 15
ikea 15
implication 15
impress 15
incidentally 15
incremental 15
ingenious 15
injection 15
installations 15
intractable 15
inventing 15
investigating 15
iz@@ 15
ja 15
jeans 15
jeff 15
jon 15
justin 15
karl 15
khmer 15
knives 15
lane 15
lap 15
lasted 15
lastly 15
launching 15
lays 15
leds 15
len 15
libraries 15
lifelike 15
liking 15
lit@@ 15
livestock 15
ll 15
lobby 15
logging 15
lou@@ 15
louis 15
malware 15
marshmallow 15
mat 15
mates 15
mattered 15
mba 15
ment@@ 15
metaphors 15
methodology 15
microscopic 15
midnight 15
migrants 15
miller 15
milliseconds 15
minimal 15
ministers 15
missile 15
mitchell 15
monk 15
monument 15
moses 15
norman 15
notebook 15
obstacle 15
occupied 15
old-fashioned 15
orders 15
ore 15
oscar 15
outrage 15
overlap 15
overlooked 15
oxide 15
painter 15
partial 15
participated 15
passengers 15
peaks 15
pension 15
persuade 15
plankton 15
pond 15
post@@ 15
pped 15
predicting 15
preference 15
preservation 15
primal 15
prizes 15
prone 15
protesters 15
protocol 15
publication 15
punish 15
pur@@ 15
q 15
rac@@ 15
racism 15
rainfall 15
ranging 15
receiver 15
recreate 15
reefs 15
references 15
refers 15
regain 15
regimes 15
registered 15
relevance 15
rendered 15
republican 15
republicans 15
respiratory 15
responsive 15
retain 15
reviews 15
richness 15
rightly 15
rory 15
rouge 15
routes 15
sane 15
satisfied 15
scanned 15
scare 15
scenarios 15
schedule 15
scholars 15
scoop 15
seas 15
sensitivity 15
ser 15
seven@@ 15
shade 15
shar@@ 15
sho@@ 15
shortage 15
sioux 15
sketch 15
slaughter 15
slaves 15
smiles 15
southeast 15
speeches 15
spiders 15
sri 15
sses 15
stabilize 15
stakes 15
stated 15
statements 15
steak 15
steering 15
storing 15
strictly 15
stripped 15
stumbled 15
substantial 15
suburbs 15
supports 15
surrounds 15
synthesize 15
tactics 15
tahrir 15
telephones 15
the-@@ 15
ther 15
throat 15
thylacines 15
tively 15
tom@@ 15
toothbrush 15
top-down 15
traded 15
transformational 15
treaties 15
triangles 15
trusting 15
twenty 15
uncover 15
unequal 15
unified 15
unimaginable 15
urgency 15
usda 15
vastly 15
venezuela 15
vers 15
vertically 15
vibrations 15
victorian 15
virgin 15
volcano 15
voyager 15
water@@ 15
watt 15
wea@@ 15
weekends 15
weibo 15
westerners 15
williams 15
wilson 15
windmill 15
workshop 15
worries 15
x-@@ 15
zz@@ 15
1,200 14
2,@@ 14
39 14
40-@@ 14
450 14
47 14
56 14
83 14
acceleration 14
acquisition 14
activism 14
adjacent 14
adolescent 14
advantages 14
african-american 14
ai@@ 14
al-qaeda 14
alter 14
ambassador 14
aorta 14
apes 14
aqu@@ 14
arc 14
arrows 14
assign 14
ast@@ 14
attacking 14
attended 14
automotive 14
av@@ 14
availability 14
b.c. 14
backward 14
bacon 14
bageye 14
balloons 14
baltimore 14
banana 14
barrel 14
baseline 14
beep 14
belt 14
berry 14
biomaterials 14
biotech 14
bir@@ 14
bleed 14
blob 14
blogger 14
boiling 14
bombers 14
bonnie 14
booth 14
boreal 14
boson 14
breed 14
bricks 14
broad@@ 14
broadmoor 14
browse 14
bury 14
butterflies 14
by-@@ 14
cabin 14
canopy 14
carbon-@@ 14
carpet 14
carter 14
casting 14
casual 14
casualties 14
cates 14
cd 14
centigrade 14
chemists 14
chicks 14
chil@@ 14
citizenship 14
civilians 14
clicks 14
closet 14
coins 14
collaborating 14
collider 14
combining 14
commander 14
commute 14
compatible 14
conductive 14
containers 14
continuum 14
controller 14
copied 14
cops 14
correlated 14
corridors 14
countryside 14
cp 14
crises 14
crowds 14
curtain 14
customization 14
darwinian 14
dated 14
dealt 14
deliberate 14
destined 14
destructive 14
devastated 14
developments 14
digit 14
digitize 14
din 14
disclosure 14
distinguish 14
distorted 14
dividing 14
dominance 14
downstairs 14
dragging 14
dragon 14
dri@@ 14
dumped 14
efficiently 14
enabling 14
eng@@ 14
enzymes 14
epiphany 14
ero@@ 14
essex 14
ev@@ 14
excess 14
exclusive 14
expo 14
exponentially 14
f. 14
favela 14
fictional 14
fies 14
fills 14
fingertips 14
firefly 14
fishermen 14
flap 14
flock 14
flood 14
floods 14
flour 14
fmri 14
footprints 14
forage 14
forgiveness 14
formats 14
forum 14
fra@@ 14
fraud 14
fre@@ 14
freak 14
fridge 14
functionality 14
gaming 14
gamma 14
ge-@@ 14
graduates 14
gratefulness 14
gratification 14
gru@@ 14
guidelines 14
hatred 14
hats 14
hears 14
heck 14
heights 14
hint 14
hip-hop 14
hiring 14
hiv-positive 14
hobby 14
homeland 14
honeybees 14
hot@@ 14
humane 14
humanoid 14
husbands 14
hyper-@@ 14
ick 14
iled 14
illumination 14
illustration 14
implants 14
indi@@ 14
infect 14
inorganic 14
inspirational 14
instances 14
integrating 14
intel 14
interpreted 14
interrupted 14
interviewing 14
ira 14
ists 14
ization 14
johns 14
joins 14
junior 14
kepler 14
lar 14
lasers 14
lation 14
legally 14
legend 14
lhc 14
liberation 14
linux 14
lling 14
locomotion 14
loops 14
loyal 14
lymph 14
mac 14
madness 14
manipulated 14
mantra 14
mao 14
maria 14
mas 14
mechanically 14
mel@@ 14
midst 14
mimics 14
ming 14
mites 14
monopoly 14
mosquitoes 14
mythology 14
navigation 14
needing 14
needles 14
needless 14
negotiation 14
nerdy 14
neurologic 14
neuroscientists 14
non 14
ny 14
oblivious 14
officially 14
ok@@ 14
one-dimensional 14
one-two-three-four 14
oral 14
orleans 14
ousness 14
outbreak 14
outward 14
p-@@ 14
packing 14
para@@ 14
partially 14
participant 14
passionately 14
passport 14
peanut 14
ped 14
penicillin 14
pennsylvania 14
pepper 14
performer 14
persistent 14
persons 14
peru 14
physiological 14
pioneers 14
planner 14
poles 14
polish 14
pollinators 14
popcorn 14
pore 14
positioning 14
pressures 14
prevented 14
prevents 14
progressively 14
promoting 14
prospect 14
proving 14
publisher 14
punk 14
quarters 14
questioned 14
qui@@ 14
quiz 14
ral 14
randomness 14
receives 14
relational 14
respects 14
restorative 14
reunion 14
rezero 14
rhetoric 14
ripped 14
roommate 14
ruin 14
ruled 14
russell 14
sail 14
salmon 14
sandy 14
sb 14
scaled 14
scarf 14
scroll 14
sealed 14
sean 14
sebastian 14
secretly 14
sells 14
semester 14
sen 14
senate 14
severely 14
sey 14
shel@@ 14
shells 14
shook 14
shouting 14
shu@@ 14
side-by-side 14
single-@@ 14
slave 14
slavery 14
sli@@ 14
slices 14
slowed 14
smartest 14
smashed 14
solves 14
sor@@ 14
space-time 14
spike 14
spite 14
ssi@@ 14
stereo 14
sterile 14
stockholm 14
strand 14
straw 14
structured 14
submitted 14
substantially 14
succeeding 14
sue 14
sued 14
survivor 14
sync 14
synthesis 14
tab@@ 14
tac@@ 14
tasmania 14
teen 14
terrorist 14
th-century 14
thoroughly 14
tigers 14
time-@@ 14
tipping 14
toaster 14
tolerant 14
toolbox 14
top@@ 14
tops 14
tougher 14
tours 14
transducer 14
treadmill 14
tremendously 14
tribute 14
triumph 14
trunk 14
tso 14
tunnels 14
turk 14
unaware 14
under-@@ 14
underway 14
unhealthy 14
upgrade 14
varied 14
vascular 14
vegetarian 14
verse 14
veteran 14
vibrate 14
virtuous 14
vo@@ 14
wal@@ 14
walmart 14
wander 14
warmer 14
wasting 14
waving 14
whip 14
whistling 14
work@@ 14
worn 14
yale 14
yed 14
yelling 14
zip 14
zk 14
.com. 13
0.@@ 13
1957 13
1986 13
1988 13
2.@@ 13
21st-century 13
26@@ 13
63 13
68 13
71 13
74 13
78 13
abi@@ 13
accenture 13
accidental 13
accomplishment 13
adds 13
adopting 13
aggression 13
agnes 13
alarming 13
algebra 13
amen 13
analogies 13
anas 13
anecdote 13
antarctic 13
anthony 13
antidote 13
apartheid 13
archives 13
are@@ 13
arti@@ 13
asteroids 13
atmospheric 13
attendance 13
attorney 13
auditory 13
austria 13
aviation 13
ay@@ 13
aye 13
bach 13
backup 13
bag@@ 13
bahamas 13
battlefield 13
bearing 13
beat@@ 13
betting 13
beverly 13
bioluminescent 13
biop@@ 13
bipolar 13
bitter 13
bli@@ 13
bliss 13
bloom 13
bly 13
bombing 13
bonnet 13
boyfriend 13
bread@@ 13
burial 13
butterfly 13
c-@@ 13
cal 13
carbs 13
carpenter 13
cartilage 13
cat@@ 13
catadores 13
catastrophe 13
cating 13
celebration 13
cent 13
centered 13
cer 13
cereal 13
certificate 13
chernobyl 13
chimpanzee 13
chk 13
cking 13
cleared 13
clu@@ 13
companion 13
competitors 13
complained 13
composer 13
compress 13
concussion 13
conducting 13
conferences 13
confirmed 13
confuse 13
constructive 13
contacts 13
contagion 13
contaminated 13
continuity 13
contracts 13
convenient 13
converting 13
crackers 13
crafted 13
crater 13
crawl 13
creations 13
crust 13
crux 13
ct@@ 13
dairy 13
darpa 13
day-to-day 13
decisive 13
defending 13
definitions 13
degradation 13
demanded 13
dementia 13
demonstrating 13
determining 13
devastation 13
devised 13
dials 13
diets 13
digitized 13
dimensional 13
displayed 13
disrupt 13
dissection 13
dro@@ 13
droughts 13
dug 13
dunes 13
electrode 13
elites 13
elvis 13
emailed 13
encoded 13
encrypted 13
endlessly 13
endurance 13
enduring 13
enthusiasm 13
enthusiastic 13
enti@@ 13
erase 13
ess@@ 13
est@@ 13
estrogen 13
evelyn 13
evident 13
exams 13
exceptional 13
excuses 13
executed 13
exhilarating 13
exposing 13
extracellular 13
extracted 13
extraction 13
extremes 13
extremists 13
face-to-face 13
faint 13
fal@@ 13
fat@@ 13
feminine 13
feminism 13
fertilizers 13
filing 13
fire@@ 13
fitting 13
fixing 13
flags 13
fled 13
flute 13
follow-up 13
forged 13
freeman 13
freeze 13
fri@@ 13
gallons 13
gaze 13
geek 13
genomics 13
genuinely 13
gigantic 13
gil@@ 13
gla@@ 13
glaciers 13
glowing 13
goats 13
graves 13
grief 13
grilled 13
guaranteed 13
gue 13
guts 13
hadron 13
hamlet 13
hands-on 13
helen 13
helicopters 13
hitler 13
hol@@ 13
holistic 13
holland 13
horrific 13
hp 13
hug 13
hung 13
hunter 13
hunters 13
immortal 13
imposed 13
imposing 13
improbable 13
inability 13
incorporate 13
incra 13
innate 13
insi@@ 13
instinctively 13
interfere 13
interference 13
intuitively 13
invaded 13
ise 13
islamist 13
izes 13
jamie 13
jason 13
jimmy 13
joey 13
ju 13
jun@@ 13
k. 13
kal@@ 13
kate 13
kb 13
kissing 13
kri@@ 13
lacking 13
larvae 13
las 13
latter 13
lawsuit 13
lea@@ 13
leaked 13
legitimacy 13
legos 13
leisure 13
lessly 13
lia 13
lifelong 13
lings 13
log@@ 13
luke 13
lump 13
mag@@ 13
mahatma 13
malcolm 13
mania 13
mario 13
marshall 13
marvel 13
maryland 13
mathematica 13
matic 13
matthew 13
mbi 13
meaningless 13
measurable 13
mellon 13
mi 13
migrant 13
mini 13
mir@@ 13
modify 13
mommy 13
monitored 13
monthly 13
moscow 13
mou@@ 13
ms. 13
multitasking 13
nanoscale 13
nanotubes 13
nas@@ 13
nation-state 13
ners 13
nests 13
nitric 13
nope 13
northwest 13
notation 13
numerous 13
nut 13
oakland 13
oddly 13
odysseus 13
offenders 13
ol 13
ologist 13
optic 13
optimize 13
orangutan 13
orbiting 13
orthopedic 13
osama 13
outdated 13
packs 13
pads 13
pasting 13
pavilion 13
payload 13
peanuts 13
pedal 13
penetrate 13
pepsi 13
performances 13
periphery 13
permanently 13
persist 13
photographic 13
pixels 13
placebo 13
plaque 13
plotted 13
polite 13
polymer 13
ponds 13
pools 13
positively 13
pot@@ 13
powerless 13
pragmatic 13
predictive 13
prescription 13
preserved 13
preserving 13
projector 13
proposing 13
protects 13
proves 13
provocative 13
psychiatrist 13
psychopathic 13
quoted 13
r. 13
raft 13
rang 13
rated 13
ration 13
reacting 13
reconstruction 13
refine 13
refrigerators 13
relies 13
renewables 13
rent 13
residential 13
resolved 13
resonate 13
resort 13
respectful 13
restored 13
resulted 13
retreat 13
revealing 13
reviewed 13
revolutionize 13
right-@@ 13
robinson 13
rushing 13
scalable 13
schwarzschild 13
scooped 13
scripts 13
searched 13
seduction 13
selectively 13
self-worth 13
settlements 13
shipped 13
simplify 13
sk 13
sliced 13
slightest 13
slime 13
slo@@ 13
snap 13
sole 13
sought 13
spe@@ 13
speci@@ 13
spikes 13
spirituality 13
spl@@ 13
sponge 13
spouse 13
stacks 13
stal@@ 13
standardized 13
startling 13
ster@@ 13
stratosphere 13
strips 13
stuffed 13
subconscious 13
suburbia 13
suggestions 13
summit 13
superpower 13
systemic 13
t.b. 13
tan 13
taxi 13
teapot 13
tech@@ 13
technologists 13
tedmed 13
tedster 13
tensions 13
tenth 13
textile 13
thinker 13
third-@@ 13
thou 13
thriving 13
thro@@ 13
throws 13
thursday 13
tier 13
tized 13
tolerate 13
tooth 13
touches 13
toughest 13
tran@@ 13
transcend 13
transistor 13
translates 13
transnational 13
triceratops 13
triggers 13
tropics 13
turing 13
turkish 13
twenty-@@ 13
typed 13
ucla 13
unbelievably 13
undercover 13
underestimate 13
undermine 13
unsustainable 13
vaccinated 13
vague 13
val@@ 13
valves 13
vegetation 13
veins 13
verbs 13
vin 13
vinci 13
visionary 13
visualizing 13
vividly 13
weaker 13
weakness 13
web@@ 13
wind@@ 13
wool 13
worship 13
wounds 13
wrestle 13
wrinkles 13
xes 13
za@@ 13
zer 13
zeros 13
é 13
… 13
,000-@@ 12
-free 12
-year-olds 12
.a. 12
00s 12
101 12
15-year-old 12
160 12
1918 12
1962 12
1965 12
1991 12
1993 12
2015 12
24@@ 12
3,@@ 12
3.@@ 12
365 12
401 12
46 12
59 12
87 12
89 12
91 12
= 12
a-rhythm 12
absurd 12
accommodate 12
achievements 12
achilles 12
aching 12
actu@@ 12
adapting 12
addresses 12
admired 12
aero@@ 12
affairs 12
alizes 12
altruism 12
ama@@ 12
analytical 12
andy 12
anne 12
anonymity 12
antennae 12
anthropologists 12
antibody 12
antly 12
appetite 12
archi@@ 12
argues 12
aria 12
armstrong 12
arousal 12
arrangements 12
aspire 12
attacker 12
automation 12
automobiles 12
axe 12
az@@ 12
bait 12
ballast 12
bandwidth 12
barbara 12
bark 12
bases 12
bass 12
baxter 12
bells 12
belonging 12
biases 12
bilbao 12
bioluminescence 12
bladder 12
blamed 12
blanket 12
blended 12
blessing 12
boils 12
bombed 12
bp 12
bru@@ 12
buil@@ 12
bureaucratic 12
but@@ 12
cally 12
camel 12
campaigning 12
capit@@ 12
capturing 12
caregiver 12
cartoonists 12
carved 12
casey 12
castle 12
casually 12
catalyst 12
celebrating 12
census 12
cer@@ 12
ch-@@ 12
champagne 12
chapters 12
charitable 12
charlotte 12
cheaply 12
chi 12
cholera 12
chu@@ 12
cited 12
cl@@ 12
clarify 12
cleaners 12
clinically 12
cod 12
collapses 12
collar 12
commonplace 12
compact 12
competitions 12
complaining 12
comprised 12
concerts 12
confirm 12
conserve 12
considerably 12
consumes 12
contacted 12
cooper 12
coordinated 12
corals 12
correspond 12
costing 12
counterintuitive 12
courtship 12
cr@@ 12
crashed 12
crashes 12
craving 12
cuba 12
d-up 12
damaging 12
danced 12
darfur 12
defenders 12
delayed 12
delicate 12
dengue 12
dennis 12
dentist 12
depended 12
deployment 12
deprivation 12
descriptions 12
desks 12
devotion 12
differential 12
differentiate 12
digest 12
dis 12
dismiss 12
disparate 12
dispersed 12
dispute 12
disturbed 12
dock 12
donald 12
doodle 12
downstream 12
drowned 12
dynamically 12
dysfunctional 12
ebay 12
echo 12
eden 12
eeg 12
efficacy 12
egyptians 12
eighty 12
electoral 12
embroidery 12
embryonic 12
emphasize 12
empirical 12
encounters 12
entity 12
escaped 12
esg 12
essay 12
establishing 12
exhausted 12
exploding 12
explosions 12
exponential 12
expressing 12
fade 12
fairy 12
fan@@ 12
fee 12
fetuses 12
fit@@ 12
flashing 12
flown 12
fluent 12
flutes 12
foraging 12
forbidden 12
freaking 12
fro@@ 12
frontiers 12
furthermore 12
galileo 12
gam@@ 12
gas@@ 12
gener@@ 12
genic 12
geographical 12
geological 12
gers 12
ghost 12
gilbert 12
gli@@ 12
gol@@ 12
governed 12
grabbing 12
gravel 12
guatemala 12
guessed 12
gy 12
gyrus 12
h5n1 12
hairs 12
hangs 12
hard-@@ 12
headache 12
heartbeat 12
hebrew 12
heroin 12
hers 12
hid 12
high-quality 12
hippocampus 12
hive 12
hom@@ 12
hosts 12
hour@@ 12
hr 12
hungarian 12
hyper@@ 12
hypo@@ 12
ideally 12
idol 12
ids 12
ier 12
ig@@ 12
illinois 12
illiterate 12
imaginations 12
immersion 12
immunity 12
immunization 12
impacted 12
improvising 12
impulses 12
indicates 12
indicating 12
indication 12
indirectly 12
inefficient 12
influenza 12
injected 12
insecure 12
instability 12
intentionally 12
internationally 12
interval 12
introduces 12
irrigation 12
israelis 12
ivory 12
jan@@ 12
jars 12
jaws 12
judging 12
judy 12
kay 12
keen 12
ki 12
killings 12
knit 12
kosovo 12
lawsuits 12
lemon 12
lexicon 12
liberated 12
lifts 12
lls 12
logist 12
logists 12
longing 12
lovers 12
loyalty 12
lyrics 12
madagascar 12
manifestation 12
mann 12
manufacturer 12
masks 12
massachusetts 12
maternal 12
memorize 12
middle-aged 12
mind-blowing 12
mini-@@ 12
miniature 12
miraculous 12
mist 12
mistaken 12
mom@@ 12
mp3 12
mutant 12
na 12
neanderthal 12
neglect 12
negotiations 12
neighboring 12
ner@@ 12
netflix 12
nic@@ 12
nickname 12
nih 12
nine-year-old 12
notions 12
nuanced 12
nutrient 12
obligation 12
oc@@ 12
occasional 12
offensive 12
ola 12
one-third 12
oning 12
openly 12
ous@@ 12
ox 12
oysters 12
p. 12
pac@@ 12
pakistani 12
palette 12
pancreas 12
papua 12
parti@@ 12
pas@@ 12
pascal 12
payoff 12
peacekeepers 12
perceptual 12
pes 12
phantom 12
philippines 12
photographers 12
photoshop 12
pia 12
picasso 12
pinpoint 12
pittsburgh 12
pleasures 12
po 12
pollinate 12
pop-up 12
porous 12
portable 12
pots 12
practiced 12
predicts 12
presumably 12
preventable 12
progeria 12
propulsion 12
prototyping 12
psychopaths 12
pushes 12
pyramids 12
quantitative 12
quar@@ 12
queens 12
radi@@ 12
raging 12
rail 12
rank 12
reactive 12
readily 12
real-world 12
recruit 12
rectangle 12
regarded 12
regulatory 12
reinventing 12
reluctant 12
repairability 12
reporters 12
reservations 12
restoring 12
retinal 12
rhythms 12
ribbon 12
rigged 12
riverside 12
rock@@ 12
roman 12
roosevelt 12
rufus 12
rus 12
sac@@ 12
sampling 12
sanctuary 12
sco@@ 12
seminal 12
serial 12
settling 12
shattered 12
shoved 12
shredded 12
shrinking 12
side@@ 12
sign@@ 12
similarities 12
sinister 12
sions 12
sively 12
six-year-old 12
skier 12
skies 12
sle@@ 12
slick 12
slu@@ 12
smelling 12
socioeconomic 12
soluble 12
som@@ 12
spam 12
speeding 12
spheres 12
splashy 12
sponsored 12
spotted 12
springs 12
spy 12
ssing 12
sta 12
stefan 12
stimulated 12
strive 12
stunned 12
sty 12
suited 12
sulfur 12
sunshine 12
supermarkets 12
surrogate 12
suspected 12
suspects 12
sustaining 12
swedes 12
sy@@ 12
syn@@ 12
synapses 12
taboo 12
taiwan 12
tamiflu 12
tarahumara 12
tas@@ 12
tations 12
tb 12
td 12
tearing 12
technician 12
tel@@ 12
tered 12
terence 12
terminal 12
thanksgiving 12
thermostat 12
thrilling 12
thy 12
thyroid 12
tic@@ 12
tilt 12
time-lapse 12
tinkering 12
tion@@ 12
tional 12
toyota 12
trafficked 12
tragically 12
transistors 12
troubled 12
troy 12
tucked 12
turtles 12
tvs 12
ue 12
ukraine 12
ultra-@@ 12
uncertain 12
understandable 12
une@@ 12
unfamiliar 12
unfinished 12
ung 12
universally 12
unnecessary 12
unpleasant 12
unsafe 12
unthinkable 12
updated 12
upwards 12
ventilated 12
ventilation 12
versa 12
vet 12
ville 12
violation 12
visuals 12
wage 12
wandering 12
warehouse 12
warfare 12
wealthier 12
whaling 12
whatnot 12
whereby 12
whistles 12
wit@@ 12
wondrous 12
world-class 12
ya@@ 12
yep 12
yo-yo 12
yoga 12
yogurt 12
– 12
1.4 11
15-@@ 11
1800s 11
1978 11
1979 11
2.3 11
25-@@ 11
360 11
4,@@ 11
4.@@ 11
49 11
5-@@ 11
50@@ 11
51 11
62 11
750 11
92 11
a. 11
a.@@ 11
abo@@ 11
abs 11
accounted 11
accumulating 11
ach 11
ack 11
ack@@ 11
acoustic 11
adi@@ 11
adjusted 11
admi@@ 11
admitted 11
adulter@@ 11
advent 11
aerial 11
age-old 11
aims 11
algorithmic 11
aliens 11
aligned 11
alignment 11
alists 11
alley 11
alliance 11
amphi@@ 11
ams 11
ana@@ 11
andre@@ 11
android 11
ann@@ 11
announce 11
annoyed 11
anthropo@@ 11
antiretroviral 11
appalling 11
appearing 11
appliances 11
apprentice 11
ar-@@ 11
arians 11
arises 11
arrival 11
arrives 11
arriving 11
artificially 11
aspirations 11
assess 11
assi@@ 11
assumes 11
astonishingly 11
astounding 11
astro@@ 11
astronaut 11
asylum 11
atheist 11
attempting 11
attending 11
audacious 11
back-@@ 11
bakery 11
baking 11
ball@@ 11
bandura 11
banging 11
bare 11
bb@@ 11
bbc 11
beaches 11
beard 11
belonged 11
bi 11
biblical 11
bility 11
biography 11
blair 11
blindly 11
boot 11
borrowed 11
botswana 11
bows 11
box@@ 11
boy@@ 11
brain@@ 11
bran@@ 11
branding 11
break@@ 11
brick 11
broadly 11
buddy 11
bulk 11
bunk 11
bureau 11
c.@@ 11
cali@@ 11
cans 11
carcinogens 11
carrier 11
cate 11
cellulose 11
cern 11
charging 11
charter 11
cheer 11
christ@@ 11
churches 11
clap 11
classification 11
classified 11
cle@@ 11
clicked 11
cloning 11
closes 11
cloudy 11
cockpit 11
cognition 11
cohen 11
coherent 11
collagen 11
collapsing 11
collector 11
collects 11
comedian 11
commerce 11
communism 11
compass 11
competence 11
conceivable 11
concerning 11
confession 11
conflicting 11
confrontation 11
congratulations 11
consolation 11
constructions 11
consultants 11
containing 11
conviction 11
coolest 11
copernican 11
cortisol 11
costly 11
coup 11
courts 11
cowboy 11
crave 11
credible 11
critics 11
cucumber 11
cue 11
cult 11
custom 11
cycling 11
cynthia 11
d-out 11
dam 11
dangerously 11
daycare 11
daylight 11
dd@@ 11
deci@@ 11
declaration 11
declined 11
decreased 11
defeated 11
del 11
delightful 11
derive 11
desertification 11
desperation 11
develops 11
dge 11
diamonds 11
difficulties 11
disappearing 11
disastrous 11
disbelief 11
disc 11
disconnect 11
discrete 11
disk 11
disposal 11
dissent 11
dity 11
diver 11
divides 11
divorced 11
dominate 11
dos 11
dotcom 11
downloaded 11
draft 11
drank 11
dreadful 11
dressing 11
drift 11
drums 11
duke 11
dune 11
dye 11
eames 11
elusive 11
embryo 11
emergent 11
emi@@ 11
employing 11
enhances 11
enjoyable 11
enlightened 11
enterprises 11
ep 11
erectus 11
ets 11
eureka 11
euro 11
examined 11
examining 11
execution 11
executives 11
exercising 11
exhibitions 11
experimented 11
extracting 11
extracts 11
extremism 11
facade 11
faiza 11
faked 11
fel@@ 11
fences 11
fertilizer 11
fidelity 11
filed 11
filmmakers 11
fingerprint 11
fireman 11
firemen 11
firstly 11
five-year-old 11
flawed 11
flaws 11
fli@@ 11
flipped 11
fluids 11
forehead 11
forge 11
forgetting 11
founders 11
four@@ 11
fragrance 11
freud 11
friedman 11
fur 11
gaga 11
gamers 11
gan@@ 11
gardening 11
gation 11
gayla 11
gears 11
gecko 11
gic 11
gir@@ 11
gle 11
goggles 11
gon@@ 11
governmental 11
governors 11
grape 11
greatness 11
greed 11
gridlock 11
groundbreaking 11
growers 11
guessing 11
guided 11
guides 11
gul@@ 11
hair@@ 11
hallucination 11
hallway 11
hampshire 11
handsome 11
headaches 11
headphones 11
hindu 11
hints 11
historians 11
holocaust 11
home-@@ 11
horn 11
hotels 11
huck 11
hump 11
hurdle 11
hurdy-gurdy 11
hurry 11
hyderabad 11
hygiene 11
ich 11
ici@@ 11
icons 11
icy 11
ide@@ 11
illustrated 11
imaginative 11
impacting 11
imperfect 11
improv 11
in-group 11
incarceration 11
incidence 11
incubator 11
indiana 11
indicated 11
indirect 11
inexpensive 11
infinitely 11
inhabit 11
inject 11
insert 11
insult 11
insurgency 11
interacted 11
interconnectedness 11
interrupt 11
intimately 11
inuit 11
investigated 11
investigations 11
investigative 11
iraqi 11
iting 11
itis 11
jake 11
jams 11
jargon 11
je 11
jean 11
jets 11
ji@@ 11
jk 11
joints 11
journals 11
joyful 11
judaism 11
jumps 11
kabul 11
kan@@ 11
karen 11
kentucky 11
ket 11
kha@@ 11
kim@@ 11
kir@@ 11
kites 11
knot 11
lag 11
lanka 11
law@@ 11
lawns 11
leaks 11
lenses 11
leo 11
linguists 11
linking 11
linus 11
lip 11
listener 11
liter 11
lize 11
lled 11
lobes 11
logistics 11
lon@@ 11
maintenance 11
mama 11
manipulating 11
marc 11
marched 11
markers 11
mayan 11
medal 11
meerkats 11
melted 11
membranes 11
mentality 11
mers 11
metaphorical 11
mighty 11
millimeters 11
million-@@ 11
mills 11
missouri 11
mmm 11
moderate 11
mold 11
monetary 11
monterey 11
motivates 11
motivations 11
mps 11
mul@@ 11
mun@@ 11
murderer 11
najmuddin 11
nazis 11
neurologist 11
nicholas 11
non-profit 11
non-violent 11
nursing 11
nutritional 11
obey 11
occasions 11
of-@@ 11
oms 11
one-way 11
opaque 11
oppression 11
optics 11
optimist 11
ordering 11
ots 11
ow 11
ozone 11
paints 11
pale 11
palestinians 11
palms 11
participatory 11
paulo 11
paycheck 11
penny 11
pentagon 11
perceiving 11
performers 11
perpetual 11
perry 11
personnel 11
pessimistic 11
pheromone 11
photographing 11
pic@@ 11
pipelines 11
placing 11
plains 11
plea 11
plentiful 11
plu@@ 11
policeman 11
policemen 11
polymers 11
pon@@ 11
poop 11
populated 11
portal 11
posing 11
possess 11
possessed 11
possessions 11
preliminary 11
premature 11
premium 11
pressed 11
primordial 11
proceed 11
promotion 11
prophecy 11
prophet 11
prostitution 11
protons 11
provoke 11
publishers 11
pul@@ 11
purchasing 11
puzzled 11
queue 11
rabbi 11
rainbow 11
rainwater 11
ranger 11
ratios 11
reacted 11
reagan 11
rebuilt 11
recon@@ 11
recruitment 11
recurrent 11
redefining 11
reed 11
referring 11
reflex 11
refrigeration 11
regi@@ 11
reimagine 11
remix 11
repertoire 11
reservation 11
reserved 11
resting 11
rests 11
resulting 11
rewarding 11
rift 11
riley 11
riots 11
rod 11
rotate 11
rotating 11
rounded 11
rubbish 11
rubble 11
runner 11
runners 11
rupees 11
saint 11
salaries 11
sandwiches 11
saturated 11
scandal 11
scar@@ 11
scars 11
scattered 11
scheduled 11
scissors 11
seamlessly 11
seize 11
self-confidence 11
seller 11
senator 11
sequel 11
sergey 11
servers 11
seven-year-old 11
shave 11
shelters 11
shoots 11
shortcut 11
shrink 11
sia 11
siege 11
sil@@ 11
silently 11
simulated 11
sins 11
six@@ 11
skiing 11
slash 11
slot 11
smelled 11
smelly 11
socks 11
soda 11
soils 11
solitary 11
solitude 11
sorted 11
sovereign 11
soy 11
speculation 11
spells 11
spine 11
sprawl 11
stabilized 11
stakeholders 11
starch 11
stats 11
stering 11
stop@@ 11
strangeness 11
strapped 11
strengthen 11
stresses 11
stretched 11
sty@@ 11
substances 11
suburban 11
suffers 11
sugars 11
suite 11
summarized 11
sunny 11
sup@@ 11
supernova 11
superpowers 11
suppressed 11
surf 11
surfing 11
swap 11
sweep 11
swept 11
swollen 11
symbiosis 11
symmetry 11
tablet 11
tails 11
tallest 11
template 11
temporarily 11
termites 11
testament 11
testimony 11
thed 11
thin@@ 11
thinner 11
threaten 11
three-year-old 11
thrust 11
tiniest 11
tionally 11
token 11
tor 11
trac@@ 11
trail 11
transforms 11
triggered 11
triple 11
troubling 11
turbines 11
ture 11
tw@@ 11
twelve 11
two-year-old 11
ty-@@ 11
unconsciously 11
undergo 11
undergoing 11
undergraduate 11
unfold 11
uni@@ 11
unlimited 11
unrelated 11
upright 11
upward 11
usable 11
utilize 11
vaccination 11
valleys 11
vector 11
vent 11
venter 11
venues 11
verify 11
vibration 11
vit@@ 11
vivian 11
vol@@ 11
vul@@ 11
waist 11
wakes 11
wales 11
warmth 11
warn 11
wearable 11
webcam 11
weekly 11
wetlands 11
wetsuit 11
whilst 11
whirlwind 11
who@@ 11
wirelessly 11
witnessing 11
wol@@ 11
wolf 11
womb 11
wrapping 11
wreck 11
wu@@ 11
yemeni 11
you@@ 11
zi 11
zipcar 11
-a-@@ 10
0-@@ 10
1,600 10
16th 10
170 10
1858 10
1900s 10
1949 10
1973 10
1983 10
1985 10
1987 10
2,500 10
24-hour 10
3.5 10
60-@@ 10
600,000 10
67 10
88 10
9,000 10
@ 10
ab 10
abdomen 10
abnormal 10
aboriginal 10
absent 10
abusive 10
ac 10
accumulated 10
activation 10
ades 10
adulthood 10
advancement 10
advocating 10
age-@@ 10
aggregate 10
aisle 10
albeit 10
all-time 10
alle@@ 10
alo@@ 10
altos 10
americas 10
analyst 10
ani 10
anno@@ 10
announcing 10
anomaly 10
antenna 10
aquarium 10
arche@@ 10
ards 10
arian 10
armies 10
aroused 10
arrange 10
asphalt 10
aspiration 10
assault 10
assignments 10
assured 10
atic 10
autobiographical 10
aversion 10
avian 10
awarded 10
ay 10
backpack 10
bathtub 10
bc 10
beau 10
begging 10
behaves 10
benefited 10
ber 10
biomass 10
biting 10
blaming 10
blan@@ 10
block@@ 10
bloop 10
blu@@ 10
blur 10
bo 10
boarding 10
boltzmann 10
bonding 10
bonobos 10
bookstore 10
bothered 10
boulder 10
bow@@ 10
brea@@ 10
bribery 10
brilliance 10
brilliantly 10
brink 10
browsing 10
brutality 10
bunker 10
burger 10
burma 10
bursts 10
byrne 10
cafeteria 10
capitalist 10
cargill 10
caroline 10
cassette 10
cassini 10
cation 10
cds 10
celestial 10
characterized 10
charismatic 10
che 10
cherish 10
chu 10
chuck 10
clash 10
classify 10
cleveland 10
clocks 10
cloned 10
coalition 10
coated 10
cobalt 10
coded 10
coil 10
colleges 10
collins 10
colorado 10
commissioned 10
communicates 10
compensate 10
complexities 10
composite 10
compost 10
conquer 10
considerable 10
consistency 10
constitutional 10
consulting 10
contexts 10
conver@@ 10
convergence 10
converts 10
cords 10
correction 10
correctness 10
cost-@@ 10
cost-effective 10
coumarin 10
crammed 10
crashing 10
crawling 10
crease 10
creatively 10
cri@@ 10
cricket 10
crossword 10
csf 10
ction@@ 10
cubes 10
curved 10
customized 10
customs 10
dable 10
dances 10
dar 10
dashboard 10
day@@ 10
debates 10
debating 10
deceive 10
def@@ 10
defy 10
dele@@ 10
deleted 10
depressing 10
deputy 10
dered 10
desalination 10
desirable 10
desolate 10
detergent 10
devise 10
dged 10
diagrams 10
dialed 10
dick 10
dictators 10
dictatorship 10
diffuse 10
diner 10
disc@@ 10
discarded 10
discourse 10
dismissed 10
distraction 10
distress 10
doc 10
dolly 10
dom@@ 10
donkey 10
doubts 10
dove 10
dried 10
drifting 10
dumping 10
eager 10
eco-friendly 10
edition 10
editorial 10
el-@@ 10
emitted 10
emperor 10
employer 10
emulate 10
enceladus 10
encourages 10
encryption 10
enhanced 10
enhancing 10
enjoyment 10
entries 10
ep@@ 10
equ@@ 10
erosion 10
esoteric 10
establishment 10
estimation 10
estonia 10
ethically 10
evaporate 10
evolutionarily 10
exaggeration 10
excellence 10
excerpt 10
excites 10
excluded 10
exclusively 10
expenses 10
exploitation 10
expresses 10
extending 10
ez 10
fahrenheit 10
familiarity 10
faulty 10
feathers 10
feynman 10
fin 10
flame 10
flat@@ 10
flee 10
fleet 10
flooded 10
flowering 10
fluctuations 10
fluorescent 10
fog 10
fond 10
foolish 10
footsteps 10
for-profit 10
formerly 10
freaked 10
fred 10
free-@@ 10
freshwater 10
fulfillment 10
fused 10
gated 10
gauge 10
genesis 10
geneticist 10
genital 10
georgia 10
germs 10
gg@@ 10
gh 10
giants 10
git 10
glamorous 10
glands 10
glove 10
gordon 10
gowanus 10
grad 10
granddaughter 10
grandmaster 10
grapes 10
graphy 10
greg 10
gues 10
gyre 10
hail 10
ham@@ 10
handled 10
hannah 10
haz@@ 10
heels 10
heterosexual 10
high-resolution 10
hilarious 10
hiroshima 10
hirshhorn 10
ho 10
holders 10
homemade 10
horizontally 10
hospice 10
hubris 10
hyena 10
ians 10
ie 10
imbalance 10
imf 10
imitate 10
immensely 10
immersed 10
imperial 10
implementation 10
improves 10
inclusion 10
inconvenient 10
increments 10
individu@@ 10
ine@@ 10
ineffective 10
inferior 10
inflate 10
influencing 10
infrastructures 10
inhabitants 10
ini 10
ining 10
initiatives 10
injecting 10
instructor 10
intellectually 10
intertwined 10
intuitions 10
invade 10
invasive 10
invisibility 10
iphones 10
istanbul 10
istic 10
it-@@ 10
iteration 10
jac@@ 10
jails 10
jesse 10
jessica 10
juan 10
judged 10
juxtaposition 10
kaluza 10
ker@@ 10
kil@@ 10
killers 10
kisses 10
kiva 10
klein 10
km 10
kno@@ 10
knob 10
knocking 10
koreans 10
lab@@ 10
lating 10
laureates 10
lava 10
layered 10
lebanese 10
legi@@ 10
lei@@ 10
lesser 10
lev@@ 10
liberating 10
liberties 10
libya 10
lifetimes 10
lifting 10
lightweight 10
limiting 10
linda 10
lisa 10
liters 10
lla 10
lolcats 10
lone 10
long-lived 10
lords 10
lunches 10
ly-@@ 10
mad@@ 10
magically 10
magnetism 10
maintained 10
malaysia 10
maneuver 10
manic 10
manufactured 10
marduk 10
margin 10
mari@@ 10
mark@@ 10
mas@@ 10
mass-@@ 10
mast 10
materialistic 10
mcchrystal 10
melts 10
memorized 10
mentoring 10
merge 10
mermaid 10
mes 10
messaging 10
microcredit 10
microfinance 10
micrornas 10
midwest 10
mimicking 10
mind-@@ 10
minded 10
minnesota 10
miscarriage 10
mississippi 10
mit@@ 10
mming 10
mockingbird 10
moderator 10
modules 10
moisture 10
mond 10
mongolia 10
monsters 10
mortgage 10
mosques 10
motivating 10
motto 10
multi-touch 10
mw 10
nails 10
naomi 10
napkin 10
narrator 10
navigating 10
neo-@@ 10
neumann 10
nikola 10
nit@@ 10
nominate 10
non-verbal 10
nonverbals 10
noted 10
nsa 10
numbered 10
off-@@ 10
ohio 10
oma 10
one-party 10
onset 10
op 10
open-@@ 10
open-ended 10
organizers 10
oring 10
orphans 10
outlets 10
outlook 10
overboard 10
ow@@ 10
owens 10
ox@@ 10
pains 10
palace 10
parameters 10
parting 10
partisan 10
patho@@ 10
perseverance 10
pests 10
pha@@ 10
pharmaceuticals 10
phases 10
phi@@ 10
photons 10
pianist 10
pillow 10
pioneering 10
pious 10
pissed 10
plywood 10
pods 10
poke 10
polling 10
pork 10
port-au-prince 10
portray 10
ports 10
possession 10
post-traumatic 10
posting 10
pounding 10
ppy 10
preacher 10
precipit@@ 10
prego 10
pretending 10
prevalence 10
priest 10
problem-solving 10
profiles 10
programmable 10
proportional 10
proposes 10
protesting 10
psyche 10
punished 10
purchases 10
puzzling 10
py@@ 10
quarks 10
quot 10
radiologists 10
ration@@ 10
reassuring 10
rebecca 10
recline 10
reconnect 10
recruited 10
recyclable 10
reddit 10
reinforce 10
relay 10
ren 10
render 10
replicated 10
reset 10
resident 10
restrictions 10
revelations 10
revenge 10
ro 10
robicsek 10
robin 10
rockefeller 10
rockett 10
rooster 10
rossy 10
rotten 10
ruined 10
ry@@ 10
sacrifices 10
same-sex 10
sank 10
sar 10
sar@@ 10
sarajevo 10
scar 10
scares 10
scru@@ 10
segment 10
self-awareness 10
senegal 10
sentiments 10
seriousness 10
sermons 10
setup 10
sew 10
sex@@ 10
shah 10
shan@@ 10
sheila 10
sheryl 10
shirley 10
shocks 10
shores 10
shru@@ 10
si 10
sic@@ 10
sights 10
sinclair 10
sings 10
siveness 10
ske@@ 10
skeptics 10
skins 10
slap 10
small-scale 10
smiled 10
smu@@ 10
sn@@ 10
sneak 10
sociable 10
socket 10
soli@@ 10
soprano 10
sounding 10
specialize 10
spelled 10
spiral 10
splitting 10
sponsor 10
spraying 10
ssed 10
ssy 10
stacking 10
stalin 10
stan@@ 10
stance 10
starve 10
sten@@ 10
stereotype 10
stic 10
stimulating 10
stock@@ 10
storytellers 10
straps 10
streaming 10
strongest 10
styles 10
subsequently 10
subset 10
substitute 10
suitable 10
sul@@ 10
summaries 10
sunset 10
sword 10
tackling 10
tactile 10
tail@@ 10
taped 10
targeting 10
tasted 10
teamwork 10
teens 10
temperate 10
tempted 10
tendencies 10
tenderness 10
thers 10
threatens 10
three-digit 10
three-quarters 10
time@@ 10
titled 10
tiveness 10
tobacco 10
torch 10
tou@@ 10
tourist 10
trance 10
transactions 10
transporting 10
trillions 10
troll 10
tunneling 10
tured 10
turtle 10
tutor 10
typewriter 10
ude 10
um@@ 10
underdog 10
undergraduates 10
uniforms 10
unleash 10
unlock 10
unveil 10
v. 10
vacant 10
valuing 10
van@@ 10
vantage 10
var@@ 10
veiled 10
violated 10
volatile 10
volcanoes 10
warner 10
wash@@ 10
wasp 10
waterfall 10
wax 10
wee@@ 10
weighed 10
welcomed 10
wer 10
whit@@ 10
widow 10
wii 10
willful 10
wingsuit 10
witnesses 10
wood@@ 10
workshops 10
worthless 10
wrist 10
yan@@ 10
yields 10
youngsters 10
yum 10
zetas 10
-and-a-half 9
.5 9
0.1 9
1.7 9
11,000 9
12-@@ 9
13th 9
193@@ 9
1976 9
1982 9
2000s 9
2013 9
2d 9
30-year 9
300,000 9
50th 9
70,000 9
79 9
81 9
aa 9
abc 9
abstraction 9
abstractions 9
accountants 9
ace 9
acknowledging 9
acquiring 9
acromegaly 9
acronym 9
activating 9
actress 9
adage 9
addi@@ 9
aded 9
administrators 9
admiration 9
adorable 9
adore 9
advancing 9
advocacy 9
affection 9
aftermath 9
ahmed 9
aid@@ 9
aiming 9
aires 9
airstream 9
akin 9
alberta 9
alberto 9
ale@@ 9
alia 9
aling 9
alisa 9
alistic 9
allen 9
alright 9
alter@@ 9
amanda 9
analogous 9
and-a-half 9
animate 9
ank 9
anonymously 9
ans@@ 9
antibiotic 9
apex 9
ares 9
arrogant 9
arrowheads 9
art@@ 9
asi@@ 9
atheists 9
attributed 9
audi@@ 9
audition 9
auto@@ 9
autumn 9
aviv 9
awkwardness 9
aya 9
bake 9
balcony 9
balkans 9
barrels 9
basin 9
batch 9
bathe 9
bathing 9
bbing 9
beasts 9
bedside 9
bene@@ 9
best-@@ 9
bicycles 9
big@@ 9
biom@@ 9
birthplace 9
bisexual 9
blackberry 9
blackboard 9
blade 9
bled 9
blinded 9
blues 9
bm 9
boil 9
bombar@@ 9
bomber 9
bonuses 9
booms 9
bore 9
borrowing 9
bra 9
brewing 9
brine 9
briquettes 9
britannica 9
broadband 9
broadway 9
bronze 9
brotherhood 9
bubbling 9
budrus 9
buenos 9
buffalo 9
bug@@ 9
builder 9
builders 9
bullying 9
burg 9
busted 9
butter 9
buyer 9
caffeine 9
calendars 9
cancel@@ 9
capacities 9
car-sharing 9
cardi@@ 9
carts 9
cas@@ 9
cataly@@ 9
causality 9
cdc 9
celine 9
centimeters 9
centr@@ 9
chairman 9
chaz 9
chechnya 9
check@@ 9
child-@@ 9
childish 9
chooses 9
chops 9
chor@@ 9
circled 9
civilized 9
claws 9
clean@@ 9
clearer 9
coaches 9
collectors 9
collide 9
combines 9
comm@@ 9
commanders 9
commandment 9
compelled 9
compensation 9
conce@@ 9
considers 9
constitutes 9
contamination 9
contemplating 9
conventions 9
conversely 9
cooks 9
coordinate 9
cores 9
corrections 9
corridor 9
costa 9
counseling 9
counterparts 9
coworkers 9
crab 9
crafts 9
crane 9
credibility 9
creek 9
crest 9
cries 9
criticize 9
crunch 9
crush 9
cubs 9
cured 9
cursor 9
cushions 9
cyberspace 9
danny 9
darker 9
darkest 9
dataset 9
daytime 9
dazzling 9
dd 9
ddt 9
debilitating 9
deceptive 9
dedication 9
deep-@@ 9
deli@@ 9
delusion 9
demo@@ 9
democrat 9
democratized 9
densities 9
dentists 9
depicted 9
derartu 9
dering 9
descend 9
descent 9
deserved 9
devils 9
devoid 9
devote 9
dian 9
dieting 9
dim 9
dip 9
dire 9
disappointing 9
disciplinary 9
discomfort 9
dislike 9
displacement 9
dissonance 9
distractions 9
doctrine 9
dow@@ 9
drain 9
dropout 9
dull 9
dum 9
duolingo 9
dyson 9
eaters 9
ecologist 9
economical 9
educator 9
eh 9
eigh@@ 9
embarrassment 9
embodiment 9
emerald 9
emission 9
emma 9
emmanuel 9
empathic 9
empires 9
encode 9
encouragement 9
end@@ 9
endure 9
energies 9
energy-efficient 9
ening 9
enrolled 9
entertain 9
entitled 9
epi@@ 9
escaping 9
ese 9
estimating 9
eternity 9
ethnicity 9
evaluating 9
evils 9
exaggerated 9
examination 9
excessive 9
exchanging 9
excruciating 9
expeditions 9
expenditure 9
export 9
exporting 9
extremist 9
exxon 9
eyebrows 9
fac@@ 9
fare 9
fascination 9
fashionable 9
favorable 9
fearful 9
fearless 9
featured 9
fellowship 9
finest 9
finishes 9
fisheries 9
fitness 9
fixated 9
flash@@ 9
flips 9
foreground 9
forger 9
fork 9
forwards 9
fours 9
fragment 9
fragments 9
framed 9
framing 9
freaks 9
freedoms 9
fueled 9
fulfilled 9
fundamentalists 9
fuse 9
futureless 9
futures 9
g. 9
gabriel 9
gal 9
gapminder 9
gasses 9
genomic 9
geo-engineering 9
geographically 9
georgetown 9
gie 9
gin 9
glu@@ 9
gn@@ 9
gogh 9
goo@@ 9
gor@@ 9
goro 9
graduating 9
graduation 9
gran@@ 9
great-@@ 9
greedy 9
green@@ 9
guest 9
guru 9
gymnosophist 9
hacked 9
halved 9
handheld 9
handwriting 9
hansen 9
hany 9
hardwired 9
hardy 9
harris 9
hasan 9
haunted 9
hay 9
hazard 9
hc 9
healthiest 9
heather 9
hen@@ 9
hhh 9
high@@ 9
hin@@ 9
hockey 9
hostility 9
hudson 9
hull 9
human@@ 9
humbling 9
humorous 9
hundred-@@ 9
hurtigruten 9
hussein 9
i.t. 9
ignoring 9
illa 9
ily 9
ima@@ 9
imitating 9
imitation 9
immigrant 9
immigration 9
imp@@ 9
inappropriate 9
incidents 9
incorrect 9
incur@@ 9
indu@@ 9
inert 9
infamous 9
influential 9
ino@@ 9
instrumental 9
insulation 9
integral 9
inter-@@ 9
intersections 9
interstate 9
intestine 9
inversion 9
invitations 9
invites 9
ipods 9
iq 9
irish 9
itated 9
ith 9
jackie 9
jam@@ 9
jamaican 9
janine 9
janitors 9
jeremy 9
jew 9
josh 9
journeys 9
joys 9
js 9
juliet 9
jy 9
kaplan 9
kicking 9
kits 9
knocks 9
knowledgeable 9
kra@@ 9
lagos 9
landmines 9
laramie 9
lateral 9
latitude 9
lbs 9
ld 9
leaking 9
leaning 9
leg@@ 9
lemonade 9
lengths 9
lentils 9
lesion 9
lest 9
lettuce 9
levers 9
liars 9
libby 9
life-saving 9
lifestyles 9
limbic 9
limbs 9
limitless 9
linguistic 9
locate 9
lousy 9
low@@ 9
lucy 9
mach@@ 9
mafia 9
magnesium 9
maize 9
makeup 9
malawi 9
malleable 9
manure 9
marathons 9
marie 9
marijuana 9
marital 9
marketed 9
markings 9
marvelous 9
maslow 9
matthieu 9
maya 9
med@@ 9
median 9
mediated 9
medina 9
mediterranean 9
memes 9
mexicans 9
mically 9
microseconds 9
microwave 9
migrated 9
million-dollar 9
miner 9
mineral 9
mistrust 9
misunderstood 9
misuse 9
mite 9
mix@@ 9
mixes 9
moder@@ 9
modern-day 9
momentous 9
monks 9
moons 9
motel 9
mounted 9
movable 9
mozambique 9
mubarak 9
muffin 9
mur@@ 9
mutilated 9
mutilation 9
mutually 9
myhrvold 9
mystic 9
mystical 9
nan@@ 9
nanny 9
near-@@ 9
necessity 9
neglected 9
nevada 9
newcastle 9
newest 9
nicer 9
night@@ 9
noah 9
notebooks 9
nt 9
obtain 9
od@@ 9
off@@ 9
offline 9
oily 9
oli@@ 9
ols 9
om 9
ominous 9
one-on-one 9
one-to-one 9
one-two-three 9
oned 9
onion 9
open-heart 9
orangutans 9
orient 9
os@@ 9
otherness 9
outlet 9
outliers 9
outskirts 9
ovarian 9
overwhelmingly 9
oz 9
pajamas 9
paper@@ 9
paperwork 9
par 9
paternity 9
pathogens 9
patrick 9
paula 9
pauling 9
pear 9
peek 9
peel 9
peninsula 9
penn 9
persian 9
persuaded 9
petersburg 9
petrol 9
philips 9
pickle 9
picky 9
pins 9
pirates 9
plague 9
plaza 9
ple@@ 9
plugged 9
plugging 9
plunged 9
poignant 9
pointer 9
pointless 9
pol@@ 9
pope 9
pores 9
positioned 9
positives 9
powerfully 9
practitioners 9
predictability 9
preferably 9
preferred 9
presentations 9
pricing 9
pro-social 9
pronounced 9
prosperous 9
prostheses 9
prostitutes 9
proudly 9
provinces 9
proximity 9
proxy 9
psychiatry 9
psycho-social 9
pun@@ 9
quads 9
qualify 9
quicker 9
railroad 9
rain@@ 9
rainy 9
ranks 9
real-life 9
receivers 9
reception 9
recess 9
reciprocity 9
reckless 9
recorders 9
recovering 9
red-@@ 9
red@@ 9
rediscover 9
reformation 9
refuge 9
reg@@ 9
regarding 9
relying 9
removes 9
repeating 9
replicating 9
replication 9
requiring 9
resemble 9
resembles 9
reside 9
retrofitting 9
rever@@ 9
ri 9
ripe 9
ronald 9
rounds 9
ruler 9
rumi 9
run@@ 9
runway 9
rusty 9
sagmeister 9
samantha 9
sampled 9
savanna 9
savvy 9
sca@@ 9
scaffolding 9
scha@@ 9
scratching 9
sculptural 9
sea@@ 9
seasonal 9
secrecy 9
seductive 9
seeded 9
seeks 9
seized 9
selecting 9
self-help 9
sely 9
semen 9
seniors 9
sentenced 9
separating 9
serendipity 9
serenity 9
seth 9
sewage 9
shack 9
shareholders 9
shaw 9
shiny 9
shirky 9
shooter 9
show@@ 9
sidewalks 9
sies 9
sig@@ 9
simpson 9
simulator 9
singular 9
sit@@ 9
situated 9
sizing 9
skeletal 9
skepticism 9
skied 9
skinny 9
skydiving 9
skyscrapers 9
slammed 9
sleeps 9
sleeve 9
slows 9
sm@@ 9
sman 9
smartphones 9
snapshot 9
sno@@ 9
snowden 9
snuck 9
soar 9
soci@@ 9
sociologist 9
sociologists 9
sock 9
softly 9
solar-powered 9
sophia 9
sophistication 9
souls 9
sourced 9
sovereignty 9
spar@@ 9
spear 9
spoil 9
spoofer 9
sporting 9
spotlight 9
sse@@ 9
ssive 9
stamps 9
stark 9
starlight 9
starving 9
sten 9
stewardship 9
stin@@ 9
stirring 9
stor@@ 9
stran@@ 9
struggles 9
stun@@ 9
submarines 9
sucked 9
suicidal 9
summertime 9
superintendent 9
supernatural 9
supporters 9
suppression 9
surveyed 9
swa@@ 9
switching 9
synagogue 9
t-based 9
tages 9
tapes 9
taxi@@ 9
taxpayers 9
teammates 9
teddy 9
telecom 9
tempting 9
tended 9
th-@@ 9
thai 9
thir@@ 9
thunder 9
tickle 9
tides 9
tidy 9
tidying 9
tile 9
tioned 9
titanic 9
tizing 9
tle 9
toddler 9
toe 9
tone-deaf 9
toothpaste 9
torn 9
tors 9
towels 9
trachoma 9
transcendence 9
transitional 9
translations 9
transplants 9
tribunal 9
trinidad 9
trustworthy 9
tted 9
tter 9
tu 9
tulu 9
tunes 9
tunisian 9
turnover 9
tweeting 9
twit@@ 9
un 9
unchanged 9
uncles 9
unconventional 9
underlies 9
undersea 9
undoubtedly 9
unintended 9
unions 9
universality 9
universals 9
untie 9
uptake 9
ure 9
ures 9
utah 9
utilitarian 9
vegas 9
venom 9
venue 9
vert 9
vic@@ 9
victoria 9
viking 9
vin@@ 9
virgins 9
visibility 9
vity 9
vocational 9
void 9
volunteered 9
volunteering 9
vow 9
voyage 9
waf@@ 9
watch@@ 9
waterfront 9
weaknesses 9
weaving 9
wednesday 9
weir@@ 9
welcoming 9
wellness 9
whiskey 9
whistleblowers 9
wholesale 9
wikileaks 9
wisconsin 9
wiser 9
wished 9
withstand 9
wn 9
woo@@ 9
work-life 9
xi@@ 9
yang 9
yay 9
ye 9
yu@@ 9
zi@@ 9
ö@@ 9
ü@@ 9
-style 8
-time 8
.7 8
.org. 8
0.2 8
00-@@ 8
1-@@ 8
1.6 8
1.8 8
1000 8
14,000 8
16-year-old 8
1800 8
190@@ 8
1947 8
1963 8
1968 8
1969 8
1972 8
1977 8
1981 8
200@@ 8
2014 8
4th 8
5th 8
61 8
7.@@ 8
90,000 8
99.9 8
99.@@ 8
a.d. 8
aah 8
aboard 8
abra@@ 8
abri@@ 8
absorbed 8
absorbing 8
absorbs 8
aby@@ 8
accumulation 8
accustomed 8
ached 8
acidification 8
activates 8
ada 8
addictive 8
admission 8
admittedly 8
adrenaline 8
adventurous 8
adverse 8
adversity 8
aerodynamic 8
agreements 8
agu@@ 8
aha 8
ai 8
aimed 8
air-@@ 8
alexis 8
alibi 8
alien@@ 8
alliances 8
allocate 8
allosphere 8
alls 8
altering 8
amber 8
ambu@@ 8
ammonia 8
ampli@@ 8
amygdala 8
ances 8
ancestral 8
anchor 8
andes 8
anecdotes 8
announcement 8
antelope 8
antique 8
apathy 8
apo@@ 8
appointment 8
archae@@ 8
argu@@ 8
arguably 8
ariely 8
arm@@ 8
armpits 8
artifact 8
aspen 8
assist 8
ate@@ 8
atheism 8
atlas 8
atro@@ 8
attenu@@ 8
atu@@ 8
audible 8
augment 8
austrian 8
auto 8
awa@@ 8
awry 8
azerbaijan 8
b-@@ 8
babylonian 8
backstage 8
badge 8
bailout 8
bam 8
bandages 8
banker 8
barber 8
barbie 8
bathed 8
batman 8
battling 8
bayes 8
bbed 8
beams 8
beast 8
beatles 8
beau@@ 8
bed@@ 8
beforehand 8
belgium 8
benefiting 8
berners-lee 8
beta 8
bets 8
bidding 8
biennial 8
billionaire 8
billionth 8
biomaterial 8
bitten 8
black-and-white 8
blankets 8
blast 8
blinding 8
bloggers 8
bluegrass 8
blunt 8
boiled 8
booming 8
bose 8
bosses 8
bossy 8
bottleneck 8
boun@@ 8
bounds 8
br 8
brac@@ 8
brainstorms 8
brainwaves 8
braking 8
breadwinners 8
bred 8
bren@@ 8
brighter 8
brightest 8
brit@@ 8
brits 8
brow@@ 8
bruises 8
brutally 8
brute 8
bud@@ 8
bumblebee 8
bumblebees 8
bump 8
bundle 8
bureaucracy 8
bursting 8
buyers 8
buzz 8
candles 8
canoe 8
capitalists 8
carcasses 8
carolyn 8
carrots 8
catalo@@ 8
catalog 8
catches 8
celebrities 8
cements 8
cen@@ 8
censor 8
censored 8
centralized 8
cere@@ 8
cervical 8
cha 8
chambers 8
championships 8
change-@@ 8
chanting 8
chatting 8
chau@@ 8
cher@@ 8
chick 8
chimp 8
chin 8
cholesterol 8
chore@@ 8
chy 8
circulatory 8
circumstance 8
civilization-state 8
cky 8
claiming 8
classmates 8
clear-@@ 8
clearance 8
cleverly 8
cliche 8
clinicians 8
clustering 8
coaching 8
colon@@ 8
colonization 8
comet 8
commenting 8
commercially 8
common@@ 8
community-@@ 8
comparisons 8
competed 8
compiling 8
complications 8
composers 8
comprehension 8
con 8
concluded 8
conditioned 8
conquered 8
consultant 8
cookbook 8
cooled 8
corps 8
counsel 8
counselor 8
crabs 8
crappy 8
crimin@@ 8
critique 8
crony 8
cross-border 8
cross@@ 8
crucially 8
cruzeiro 8
ctors 8
cular 8
cunning 8
curitiba 8
cyberattacks 8
cyborg 8
dai 8
data-driven 8
daunting 8
davis 8
dealer 8
deceived 8
decompiculture 8
decre@@ 8
dedicate 8
defenses 8
degrade 8
del@@ 8
democratization 8
democratize 8
demolition 8
denisovans 8
deposit 8
depositing 8
descendants 8
descended 8
desired 8
dest 8
detached 8
devoted 8
diagnoses 8
dictated 8
dilemmas 8
dilute 8
dine 8
diplomatic 8
diplomats 8
disa@@ 8
disadvantage 8
discard 8
disciplined 8
disp@@ 8
disparity 8
disputes 8
dissolve 8
distort 8
divers 8
diy 8
dog@@ 8
donna 8
doomed 8
doorstep 8
downs 8
drawer 8
drawers 8
drifted 8
droplet 8
dru@@ 8
duh 8
durga 8
dusty 8
dvds 8
dynam@@ 8
dyslexic 8
eagles 8
earth-like 8
ebert 8
ec@@ 8
edison 8
effortlessly 8
eleanor 8
elect 8
elevators 8
ell 8
ellen 8
emailing 8
emits 8
emitting 8
employers 8
ena 8
enact 8
encoder 8
ene 8
enne 8
episodes 8
ere@@ 8
eri@@ 8
erik 8
ess 8
eth@@ 8
ethanol 8
execute 8
exo@@ 8
exquisitely 8
extensively 8
externalities 8
extroverts 8
eye@@ 8
eyebrow 8
factual 8
fai@@ 8
fates 8
fatigue 8
fats 8
feasibility 8
feasible 8
feather 8
featuring 8
fer 8
fertile 8
ffing 8
ffs 8
fications 8
fine-@@ 8
fisherman 8
fitted 8
five-year 8
fix@@ 8
flapping 8
flashes 8
flavors 8
flick 8
flickr 8
fluorescence 8
flush 8
fly@@ 8
fol@@ 8
fon@@ 8
foot-@@ 8
foot@@ 8
forbes 8
forecast 8
foreigners 8
forensic 8
forgery 8
forging 8
formulate 8
forty 8
fossils 8
fowler 8
fragility 8
free@@ 8
freezes 8
freshman 8
fright 8
fronts 8
fry 8
fu 8
fulness 8
gad@@ 8
garment 8
gateway 8
geneva 8
geniuses 8
gens 8
geologists 8
gi 8
gies 8
giffords 8
gladwell 8
glaze 8
god@@ 8
good-looking 8
gould 8
graceful 8
graders 8
gradual 8
grail 8
grandfathers 8
grandson 8
grasses 8
gravit@@ 8
greenpeace 8
greeted 8
grow@@ 8
guests 8
handshake 8
hangers 8
hardworking 8
hare 8
harmed 8
harnessing 8
harsh 8
harvested 8
harvey 8
head-@@ 8
hear@@ 8
helix 8
hells 8
hemispheres 8
hh 8
hides 8
high-end 8
high-performance 8
highlights 8
hil@@ 8
hillside 8
hippie 8
hispanic 8
hn 8
hoffman 8
holder 8
hollow 8
homage 8
hon@@ 8
horizons 8
horrified 8
hospitality 8
hosting 8
hottest 8
houston 8
hs 8
hubs 8
humidity 8
humpback 8
hunted 8
hurting 8
hype 8
i.@@ 8
idiots 8
idle 8
illuminating 8
illustrations 8
immunized 8
impatient 8
implementing 8
impressions 8
inal 8
inde@@ 8
indicator 8
indulge 8
ine-@@ 8
inertia 8
inf@@ 8
inherit 8
inhibited 8
initiate 8
initiated 8
innocence 8
inquiry 8
inserted 8
insignificant 8
installing 8
insul@@ 8
intellectuals 8
interconnections 8
interdependence 8
intermediate 8
interplay 8
interpreting 8
invading 8
inward 8
iowa 8
ipcc 8
isaac 8
isabel 8
ises 8
isolate 8
itable 8
itunes 8
ium 8
jack@@ 8
jacques 8
ji 8
jm 8
jolly 8
jordans 8
jose 8
junction 8
kaaba 8
kant 8
kat@@ 8
kening 8
kerry 8
kets 8
kicks 8
kid@@ 8
kilogram 8
kinder 8
kipp 8
kit@@ 8
kles 8
knight 8
lakshmi 8
lamps 8
lan 8
lang 8
lated 8
lations 8
laureate 8
lauren 8
lb 8
leash 8
legged 8
lend 8
lent 8
leveraged 8
li 8
liber@@ 8
liberate 8
licensed 8
licklider 8
lid 8
light-@@ 8
liqui@@ 8
lithium 8
loading 8
loaf 8
lock@@ 8
lollipop 8
loneliness 8
long-distance 8
low-level 8
lowered 8
lp 8
lumber 8
lyn@@ 8
lynn 8
majesty 8
makoko 8
mani@@ 8
manya 8
mar 8
marble 8
marching 8
marcus 8
martha 8
marx 8
massage 8
mastered 8
masterpiece 8
mathematically 8
mbles 8
mccain 8
mcluhan 8
medals 8
mediate 8
mega-@@ 8
mel 8
meme 8
mentation 8
mentors 8
merged 8
merging 8
meritocratic 8
messenger 8
metaphorically 8
meteorite 8
meyer 8
mic@@ 8
michel 8
micro 8
microrna 8
migrating 8
milestone 8
millionaire 8
minated 8
mind@@ 8
mindless 8
misses 8
mitigate 8
mobilize 8
modernism 8
modernity 8
monarchy 8
mons 8
monuments 8
morocco 8
mortal 8
mot@@ 8
moth 8
mother-in-law 8
mother@@ 8
motions 8
motives 8
mounting 8
mourn 8
mucus 8
multicultural 8
multidisciplinary 8
multiplied 8
mush 8
mycorrhiza 8
nancy 8
nanotechnology 8
nau@@ 8
naughty 8
negatively 8
networked 8
nfl 8
ni 8
nicole 8
ninja 8
nirvana 8
nixon 8
nomadic 8
non-governmental 8
nonprofits 8
nonverbal 8
norse 8
not-@@ 8
not-so-@@ 8
nudge 8
nursery 8
nutshell 8
objectives 8
observable 8
ological 8
ometer 8
omg 8
onics 8
oo@@ 8
operational 8
oppressed 8
oranges 8
orchest@@ 8
ordinarily 8
orkut 8
ornish 8
ottoman 8
outbreaks 8
outdoors 8
outgoing 8
outs 8
outweigh 8
overlapping 8
packets 8
palin 8
panicked 8
paradoxically 8
part-time 8
passively 8
pastor 8
payback 8
peer-to-peer 8
pellets 8
percy 8
perfume 8
periodically 8
persistence 8
person@@ 8
phil 8
philanthropic 8
phosp@@ 8
picnic 8
pictured 8
pigeons 8
piled 8
pinker 8
pioneered 8
pis@@ 8
pitches 8
pivotal 8
planners 8
plantation 8
plat@@ 8
plausible 8
plo@@ 8
plumbing 8
pluripotent 8
podium 8
poetic 8
poli@@ 8
politely 8
pollock 8
polluted 8
poo 8
popu@@ 8
pornography 8
portfolio 8
postcard 8
pottery 8
pr 8
pranav 8
preceding 8
precipice 8
preconceived 8
precursor 8
predominantly 8
pres@@ 8
prescribed 8
presidents 8
pretzels 8
preventive 8
preview 8
prin@@ 8
princess 8
printers 8
prints 8
prism 8
prof@@ 8
projecting 8
proliferation 8
promoted 8
propensity 8
protestant 8
protocols 8
provoked 8
psychiatrists 8
pumped 8
puppies 8
pups 8
pursued 8
quake 8
questionable 8
quixote 8
ranch 8
randolph 8
randomized 8
rationally 8
real@@ 8
rebellion 8
recipient 8
recommendations 8
reconstructed 8
recruiting 8
recurring 8
redesigning 8
regeneration 8
regulated 8
rejuvenation 8
reliability 8
remittance 8
remorse 8
repetition 8
repetitive 8
repository 8
residual 8
resigned 8
resisted 8
respectable 8
restless 8
reversed 8
ridden 8
rides 8
ridiculously 8
righting 8
riot 8
rip@@ 8
ris@@ 8
robbery 8
rodent 8
rodeo 8
rotates 8
rotting 8
rough@@ 8
rub 8
ruling 8
s-based 8
s. 8
saddam 8
safest 8
saltwater 8
sapiens 8
sars 8
saunders 8
scaffolds 8
scal@@ 8
scanners 8
schizophrenic 8
school@@ 8
scrap 8
scraping 8
scribble 8
scrutiny 8
scu@@ 8
scum 8
seated 8
seating 8
segregated 8
self-portrait 8
sensations 8
separately 8
sequest@@ 8
serra 8
sesame 8
sever@@ 8
sha 8
shaky 8
shaved 8
sher@@ 8
shines 8
shirts 8
short-@@ 8
short@@ 8
shreddies 8
shuts 8
shutter 8
sible 8
signatures 8
sinking 8
skeletons 8
skulls 8
skyscraper 8
slaughtered 8
sleepy 8
sling 8
slipped 8
smiley 8
sof@@ 8
sofa 8
some@@ 8
someplace 8
sony 8
soundscapes 8
soundtrack 8
spears 8
specialization 8
specificity 8
specimen 8
specimens 8
spir@@ 8
spirits 8
sponsors 8
squirt 8
stab 8
stain 8
stan 8
startup 8
stellar 8
stimuli 8
stre@@ 8
stretching 8
sub 8
submersible 8
subsequent 8
subsidies 8
sufi 8
summed 8
summers 8
sunni 8
suns 8
superficial 8
surrender 8
suspend 8
suspense 8
sw@@ 8
swear 8
sweating 8
swine 8
swings 8
switches 8
symbiotic 8
symbo@@ 8
tai@@ 8
take-home 8
tapeworm 8
tasting 8
tata 8
tate 8
tender 8
texted 8
textures 8
thatcher 8
theaters 8
theatre 8
theoretically 8
thered 8
thermodynamics 8
thic@@ 8
thickness 8
thought-controlled 8
thumb-wrestling 8
ticking 8
til@@ 8
tinker 8
tioning 8
tism 8
tobago 8
toby 8
torosaurus 8
toss 8
tourism 8
tracker 8
trafficking 8
transaction 8
translators 8
transmitting 8
transplantation 8
travelers 8
trivia 8
troublemaker 8
truce 8
tt@@ 8
tting 8
tucson 8
turbo 8
tus 8
twists 8
tying 8
uc 8
umar 8
umbrella 8
unacceptable 8
underestimated 8
undermining 8
underwent 8
unethical 8
unfolding 8
unicef 8
unleashed 8
unnatural 8
unto 8
untold 8
unwanted 8
uprising 8
urban@@ 8
urges 8
uri 8
usain 8
user-@@ 8
uterus 8
utopian 8
va 8
vaccinate 8
vapor 8
ve-@@ 8
vel@@ 8
vi 8
viagra 8
victor 8
vila 8
visits 8
waiter 8
warmed 8
warps 8
wastes 8
wears 8
weave 8
whe@@ 8
wicked 8
width 8
wig 8
wiki 8
wildly 8
wong 8
word@@ 8
working-class 8
workplaces 8
world-@@ 8
woven 8
wrestling 8
writings 8
yahoo 8
yawn 8
yer 8
yin 8
yorkers 8
za 8
ze@@ 8
zero-@@ 8
í@@ 8
&apos;s-eye 7
,0@@ 7
-making 7
01 7
1,0@@ 7
1,800 7
100-@@ 7
120,000 7
14th 7
16-@@ 7
18-year-old 7
185 7
1920s 7
1926 7
1940 7
1948 7
1953 7
1954 7
1974 7
200-@@ 7
20th-century 7
4.6 7
40@@ 7
45-@@ 7
66 7
7-year-old 7
700,000 7
73 7
747 7
7th 7
ables 7
abortion 7
aca@@ 7
accelerometer 7
accepts 7
accomplishments 7
accor@@ 7
accord 7
accountant 7
acorn 7
adams 7
adaptability 7
adaptable 7
adaptations 7
addict 7
admitting 7
ado@@ 7
adri@@ 7
advertise 7
advisor 7
advocates 7
aff@@ 7
affair 7
affordability 7
afforded 7
after@@ 7
afterglow 7
age-related 7
agile 7
agonizing 7
ahmedabad 7
airborne 7
airstrip 7
alabama 7
albums 7
aled 7
align 7
alities 7
allende 7
aller@@ 7
alleviate 7
alligator 7
allu@@ 7
alpha@@ 7
alternate 7
alto 7
altruist 7
ambi@@ 7
ami 7
amplify 7
amyloid-beta 7
analyses 7
analysts 7
ancestry 7
angel 7
angela 7
animator 7
antidepressants 7
app@@ 7
appe@@ 7
appealed 7
approximation 7
arch 7
archer 7
archetype 7
arrays 7
ascending 7
ases 7
aspirational 7
asthmatic 7
astonished 7
astronomer 7
at-@@ 7
ati 7
atively 7
atrocities 7
auction 7
audacity 7
augmentation 7
australians 7
author@@ 7
authorized 7
avoidance 7
avoided 7
aw 7
babbage 7
bac@@ 7
backing 7
bald 7
balinese 7
ballroom 7
banal 7
barbaria 7
barcelona 7
barren 7
bart 7
batter@@ 7
bau@@ 7
be-@@ 7
beers 7
beijerinck 7
bel 7
believer 7
believers 7
benchmark 7
bergen 7
bernard 7
bert 7
best-selling 7
betra@@ 7
betty 7
bhar@@ 7
bic 7
big-@@ 7
bilingual 7
binding 7
binds 7
bio 7
biofuels 7
biologic 7
biomedical 7
bird@@ 7
births 7
blades 7
blender 7
blending 7
blin@@ 7
blinking 7
blon@@ 7
bloodshed 7
blueprints 7
bmw 7
bodied 7
bon 7
boomers 7
boredom 7
bothers 7
bradley 7
braille 7
brand-new 7
brass 7
breaker 7
breathed 7
breathtaking 7
breeze 7
brenda 7
brent 7
bron@@ 7
bruno 7
brussels 7
buck@@ 7
bud 7
budapest 7
buddhas 7
buffer 7
buffett 7
built-in 7
bully 7
burnt 7
bush@@ 7
bushes 7
byproducts 7
cab@@ 7
cabinets 7
call@@ 7
camer@@ 7
campaig@@ 7
camping 7
canals 7
canning 7
capillary 7
capri@@ 7
capsule 7
caregiving 7
carroças 7
cartel 7
carve 7
cassava 7
casts 7
catcher 7
categor@@ 7
caterpillar 7
cavalry 7
cellu@@ 7
celsius 7
ceramics 7
cers 7
cesar 7
chaired 7
chalk 7
champions 7
chandler 7
changer 7
chatter 7
cheapest 7
cheeks 7
chemistries 7
chers 7
chew 7
childbirth 7
chimborazo 7
chopin 7
chopped 7
chronically 7
chunks 7
churn 7
circling 7
circus 7
cit@@ 7
citations 7
claes 7
clari@@ 7
clarke 7
claus 7
clones 7
close-up 7
clustered 7
cockroaches 7
coconut 7
coercion 7
coincidentally 7
colder 7
colonial 7
combustion 7
comedians 7
comfortably 7
comforting 7
commissioner 7
commitments 7
committing 7
commuting 7
complaint 7
completing 7
compli@@ 7
compliance 7
compromised 7
conceive 7
condemned 7
confer 7
confirmation 7
conjunction 7
consecutive 7
constitu@@ 7
constituency 7
constitute 7
constraint 7
consumerism 7
contemplate 7
contempt 7
contested 7
contextual 7
contingent 7
contours 7
contradiction 7
contributes 7
conversational 7
conversion 7
convictions 7
cooperating 7
correlations 7
corresponding 7
cosmopolitan 7
cost-benefit 7
costumes 7
crafting 7
cran@@ 7
crate 7
crayons 7
crocodile 7
cross-section 7
cryo@@ 7
ctive 7
ctor 7
cultured 7
curing 7
curl 7
currents 7
curtis 7
cut@@ 7
cy 7
cyber@@ 7
cybercrime 7
cynical 7
daisy 7
dared 7
daring 7
darling 7
dat@@ 7
day-@@ 7
dding 7
ddle 7
deadline 7
decorated 7
decreasing 7
deemed 7
defe@@ 7
definitive 7
delicacy 7
deluge 7
delusions 7
demolished 7
dependencies 7
dependency 7
depleted 7
dereck 7
deri@@ 7
destroys 7
devi@@ 7
diabetic 7
diagnostics 7
diane 7
diapers 7
diaspora 7
dic 7
dietrich 7
differentiated 7
diffu@@ 7
din@@ 7
dini 7
diploma 7
diplomat 7
dir@@ 7
disagreement 7
disappoint 7
discount 7
discusses 7
displaying 7
dissect 7
dissolved 7
distill 7
divinity 7
divisions 7
dle 7
dled 7
dles 7
dmca 7
doable 7
documentation 7
dogmas 7
dolls 7
door@@ 7
dop@@ 7
dor 7
dotted 7
doubling 7
dow 7
dr@@ 7
dra 7
dracorex 7
dream@@ 7
drip 7
drop-@@ 7
drug-resistant 7
dt 7
durable 7
durkheim 7
dy-@@ 7
earle 7
earth@@ 7
easter 7
ecstasy 7
eddy 7
edwards 7
egos 7
elation 7
elbow 7
ele@@ 7
electri@@ 7
electrolux 7
eliot 7
ely 7
emb@@ 7
embark 7
emit 7
empathize 7
endowment 7
ene@@ 7
energized 7
enforced 7
engelbart 7
english-speaking 7
enjoys 7
ensemble 7
ensuring 7
entertained 7
ephemeral 7
epilepsy 7
epoxy 7
erasing 7
ero 7
evaporates 7
evenly 7
evoke 7
excel 7
exclude 7
exploiting 7
exterior 7
eyed 7
eyesight 7
f-@@ 7
face@@ 7
facilitate 7
facilitated 7
faded 7
fantasies 7
faucet 7
feces 7
feder@@ 7
fers 7
fertilize 7
fetal 7
fiddle 7
fide 7
fildes 7
firewall 7
fischeri 7
fists 7
flashy 7
fleeting 7
floats 7
fluctuation 7
fluidity 7
fooling 7
for-@@ 7
foragers 7
foreseeable 7
forestry 7
formulation 7
forty-@@ 7
forums 7
fourteen 7
frankie 7
fraternal 7
frees 7
frost 7
frustrations 7
ft. 7
fts 7
fudge 7
fulfill 7
full-scale 7
fun@@ 7
fuss 7
g.@@ 7
g20 7
gadgets 7
galleries 7
gallup 7
gamer 7
gastric 7
gathers 7
gating 7
gau@@ 7
geeky 7
gel@@ 7
gelatin 7
generalize 7
generative 7
generators 7
geneticists 7
gentler 7
geoff 7
geometric 7
ger-@@ 7
giraffe 7
girlfriends 7
gis 7
gle@@ 7
gluten 7
goldilocks 7
goldman 7
googled 7
googlers 7
gossip 7
gothic 7
gourmet 7
gracefully 7
grandiose 7
graphically 7
greener 7
greens 7
greenville 7
gri@@ 7
grind 7
grizzly 7
grove 7
grueling 7
gupta 7
gus 7
haidt 7
harmless 7
harnessed 7
harriet 7
hatch 7
hates 7
hawaiian 7
headset 7
hectares 7
heidi 7
heightened 7
heli@@ 7
hertz 7
hic@@ 7
high-power 7
highest-@@ 7
highways 7
hike 7
hillary 7
hit@@ 7
holidays 7
holiness 7
hollowed 7
homer 7
hoo 7
hopelessness 7
horns 7
hose 7
hostage 7
hosted 7
hou@@ 7
housework 7
hubble 7
hulk 7
human-computer 7
humanize 7
humanizing 7
humiliation 7
hunch 7
huntington 7
hydr@@ 7
hyperbole 7
i-@@ 7
ial 7
ibuprofen 7
igbo 7
illegally 7
illuminate 7
ima 7
imaginable 7
immersive 7
impending 7
imper@@ 7
implicit 7
import 7
imported 7
imprisoned 7
imprisonment 7
inception 7
incompatible 7
incorporating 7
indefinitely 7
indifferent 7
individuality 7
infused 7
ington 7
inhal@@ 7
ini@@ 7
inks 7
innovating 7
inputs 7
inse@@ 7
inspires 7
instagram 7
insti@@ 7
instinctive 7
int@@ 7
intelligently 7
intensely 7
interpreter 7
introverted 7
involuntary 7
ip 7
ire 7
irregular 7
irrespective 7
irs 7
islamism 7
ities 7
ivy 7
j. 7
janeiro 7
japanese-americans 7
jarrett 7
javascript 7
jelly 7
jol@@ 7
jose@@ 7
juicy 7
justi@@ 7
kar 7
karachi 7
karate 7
kidnapped 7
kinetic 7
kingly 7
kinsey 7
knots 7
knuck@@ 7
kobe 7
krill 7
kung 7
kur@@ 7
kurzweil 7
kuwait 7
kuznets 7
labeling 7
lace 7
lacked 7
ladenism 7
lapse 7
latent 7
lau@@ 7
laughs 7
laundering 7
leap@@ 7
learner 7
leaven 7
left-handed 7
leopards 7
less-@@ 7
lessness 7
lester 7
leukemia 7
leveled 7
librarians 7
licenses 7
life-changing 7
life-threatening 7
lim@@ 7
listeners 7
listing 7
lively 7
lizing 7
lli@@ 7
lobbyists 7
locke 7
locu@@ 7
logy 7
lom@@ 7
longer-term 7
loosely 7
lor@@ 7
losers 7
lotto 7
low-power 7
luminous 7
lure 7
luria 7
lust 7
luton 7
m-pesa 7
macintosh 7
macro 7
macro-@@ 7
madison 7
madrid 7
magicians 7
mah@@ 7
maid 7
maidan 7
mailbox 7
malarial 7
malicious 7
mammograms 7
manageable 7
mandate 7
manju 7
marches 7
marginalized 7
marilyn 7
marin@@ 7
marketer 7
marketers 7
marking 7
mason 7
maths 7
matri@@ 7
mau 7
mbling 7
mcmurdo 7
measles 7
mega@@ 7
megafauna 7
mena 7
menting 7
merit 7
meta-@@ 7
meta@@ 7
mia 7
microblogging 7
microscopes 7
mid- 7
middle-@@ 7
mildly 7
minating 7
mindful 7
mindfulness 7
miranda 7
missionary 7
mobi@@ 7
modeled 7
modu@@ 7
mohamed 7
moi 7
molding 7
monica 7
monochro@@ 7
month-old 7
motivators 7
motor@@ 7
multiplayer 7
multiplication 7
municipal 7
mute 7
nagging 7
nailed 7
nano@@ 7
nat@@ 7
natalie 7
navy 7
neatly 7
neck@@ 7
negotiable 7
negotiated 7
neo@@ 7
neocortical 7
nesting 7
neutrality 7
newborn 7
newtonian 7
niche 7
nicolas 7
nies 7
ninety-@@ 7
non-visual 7
normality 7
northeast 7
northeastern 7
noses 7
notices 7
notwithstanding 7
noun 7
nudges 7
nurtured 7
ny@@ 7
o.@@ 7
o2 7
oak 7
oasis 7
obliged 7
observers 7
occupations 7
occupying 7
oculus 7
offense 7
ography 7
old-growth 7
oldenburg 7
ologists 7
ona 7
one-hour 7
oneness 7
oney 7
onic 7
ony 7
oper@@ 7
opium 7
opponent 7
opponents 7
opt 7
opted 7
ora 7
orbital 7
orchid 7
organizes 7
osa@@ 7
otaku 7
other@@ 7
outlines 7
outraged 7
outsource 7
outstanding 7
ov@@ 7
overly 7
owning 7
p.@@ 7
pa 7
pac-man 7
pad@@ 7
palmer 7
papercutting 7
parable 7
paranoid 7
parasitic 7
parody 7
parrot 7
patches 7
patel 7
pavement 7
peacefully 7
peaked 7
pediatrician 7
pee 7
peer-reviewed 7
perfected 7
perfection 7
perimeter 7
peripheral 7
persona 7
personalization 7
persuading 7
persuasion 7
pesticide 7
phillips 7
phoned 7
phy 7
phy@@ 7
pickles 7
pie@@ 7
pierre 7
pilgrimage 7
pillar 7
piracy 7
pitched 7
plaster 7
plasticity 7
playstation 7
pleasurable 7
pled 7
pling 7
plots 7
plumes 7
plutocracy 7
poised 7
poisonous 7
polarization 7
polit@@ 7
pollute 7
ponder 7
porridge 7
portland 7
pouch 7
power@@ 7
pra@@ 7
prairie 7
prayers 7
preconceptions 7
predicated 7
predictably 7
prehistoric 7
presses 7
prevailing 7
prevalent 7
prickly 7
pristine 7
privatization 7
probable 7
proceeds 7
processors 7
procrastin@@ 7
prominent 7
promotes 7
proportions 7
protections 7
provisions 7
psa 7
psychic 7
psycho@@ 7
psychologically 7
pumping 7
pun 7
purity 7
python 7
quad@@ 7
quantify 7
quarries 7
query 7
questionnaire 7
queues 7
quieter 7
quoting 7
rab@@ 7
raced 7
ragu 7
randi 7
ranked 7
ranking 7
raping 7
rca 7
read@@ 7
rear 7
reared 7
recap 7
recipients 7
recklessness 7
reclaimed 7
recommended 7
recordings 7
reframe 7
refu@@ 7
regre@@ 7
rehearsal 7
rein@@ 7
relating 7
relieved 7
remark 7
remedy 7
renamed 7
rented 7
repairing 7
replacements 7
rer 7
residue 7
resurrection 7
retailers 7
rethinking 7
reviewing 7
revolving 7
rewilding 7
rex 7
rhode 7
rica 7
ridicule 7
ridiculed 7
ried 7
ries 7
ripping 7
risk-@@ 7
risked 7
risking 7
rita 7
roach 7
road@@ 7
robbie 7
rocke@@ 7
rocky 7
rons 7
rooftops 7
rotation 7
ruby 7
rude 7
rung 7
sab@@ 7
sachs 7
sacks 7
sacrificed 7
sage 7
sailed 7
sailing 7
sally 7
salute 7
sameness 7
sanctity 7
sand@@ 7
sandstone 7
sati@@ 7
scen@@ 7
schemes 7
scop@@ 7
scored 7
scot@@ 7
scrambling 7
screen@@ 7
scriptures 7
scrubs 7
scuba 7
sculpt 7
sec 7
second-@@ 7
secre@@ 7
seismic 7
seizures 7
self-organization 7
self-organizing 7
seligman 7
sensi@@ 7
sensor@@ 7
sentencing 7
sergeant 7
settlers 7
shaft 7
shaman 7
shephelah 7
sher 7
shield 7
shin@@ 7
shipyard 7
shoreline 7
shortest 7
shredder 7
sickness 7
sim 7
simplification 7
simulations 7
sine 7
sisyphus 7
slang 7
smash 7
smoked 7
smoothly 7
smuggled 7
snack 7
sneakers 7
snow@@ 7
sobering 7
socrates 7
solar-electrified 7
solely 7
solidarity 7
sorrow 7
sou@@ 7
sound@@ 7
soundscape 7
sparked 7
sparkling 7
sparks 7
spelling 7
spider-man 7
spins 7
spongy 7
sprint 7
sprinter 7
spur@@ 7
squeezing 7
squirrel 7
staple 7
stared 7
stares 7
statisticians 7
ste 7
steeped 7
stereotypical 7
steri@@ 7
stern 7
sticker 7
stink 7
stling 7
stool 7
straigh@@ 7
strawberry 7
straws 7
streamed 7
stress-@@ 7
stripes 7
stripping 7
striving 7
stubborn 7
submarine 7
subtly 7
succeeds 7
sucking 7
sufficiently 7
suffo@@ 7
sughar 7
supervision 7
supplied 7
suppliers 7
sushi 7
suspension 7
suspicion 7
sutherland 7
suzanne 7
swallow 7
swaptree 7
swarm 7
swarms 7
sweat@@ 7
swee@@ 7
swi@@ 7
swims 7
symmetrical 7
sympathetic 7
synonymous 7
synthesized 7
syringes 7
são 7
tablets 7
tactical 7
tains 7
tal 7
tally 7
tapping 7
tasty 7
tation 7
teachings 7
teamed 7
technologically 7
technologist 7
teen@@ 7
telegraph 7
televisions 7
temper 7
temples 7
tempo 7
tempt 7
terrestrial 7
terry 7
textiles 7
thanked 7
thanking 7
thee 7
theorist 7
therapeutic 7
therapists 7
thermo@@ 7
thesis 7
thicker 7
thor@@ 7
thorough 7
thousandth 7
thri@@ 7
thumb@@ 7
thunder@@ 7
thyself 7
time-consuming 7
timely 7
tires 7
tis 7
tish 7
titan 7
titanium 7
titans 7
tivo 7
tm 7
tncs 7
tombstone 7
top-@@ 7
torvalds 7
tory 7
tossed 7
touring 7
toxo 7
trade-offs 7
tradeoffs 7
transcendent 7
transfers 7
transitions 7
traps 7
traumatized 7
treatable 7
treaty-based 7
trending 7
tripled 7
tuning 7
turbulence 7
turmoil 7
twain 7
tweak 7
twenty-five 7
two-digit 7
typography 7
tyranny 7
ums 7
unanswered 7
uncommon 7
uncovered 7
underside 7
underutilized 7
underwear 7
undu@@ 7
unesco 7
unfolds 7
unilever 7
unites 7
unreliable 7
untapped 7
untouched 7
unveils 7
upper-@@ 7
upsetting 7
urbanism 7
usb 7
usc 7
utero 7
utopia 7
vac@@ 7
val 7
valdez 7
validated 7
vanilla 7
vanity 7
variant 7
variants 7
veg 7
velcro 7
vering 7
vest 7
vian 7
vibrational 7
vibrio 7
vic 7
vik 7
villagers 7
vincent 7
vine 7
vings 7
vitamins 7
voc@@ 7
voila 7
volcanic 7
vy 7
wag@@ 7
waits 7
walter 7
wang 7
war-torn 7
warriors 7
washes 7
wasteful 7
webpage 7
weights 7
well-intentioned 7
well-meaning 7
wheel@@ 7
white@@ 7
wholly 7
wildest 7
wingspan 7
wonder@@ 7
workings 7
wraps 7
wrong@@ 7
x-axis 7
xed 7
xen@@ 7
yan 7
yearly 7
yell 7
yellowstone 7
yielded 7
yuck 7
z. 7
zach 7
zambia 7
zero-sum 7
zinc 7
zodiac 7
ä@@ 7
è@@ 7
# 6
% 6
&apos;am 6
-in 6
.c. 6
0,000-@@ 6
0-year-old 6
0.8 6
1,300 6
13,000 6
14-year-old 6
1500 6
1879 6
1910 6
1930 6
1959 6
2016 6
2100 6
21@@ 6
25th 6
3-minute 6
30-day 6
32,000 6
350,000 6
36,000 6
4shbab 6
5,000-@@ 6
5,@@ 6
5.@@ 6
650 6
80-year-old 6
9,@@ 6
99@@ 6
abolish 6
absorption 6
absur@@ 6
abu@@ 6
acade@@ 6
acceler@@ 6
accelerator 6
accents 6
accessing 6
ache@@ 6
acidic 6
acity 6
acoustici@@ 6
acoustics 6
acrylic 6
acy 6
ade 6
administrator 6
adop@@ 6
adver@@ 6
advert 6
advertisers 6
advi@@ 6
advised 6
aeronau@@ 6
affection@@ 6
affir@@ 6
afghans 6
african-americans 6
afterlife 6
aga 6
agendas 6
ager 6
agnostic 6
agribusiness 6
aicha 6
aired 6
aj 6
aks 6
alain 6
alg@@ 6
allan 6
allegedly 6
altitudes 6
ama 6
amazement 6
ambassadors 6
ambient 6
ambitions 6
ami@@ 6
ammunition 6
amplification 6
amputation 6
amputee 6
amputees 6
amusement 6
angola 6
angst 6
annie 6
announ@@ 6
annually 6
ano 6
anomalies 6
anth@@ 6
antonio 6
aortic 6
apocalypse 6
apophis 6
applaud 6
appliance 6
applicable 6
appropri@@ 6
aquatic 6
arenas 6
arguer 6
aristocracy 6
aristotelian 6
arity 6
arnold 6
arresting 6
arrests 6
arrogance 6
artful 6
arthritis 6
articulated 6
artillery 6
ascen@@ 6
ashdown 6
aspir@@ 6
assertive 6
assimil@@ 6
assu@@ 6
asy@@ 6
asym@@ 6
ata 6
aters 6
atkins 6
attenborough 6
ature 6
aurochs 6
auschwitz 6
austin 6
autobiography 6
autonomously 6
avail 6
aval@@ 6
avant-garde 6
avelile 6
awakening 6
awfully 6
b.@@ 6
baby@@ 6
babysit@@ 6
bachelor 6
back-up 6
baghdad 6
bai@@ 6
bailouts 6
bal 6
balconies 6
ballistics 6
bam@@ 6
band-tailed 6
band@@ 6
bandstand 6
bangs 6
barbaric 6
barbecue 6
barbed 6
barbs 6
barry 6
bartok 6
battle@@ 6
bayesian 6
bber 6
beatrice 6
beg@@ 6
behar 6
bei@@ 6
benoit 6
bernoulli 6
berries 6
beth 6
beware 6
bibles 6
bieber 6
bingo 6
biochemistry 6
biodegradable 6
biodegrade 6
biofabrication 6
biopsy 6
birdsong 6
birmingham 6
bitcoin 6
blakley 6
blanc 6
bles 6
bloodstream 6
blueprint 6
bluetooth 6
blurry 6
boar 6
boeing 6
bolivia 6
borges 6
bosch 6
bosni@@ 6
botanical 6
bottlenecks 6
bou@@ 6
bounces 6
bouncing 6
brainstorm 6
breadth 6
brewers 6
bribed 6
brigade 6
brin 6
brittle 6
broker 6
brooks 6
bruised 6
buckets 6
buffet 6
bull@@ 6
bullshit 6
bumping 6
bundy 6
buoy@@ 6
bureaucrats 6
burkina 6
burn@@ 6
burrow 6
butler 6
byproduct 6
cab 6
cafes 6
cakes 6
calam@@ 6
calcutta 6
calibrated 6
calorie 6
calves 6
cam@@ 6
cambodian 6
camil@@ 6
camouflage 6
cams 6
canadians 6
canary 6
canceled 6
cannibals 6
canyons 6
capgras 6
capitol 6
caribou 6
carmen 6
carpen@@ 6
carriers 6
carson 6
carton 6
carving 6
catar@@ 6
cator 6
cau@@ 6
caution 6
cave@@ 6
caviar 6
celebrates 6
cellphones 6
cephalo@@ 6
cess@@ 6
championship 6
chant 6
chemically 6
cheval 6
chiefs 6
chim@@ 6
chla@@ 6
choked 6
choking 6
chords 6
choreographer 6
christianity 6
cil@@ 6
cir@@ 6
city-@@ 6
civilizational 6
cke@@ 6
cken 6
claron 6
class@@ 6
cleans 6
clear@@ 6
cliché 6
climate-@@ 6
clinging 6
clockwise 6
closeness 6
co-opt 6
coached 6
coalitions 6
coating 6
cocoa 6
code@@ 6
coffeehouse 6
coherence 6
coils 6
cold-@@ 6
coldest 6
coleridge 6
coli 6
collateral 6
collisions 6
collusion 6
colonized 6
com 6
comb@@ 6
combinatorial 6
comman@@ 6
commodi@@ 6
communi@@ 6
communicable 6
communicators 6
companions 6
compares 6
compensated 6
compiled 6
complaints 6
completion 6
compliant 6
compliment 6
compose 6
composites 6
compre@@ 6
compression 6
computer-generated 6
conceived 6
condensed 6
conducts 6
cone 6
congressman 6
connectedness 6
conquering 6
consisted 6
console 6
constructing 6
containment 6
contaminate 6
contr@@ 6
contraceptives 6
contractors 6
contradictions 6
cools 6
coordinates 6
coordinating 6
coping 6
copy@@ 6
corn@@ 6
coronary 6
corrosive 6
cosmological 6
counterpart 6
cow@@ 6
coward 6
cox 6
cozy 6
crac@@ 6
craftsmen 6
crea@@ 6
credits 6
creep 6
creeping 6
crews 6
crimer 6
crippled 6
crisp 6
crisper 6
crown 6
cruelty 6
crumbling 6
crumbs 6
crushing 6
cryptic 6
csi 6
cture 6
cuisine 6
cultivating 6
cycled 6
cystic 6
d-down 6
d-i-@@ 6
d-looking 6
dakota 6
dal@@ 6
dall 6
damages 6
dant 6
darn 6
db 6
dc 6
ddled 6
ddling 6
de-extinction 6
deathbed 6
deb@@ 6
debut 6
decoration 6
deeds 6
deepening 6
defect 6
defiance 6
degeneration 6
democracyos 6
demon@@ 6
dennett 6
denominator 6
dents 6
depict 6
depp 6
deregulation 6
deter@@ 6
devoured 6
dewey 6
dexterity 6
dge@@ 6
dges 6
dh 6
dhabi 6
dharamsala 6
dice 6
dick@@ 6
dict@@ 6
dictate 6
die@@ 6
dier 6
digitization 6
diminishing 6
dink 6
directional 6
directive 6
disappointment 6
discharged 6
disclose 6
discri@@ 6
disneyland 6
dispersants 6
disse@@ 6
disser@@ 6
dissolving 6
distinguishes 6
distract 6
distribu@@ 6
distributing 6
distrust 6
disturb 6
diva 6
dived 6
diver@@ 6
dives 6
do-it-yourself 6
doings 6
dollars-worth 6
domains 6
domin@@ 6
domination 6
dong 6
doodles 6
dormant 6
dorothy 6
dot@@ 6
double-click 6
douglas 6
dous 6
downhill 6
downloading 6
doyle 6
dr 6
drastically 6
drc 6
dread 6
drive-@@ 6
driveway 6
drori 6
drown 6
dubious 6
dublin 6
ducks 6
dunlap 6
dusk 6
dwell 6
dynasty 6
dystonia 6
e.@@ 6
e.r. 6
earthquakes 6
ecosia 6
edible 6
edith 6
edu@@ 6
ee@@ 6
effe@@ 6
eg 6
ego@@ 6
eiffel 6
eight-year-old 6
eing 6
ek 6
elastic 6
electrically 6
electrochemical 6
elegance 6
elevate 6
elevates 6
elle 6
elli@@ 6
elliott 6
ema@@ 6
embarked 6
embraces 6
eminent 6
emp@@ 6
ences 6
end-of-life 6
endeavors 6
endemic 6
enron 6
ens@@ 6
ent-@@ 6
epa 6
erez 6
erick 6
erin 6
escal@@ 6
esther 6
eulogy 6
euthanasia 6
evacu@@ 6
evade 6
evocative 6
exac@@ 6
exceeds 6
exclamation 6
expired 6
explodes 6
exploited 6
explosives 6
exported 6
extends 6
extin@@ 6
extra-chunky 6
extrinsic 6
extrovert 6
eye-opening 6
eyewitness 6
fabian 6
fabri@@ 6
fabricated 6
fain@@ 6
fall@@ 6
fallacy 6
fallibility 6
family-@@ 6
fanciful 6
faraway 6
farthest 6
fascinates 6
fashions 6
favors 6
feat 6
female-pattern 6
fermentation 6
fernan@@ 6
ferris 6
ferrofluid 6
fertilized 6
fibrosis 6
fic@@ 6
fiel@@ 6
fierce 6
fiercely 6
fighter 6
figu@@ 6
filtered 6
financed 6
finances 6
financing 6
fir@@ 6
firefight 6
fireworks 6
fjord 6
flaps 6
flattening 6
flavored 6
flier 6
floppy 6
flower@@ 6
fm 6
fn 6
foam 6
footing 6
forefront 6
foregone 6
foreigner 6
foreseen 6
formulas 6
fortress 6
fortunes 6
fossilized 6
four-year-olds 6
foyer 6
fractal 6
frankenstein 6
freed 6
freestyle 6
fresh@@ 6
freshmen 6
friendships 6
fries 6
fringes 6
fucking 6
full-blown 6
fuller 6
funerals 6
funky 6
funnel 6
fuselage 6
g8 6
gadget 6
gallon 6
gambia 6
game-@@ 6
gandhian 6
gar 6
gee 6
geo-@@ 6
geology 6
geothermal 6
gerontology 6
gever 6
ghraib 6
gillian 6
ginger 6
glasgow 6
gles 6
gly 6
goering 6
golfing 6
good@@ 6
governing 6
graded 6
gradients 6
grading 6
graft 6
grameen 6
grandest 6
grandkids 6
grants 6
grape@@ 6
grapher 6
grasping 6
grasslands 6
gratuitous 6
great-great-@@ 6
greene 6
greet 6
greeting 6
gregory 6
grier 6
grinding 6
grou@@ 6
grumpy 6
guarantees 6
guer@@ 6
guga 6
guiding 6
gum 6
gunfire 6
gym 6
h. 6
h1n1 6
habitable 6
hacks 6
hah 6
haha 6
haired 6
halt 6
halves 6
hama 6
hamburg 6
hamburgers 6
handing 6
hanna 6
harassed 6
hard@@ 6
hardened 6
harming 6
harold 6
harrowing 6
hart 6
hasbro 6
hass@@ 6
hat@@ 6
hatzalah 6
haw@@ 6
hay@@ 6
hea@@ 6
headlights 6
headrest 6
health@@ 6
heartache 6
heartbreak 6
heartbreaking 6
heartfelt 6
heats 6
heavier 6
hedge 6
herbie 6
here@@ 6
herring 6
hetero@@ 6
high-level 6
high-powered 6
highlands 6
highlighted 6
highly-@@ 6
hiking 6
hind 6
hm 6
hobbies 6
homosexual 6
homosexuality 6
honolulu 6
hoo@@ 6
horribly 6
horse@@ 6
hotmail 6
huddled 6
humbled 6
hurdles 6
hustles 6
hybrids 6
hyenas 6
hypercard 6
hypothermia 6
i.m. 6
ica 6
ice-@@ 6
icelandic 6
ida 6
idealism 6
idealistic 6
ik@@ 6
ile 6
iler 6
illu@@ 6
illuminated 6
illustrator 6
ils 6
im 6
immerse 6
immoral 6
impe@@ 6
imperson@@ 6
implicitly 6
imply 6
impoverished 6
impro@@ 6
in-law 6
incapable 6
incentivize 6
induce 6
industri@@ 6
inequity 6
infants 6
infects 6
infer 6
inference 6
inflatable 6
inflection 6
informational 6
informative 6
informing 6
informs 6
inged 6
inging 6
inhabit@@ 6
injectors 6
innovator 6
ino 6
inscribed 6
insecurity 6
inspected 6
instantaneous 6
instantaneously 6
instructional 6
insula 6
insure 6
intake 6
inten@@ 6
intercourse 6
interdisciplinary 6
internalize 6
interpersonal 6
interpretations 6
interrogation 6
interrup@@ 6
interrupting 6
interruptions 6
intersect 6
intervening 6
intra@@ 6
introversion 6
introvert 6
inventive 6
iranian-american 6
iraqis 6
irresponsible 6
isle 6
itate 6
itation 6
iter 6
iti 6
iv 6
izations 6
jacobs 6
jal 6
jammed 6
jan 6
jar@@ 6
jeanny 6
jenny 6
jer@@ 6
jit@@ 6
jn 6
joan 6
joking 6
joplin 6
joy@@ 6
jpl 6
jud@@ 6
jumbo 6
junkies 6
jurisdiction 6
justified 6
kamal 6
kamen 6
kamkwamba 6
kangaroo 6
karmapa 6
kasparov 6
kenyans 6
kermit 6
kettles 6
kh@@ 6
khadija 6
kidnapping 6
kilo 6
kindle 6
kinshasa 6
know-it-all 6
know@@ 6
kooks 6
kor@@ 6
krosoczka 6
ku 6
kun@@ 6
laborers 6
lac@@ 6
lah 6
laminate 6
landmark 6
langu@@ 6
larity 6
latrine 6
lattice 6
laura 6
laurie 6
lazarus 6
leaned 6
leapfrog 6
leaps 6
legends 6
lett 6
lettuces 6
lexicographer 6
lexicography 6
lg 6
lian 6
life@@ 6
lifespans 6
lightbulb 6
lightbulbs 6
like@@ 6
ling@@ 6
litigation 6
livable 6
livelihood 6
livelihoods 6
liz 6
lized 6
lobbied 6
locking 6
locks 6
logistical 6
logos 6
logs 6
lon 6
long@@ 6
loo 6
lothar 6
loudly 6
lounge 6
love@@ 6
low-fat 6
lower-@@ 6
lowering 6
m.d. 6
ma-@@ 6
maddie 6
madly 6
magne@@ 6
magnifying 6
mailing 6
mainland 6
makeshift 6
mal 6
male-@@ 6
male-pattern 6
mali 6
malls 6
mammalian 6
manchester 6
mandatory 6
mandelbrot 6
maneuvers 6
mangroves 6
manifest 6
manifestations 6
manuscript 6
marbles 6
marginal 6
marke@@ 6
masons 6
massacre 6
masse 6
matty 6
maui 6
max@@ 6
maze 6
mbled 6
mckay 6
mcnuggets 6
me-@@ 6
meadows 6
measurably 6
mechanistic 6
medit@@ 6
meditate 6
meditators 6
meegeren 6
meg@@ 6
megawatts 6
meggendorfer 6
meltdown 6
mented 6
mentioning 6
merchant 6
merri@@ 6
messed 6
messing 6
meyerowitz 6
michoacán 6
micro-machines 6
micron@@ 6
microprocessor 6
mies 6
migratory 6
mildred 6
milliken 6
min 6
mination 6
mind-boggling 6
mindsets 6
mined 6
miners 6
mini@@ 6
miniaturization 6
minimally 6
misconception 6
miserably 6
mish 6
mismatch 6
missiles 6
mistakenly 6
misunderstanding 6
mitochondrial 6
mitt 6
mizzone 6
mmed 6
mmer 6
mobilized 6
mock 6
mockingbirds 6
modalities 6
mode@@ 6
modi@@ 6
modifications 6
modifying 6
mol@@ 6
monastery 6
monitors 6
monot@@ 6
montreal 6
moo@@ 6
morals 6
morgana 6
mornings 6
morph@@ 6
morpho@@ 6
moskowitz 6
motorbikes 6
mullins 6
multimedia 6
multiplying 6
mus 6
musica 6
mutants 6
mutated 6
mutates 6
myspace 6
namibia 6
nan 6
nanometers 6
narcissistic 6
narrowed 6
narrows 6
nationality 6
nato 6
natur@@ 6
necrophilia 6
nel 6
nell 6
nellie 6
nephews 6
netizens 6
neuro-@@ 6
neurotransmitters 6
next-door 6
nia 6
nigerians 6
nightmares 6
nina 6
nine-year-olds 6
ninety 6
nings 6
nino 6
nod 6
nodding 6
noir 6
non-invasive 6
non-living 6
non-violence 6
noninvasive 6
norwegians 6
not-for-profit 6
notable 6
notoriously 6
novelist 6
nozzle 6
nuances 6
numerical 6
nutritious 6
nyu 6
objection 6
observatory 6
observer 6
oceanic 6
odyssey 6
oed 6
off-the-shelf 6
offs 6
offset 6
oklahoma 6
ometric 6
oneself 6
open@@ 6
openings 6
operators 6
opposing 6
ops 6
organically 6
oria 6
ories 6
originated 6
oted 6
ou 6
ough 6
out-@@ 6
outreach 6
outsourcing 6
oven-like 6
overcoming 6
overconfidence 6
overeating 6
overfishing 6
overlook 6
oversight 6
oxygen@@ 6
painters 6
pakistanis 6
palo 6
panda 6
pandemics 6
paradigms 6
parallax 6
paraphrase 6
parenthood 6
parikrma 6
parse 6
pash@@ 6
pasta 6
patented 6
pathogen 6
paused 6
pay@@ 6
peace-@@ 6
peacekeeping 6
peacock 6
pebble 6
pediatric 6
pel@@ 6
penalty 6
pendulum 6
penetration 6
pennies 6
per-@@ 6
perceives 6
peri@@ 6
permafrost 6
persians 6
persists 6
persuasive 6
perverse 6
peti@@ 6
petri 6
petroleum 6
pharmac@@ 6
pharmacology 6
phd 6
phony 6
phot@@ 6
photojournalist 6
photoshopped 6
pick-up 6
pimp 6
pinch 6
pinnacle 6
piss 6
pivot 6
pixel 6
play-doh 6
ple 6
pledged 6
plummeted 6
pmtct 6
poachers 6
poker 6
policy-making 6
policymakers 6
polo 6
porch 6
porter 6
powering 6
pp 6
ppe@@ 6
ppers 6
prescribe 6
prescriptions 6
present-day 6
presumption 6
prioritized 6
prius 6
proceeded 6
profane 6
progressed 6
progressing 6
prolonged 6
prompt 6
prose 6
prosecutors 6
prospera 6
proto-@@ 6
proverbial 6
provi@@ 6
provincial 6
psychotherapy 6
pto@@ 6
pub 6
publi@@ 6
puerto 6
punched 6
punta 6
pup 6
puppeteer 6
purchased 6
py 6
qua@@ 6
qualifications 6
qualitative 6
quantity 6
quartile 6
que@@ 6
ques 6
quin@@ 6
quirky 6
quorum 6
quotation 6
rabbit 6
rabbits 6
rabin 6
radcliffe 6
radiate 6
radic@@ 6
radioactive 6
radiologist 6
radios 6
raid 6
railways 6
rally 6
ramp 6
rampant 6
ranges 6
rarer 6
rat@@ 6
ratan 6
ravaged 6
reactivate 6
reactors 6
readable 6
ready-made 6
rearrange 6
reassemble 6
reassure 6
rebels 6
rebound 6
reciprocal 6
reconstructing 6
recreation 6
recreational 6
redefined 6
refle@@ 6
reforestation 6
refrigerated 6
regards 6
regenerating 6
regularity 6
regulating 6
rehab 6
reinforced 6
rel@@ 6
relieving 6
remaking 6
remarks 6
reminiscent 6
remodeling 6
rene@@ 6
repe@@ 6
repel 6
repercussions 6
representations 6
reproduced 6
reptiles 6
repulsive 6
resnick 6
respecting 6
restraints 6
retaining 6
retrofits 6
retrospect 6
reunited 6
reuters 6
reverber@@ 6
revered 6
revisit 6
revol@@ 6
rey 6
ribs 6
richards 6
riddled 6
ridley 6
rin@@ 6
ripples 6
risd 6
rit@@ 6
rivals 6
roast 6
robbins 6
rober@@ 6
rocking 6
rockwell 6
rodents 6
rot 6
rot@@ 6
rotated 6
rotterdam 6
rudimentary 6
rule-@@ 6
rut 6
rwandan 6
résumé 6
s-h 6
safari 6
sail@@ 6
sain@@ 6
salaam 6
sanity 6
sao 6
sarkozy 6
sat@@ 6
saurus 6
sav@@ 6
scatter 6
scent 6
schematic 6
scho@@ 6
schoolhouse 6
scoring 6
scotch 6
scourge 6
scrabble 6
screamed 6
screened 6
seams 6
searchable 6
secrete 6
sediment 6
sediments 6
sedu@@ 6
sel 6
self-assemble 6
self-discipline 6
self-driving 6
self-transcendence 6
sensibility 6
separates 6
serendipitous 6
sers 6
servant 6
sexes 6
shackleton 6
shady 6
shareholder 6
shatter 6
shattering 6
sheena 6
shhh 6
shi 6
shootings 6
shortcomings 6
shorthand 6
shove 6
showers 6
sibling 6
sideways 6
silences 6
silhouette 6
similarity 6
simplified 6
sincere 6
sion@@ 6
sivers 6
six-year-olds 6
sizable 6
skeptic 6
skirt 6
skis 6
skyline 6
sled 6
slid 6
slim 6
slogans 6
sma 6
smithsonian 6
smog 6
sniff 6
snobbery 6
snu@@ 6
soak 6
socializing 6
sockets 6
soles 6
somali 6
sophomore 6
sos 6
sour 6
sourcing 6
sox 6
space@@ 6
spacing 6
spin@@ 6
spiritually 6
spit 6
spooky 6
squeamish 6
ssions 6
sson 6
stacked 6
stam@@ 6
starches 6
starck 6
starters 6
startled 6
stat@@ 6
stationary 6
statistician 6
steadily 6
stealth 6
steep 6
stent 6
steroids 6
stick@@ 6
stockpile 6
stom@@ 6
stomachs 6
ston 6
stoning 6
stove 6
straight-@@ 6
strap 6
stray 6
stretches 6
studs 6
stung 6
subsidi@@ 6
suburb 6
suggestive 6
summoned 6
sunglasses 6
sunitha 6
sunk 6
sunrise 6
sunscreen 6
superhero 6
superheroes 6
superman 6
supplement 6
suppressing 6
surreal 6
surveying 6
sustainably 6
svalbard 6
swallows 6
sweetness 6
swiftly 6
swimmers 6
sydney 6
symphonies 6
synthesizing 6
t-shirts 6
taboos 6
tadpoles 6
tage 6
tahltan 6
tailed 6
tailings 6
tainted 6
take-@@ 6
talker 6
tam@@ 6
tamil 6
tandem 6
tango 6
tat@@ 6
tational 6
tease 6
technicians 6
ted2010 6
telephony 6
tending 6
tentacles 6
tenths 6
teous 6
terawatt 6
terri@@ 6
terroir 6
testi@@ 6
therapeutics 6
there@@ 6
thereafter 6
therein 6
thi@@ 6
tho@@ 6
thom@@ 6
thorny 6
thought@@ 6
thousand@@ 6
thre@@ 6
thrill 6
thrived 6
throne 6
tial 6
tian 6
tible 6
tiest 6
tify 6
tijuana 6
tire 6
tirelessly 6
tist 6
tives 6
tivity 6
tless 6
tomatoes 6
tommy 6
tones 6
tonya 6
top-10 6
toraja 6
tore 6
torque 6
tot@@ 6
tract 6
tracy 6
traffickers 6
tragedies 6
trailers 6
trainer 6
tray 6
treats 6
tremor 6
trenches 6
trick@@ 6
trilogy 6
trustworthiness 6
ttering 6
tulley 6
tun@@ 6
turbulent 6
turquoise 6
tutoring 6
twilight 6
twinkling 6
twisted 6
two-and-a-half 6
type@@ 6
typeface 6
tz 6
uk 6
ulation 6
una 6
underbelly 6
understandably 6
undo 6
unhappiness 6
unheard 6
uninhabited 6
unpack 6
unravel 6
unrealistic 6
unstoppable 6
unt 6
uploading 6
uprisings 6
upside-down 6
upstairs 6
uranium 6
urged 6
urine 6
uruguay 6
us-@@ 6
usefulness 6
utilizing 6
utterances 6
uv 6
vain 6
vali@@ 6
valu@@ 6
vanished 6
varying 6
venti@@ 6
vents 6
vered 6
vermeer 6
vermiculite 6
verses 6
vicinity 6
video-@@ 6
videotape 6
vienna 6
viol@@ 6
violate 6
violations 6
violently 6
virginity 6
vis-a-vis 6
vm 6
vodka 6
volvo 6
vulnerabilities 6
w. 6
wa 6
wager 6
walk@@ 6
wan 6
wangari 6
warcraft 6
warms 6
warp 6
warranty 6
was@@ 6
wasps 6
wavelengths 6
webster 6
weddings 6
weeping 6
wen 6
wen@@ 6
where@@ 6
whi@@ 6
whispered 6
whispering 6
whispers 6
whistled 6
white-@@ 6
whiteboard 6
widen 6
widening 6
wifi 6
wilkins 6
willie 6
willingly 6
willpower 6
winky 6
wisely 6
wizard 6
world-changing 6
world@@ 6
worldchanging 6
wrongs 6
wurman 6
xml 6
xy 6
y-based 6
yearning 6
yelled 6
yochai 6
yor@@ 6
yunus 6
zabbaleen 6
zan@@ 6
zen 6
zero-g 6
zers 6
zig 6
zil@@ 6
zo 6
zombie 6
zu@@ 6
zullinger 6
zurich 6
&apos;all 5
&apos;mon 5
) 5
,000-square-foot 5
-cla@@ 5
-hour 5
-in-the-@@ 5
-of-@@ 5
-out 5
.05 5
.mt 5
00@@ 5
06 5
0th 5
1-2-3 5
1.1 5
10-year 5
11@@ 5
13.7 5
16,000 5
175 5
18-minute 5
1850 5
1904 5
1919 5
1928 5
1929 5
1932 5
1938 5
1940s 5
194@@ 5
1956 5
1958 5
1966 5
1967 5
2-year-old 5
20-year-old 5
220 5
23rd 5
24,000 5
240 5
27th 5
29th 5
2nd 5
3-d 5
3.7 5
300-@@ 5
30th 5
3d-printed 5
3g 5
4,500 5
400-@@ 5
442nd 5
45,000 5
46@@ 5
4chan 5
550 5
7-@@ 5
70-@@ 5
70-year-old 5
8-@@ 5
8.@@ 5
800,000 5
911 5
aa@@ 5
abandoning 5
abdu@@ 5
abdul 5
above-@@ 5
abstrac@@ 5
abuses 5
academia 5
accessories 5
accommo@@ 5
accompli@@ 5
accordingly 5
accredited 5
accu@@ 5
accusation 5
aches 5
achiev@@ 5
acutely 5
add-@@ 5
additionally 5
adelaide 5
adept 5
adjusting 5
adjustments 5
administered 5
admir@@ 5
ado 5
ador@@ 5
adored 5
adrian 5
advan@@ 5
advantageous 5
adventists 5
advertisement 5
advertisements 5
advise 5
adviser 5
advisers 5
affe@@ 5
affirmative 5
affli@@ 5
affluent 5
agon@@ 5
agora 5
agrarian 5
ahh 5
air-conditioning 5
airbus 5
albania 5
ald 5
aless@@ 5
algeria 5
alisch 5
alison 5
alizations 5
allah 5
allied 5
alling 5
allison 5
allowan@@ 5
almond 5
alps 5
alternating 5
alti@@ 5
altruistic 5
amjad 5
amnesty 5
ampu@@ 5
amused 5
an-american 5
anagrams 5
analytic 5
anatomic 5
anch@@ 5
ander 5
ane 5
anecdot@@ 5
aned 5
anesthe@@ 5
anesthesiologist 5
anesthetize 5
anew 5
angel@@ 5
angeline 5
angu@@ 5
annan 5
annihilated 5
anos 5
ante 5
anterior 5
anthrax 5
anti 5
antiqu@@ 5
antisocial 5
anxi@@ 5
any@@ 5
anyways 5
aphid 5
aphids 5
apocryphal 5
apologizing 5
appalachi@@ 5
appearances 5
appreciating 5
appro@@ 5
apt 5
arbitrarily 5
archa@@ 5
archival 5
argentine 5
arias 5
ariel 5
aring 5
aris 5
arisen 5
arsen@@ 5
arte@@ 5
arter@@ 5
artworks 5
as-@@ 5
asa@@ 5
ascent 5
ase 5
ased 5
asexual 5
aspiring 5
assange 5
asser@@ 5
assessments 5
assistants 5
assisted 5
astrology 5
astroturf 5
atacama 5
atala 5
ath 5
athabasca 5
athle@@ 5
athleticism 5
atingly 5
ation-@@ 5
atm 5
aton 5
atri@@ 5
atrium 5
atrophied 5
atten@@ 5
attrac@@ 5
attracts 5
attributable 5
audit 5
augustine 5
aung 5
aunties 5
aura 5
austen 5
authored 5
autodesk 5
automate 5
avatars 5
avaz 5
averages 5
averse 5
avo@@ 5
awe@@ 5
awhile 5
babble 5
backdrop 5
baked 5
balances 5
ballo@@ 5
balochistan 5
bank@@ 5
bankrupt 5
bannister 5
bargain 5
barn 5
barricades 5
barricelli 5
base@@ 5
basit 5
basque 5
bathrooms 5
batiuk 5
batt@@ 5
bby 5
bea@@ 5
beaming 5
bean 5
bear@@ 5
beaver 5
beck@@ 5
bedrooms 5
bedtime 5
beg 5
begets 5
begs 5
belshazzar 5
belts 5
bends 5
bennington 5
berkley 5
berlow 5
berserk 5
bertrand 5
bes 5
bespoke 5
betrayal 5
bhutanese 5
bid 5
biking 5
billboards 5
billionaires 5
billowing 5
binoculars 5
biochemical 5
biomimicry 5
bioreactor 5
bir 5
birth@@ 5
birthdays 5
bison 5
blac@@ 5
blacks 5
bland 5
bleach 5
bleep 5
bler 5
blindfold 5
blizzard 5
bloomberg 5
blow@@ 5
blower 5
blowout 5
blurred 5
boar@@ 5
boardroom 5
bobbing 5
bobby 5
bobo 5
bolte 5
bom@@ 5
bomb@@ 5
boom@@ 5
boosting 5
borne 5
bottled 5
botton 5
boundless 5
bour@@ 5
bowling 5
bowls 5
boyle 5
brad 5
bragg 5
brain-@@ 5
brake 5
breadwinning 5
breakup 5
breast@@ 5
breastfeeding 5
breathes 5
bribing 5
brick@@ 5
bride 5
broaden 5
broch@@ 5
brooding 5
brushed 5
brushes 5
bu 5
buckminster 5
buddhism 5
bueller 5
buff@@ 5
buggy 5
bulges 5
bulldo@@ 5
bulletproof 5
bulls 5
bunny 5
burge@@ 5
burgers 5
burqa 5
businessman 5
busting 5
buzz@@ 5
buzzing 5
bycatch 5
cad@@ 5
cadaver 5
cadence 5
cafeterias 5
calculates 5
calms 5
camden 5
cameroon 5
camp@@ 5
cancerous 5
canned 5
cannes 5
canoes 5
canvases 5
cao 5
capitals 5
capsules 5
captains 5
captchas 5
captivity 5
captures 5
cara@@ 5
carbohydrates 5
cardinal 5
cardiologist 5
carni@@ 5
carpe@@ 5
carrillo 5
carroça 5
carta 5
cas 5
casa 5
casablanca 5
cascade 5
cased 5
catapul@@ 5
catastrophes 5
catch@@ 5
categorized 5
cathedrals 5
caucasus 5
cauliflower 5
causal 5
cautious 5
cavities 5
ce-@@ 5
cease 5
cease-fire 5
ceasefire 5
ceases 5
cede 5
ceilings 5
cel 5
cell@@ 5
cemetery 5
center@@ 5
centuries-old 5
ceremonies 5
certificates 5
cessation 5
chagall 5
channelrhodopsin 5
character@@ 5
chari@@ 5
charisma 5
charley 5
chartered 5
chased 5
chasm 5
chassis 5
chateau 5
chee@@ 5
cheetahs 5
chemo 5
cherished 5
chest@@ 5
chester 5
chic@@ 5
child@@ 5
childcare 5
childhoods 5
chin@@ 5
chitra 5
chlorop@@ 5
chocolates 5
choke 5
chore 5
chores 5
christi@@ 5
cht 5
churchill 5
cies 5
cilia 5
cine@@ 5
cious 5
circulate 5
circulated 5
circulating 5
circumcision 5
cite 5
citywide 5
ckers 5
clamp 5
clathrin 5
clearest 5
climber 5
clogged 5
clooney 5
closed-loop 5
clot 5
clunky 5
cluttered 5
cob@@ 5
coccus 5
coevolution 5
coinci@@ 5
collaborated 5
colle@@ 5
college-@@ 5
coloni@@ 5
color@@ 5
colossal 5
coltan 5
columbus 5
comeback 5
comets 5
commentator 5
commerci@@ 5
commonalities 5
communicated 5
comparative 5
compe@@ 5
competent 5
competitor 5
complement 5
complementary 5
composing 5
compounded 5
compromises 5
compulsory 5
computations 5
computer-@@ 5
computerized 5
conan 5
conceivably 5
conceptually 5
concoction 5
condense 5
condenses 5
conditional 5
cones 5
confessed 5
confi@@ 5
configurations 5
confinement 5
confines 5
congolese 5
congre@@ 5
congresswoman 5
conjecture 5
conju@@ 5
connective 5
consequential 5
conserved 5
conserving 5
consolidated 5
constituents 5
constra@@ 5
constru@@ 5
contentment 5
continental 5
contracting 5
contractions 5
controllers 5
controversies 5
conve@@ 5
conveniently 5
convoluted 5
convul@@ 5
coo@@ 5
cooker 5
cooper@@ 5
cornell 5
corp 5
correcting 5
cosmetic 5
cosmologists 5
costume 5
coughing 5
counteract 5
coupons 5
cover@@ 5
coyote 5
craf@@ 5
creatives 5
credited 5
crescent 5
crick 5
criminalize 5
criticizing 5
crocodiles 5
cronin 5
cross-cultural 5
crossroads 5
crow@@ 5
crowd-sourced 5
crun@@ 5
crystal@@ 5
ctable 5
cti@@ 5
ctively 5
ctives 5
cub 5
cuban 5
cubicle 5
cuff 5
culprits 5
cumb@@ 5
curable 5
curb 5
curiously 5
curled 5
curse 5
curtains 5
cutaway 5
cutter 5
cybercriminal 5
cyberwar 5
cyclical 5
cyclone 5
cylinders 5
d-based 5
d.j. 5
dad@@ 5
dads 5
daf@@ 5
dah 5
dal 5
dallas 5
dals 5
damned 5
dana 5
daphne 5
dash 5
data-@@ 5
data@@ 5
dative 5
dder 5
ddy 5
death@@ 5
deca@@ 5
deceptively 5
decks 5
declare 5
deconstruct 5
deep-sea 5
defeating 5
deficits 5
definite 5
deformed 5
degra@@ 5
delays 5
deletion 5
deliver@@ 5
dell 5
demise 5
demons 5
demoralized 5
dened 5
denies 5
dens 5
dentistry 5
denying 5
depicting 5
depiction 5
deple@@ 5
deposited 5
deposits 5
der-@@ 5
designated 5
desp@@ 5
dessert 5
detained 5
deterior@@ 5
determin@@ 5
detrimental 5
detroiters 5
dev@@ 5
dfs 5
dians 5
diesel 5
dig@@ 5
dige@@ 5
digits 5
dipped 5
dire@@ 5
directing 5
disadvantaged 5
discer@@ 5
disconnection 5
discoun@@ 5
discouraging 5
discriminate 5
disease-@@ 5
disgust 5
dishonest 5
disin@@ 5
disliked 5
dismal 5
dismantled 5
disper@@ 5
disposable 5
dispose 5
disposed 5
disproportionate 5
disrupted 5
disseminate 5
dist 5
distantly 5
disti@@ 5
distinctions 5
distinctly 5
distrac@@ 5
distracting 5
distributions 5
dit@@ 5
diversify 5
divert 5
dmv 5
do-@@ 5
documentaries 5
dol@@ 5
doll@@ 5
dominating 5
donating 5
doom 5
doorbell 5
doorway 5
dorm 5
dosage 5
doub@@ 5
doubles 5
dough@@ 5
downright 5
dragons 5
drags 5
drains 5
drastic 5
draw@@ 5
dreamt 5
dresses 5
drills 5
droplets 5
drumming 5
drybath 5
drywall 5
dson 5
ducts 5
dues 5
dum@@ 5
duplex 5
duplicate 5
duplicated 5
dwarf 5
dweller 5
dyed 5
dysfunction 5
eagle 5
early-@@ 5
earnings 5
eb@@ 5
ebola 5
ece 5
ecm 5
eco@@ 5
ecologically 5
educates 5
eerie 5
egalitarian 5
egan 5
ejac@@ 5
ekg 5
ela 5
elated 5
eldest 5
electrolyte 5
elegantly 5
elemental 5
eleven 5
eleventh 5
elimination 5
elitist 5
ell@@ 5
ellipse 5
elyn 5
embryos 5
emo@@ 5
emphasizes 5
empowers 5
emptied 5
emul@@ 5
emulation 5
enberg 5
encore 5
ency 5
endgame 5
endor@@ 5
endow 5
engagements 5
engraved 5
engulf 5
engulfed 5
enliven 5
enriched 5
ensler 5
enthr@@ 5
entom@@ 5
entrenched 5
envelo@@ 5
envi@@ 5
epic@@ 5
equitable 5
eruption 5
escalated 5
escalating 5
esta 5
esthetic 5
ethel 5
ethicist 5
eti@@ 5
etto 5
euphoria 5
euro@@ 5
eva 5
evaluated 5
evans 5
evenings 5
eves 5
evol@@ 5
evolent 5
evolvable 5
ex-boyfriend 5
exacerbate 5
exchanges 5
excite 5
exclusion 5
excre@@ 5
exert 5
exhal@@ 5
exhibited 5
exhibiting 5
expansive 5
experiential 5
experimentally 5
explanatory 5
extern@@ 5
externally 5
extra-@@ 5
extremity 5
ey@@ 5
fable 5
fabricate 5
facto 5
fades 5
fading 5
fairer 5
faiths 5
famines 5
fana@@ 5
far-right 5
farce 5
fargo 5
faso 5
fast-@@ 5
fastest-growing 5
fateful 5
favored 5
fax 5
feast 5
federation 5
feedbacks 5
feeder 5
fen@@ 5
ferguson 5
ferry 5
fertilization 5
fetched 5
fey 5
ffer@@ 5
fier 5
filtering 5
filtration 5
fingerprints 5
firefighters 5
firewood 5
first-born 5
fished 5
fisher 5
fishery 5
fission 5
five-minute 5
flakes 5
flashlight 5
flatten 5
flattened 5
flex 5
flipper 5
flir@@ 5
floral 5
floss 5
fluffy 5
fluke 5
flushing 5
flux 5
flyer 5
folder 5
folklore 5
follower 5
font 5
food-@@ 5
forecasting 5
forensics 5
forer 5
forks 5
formaldehyde 5
formidable 5
forwar@@ 5
fountains 5
four-foot 5
frac@@ 5
fractions 5
fracture 5
frail 5
franchise 5
frantically 5
fraught 5
freaky 5
freer 5
freezer 5
frenchman 5
friend@@ 5
frighten 5
front-end 5
fru@@ 5
fting 5
fuck 5
fueling 5
fulbright 5
functionally 5
fundamentals 5
futile 5
futuristic 5
gait 5
galactic 5
galvani 5
gambling 5
gan 5
gang@@ 5
gangsters 5
gayle 5
gays 5
gbm 5
gell-mann 5
gem 5
genealogy 5
general-purpose 5
generalizations 5
genous 5
geoffrey 5
geopolitical 5
gered 5
ggles 5
ghetto 5
ght-@@ 5
ght@@ 5
ghts 5
giacometti 5
gical 5
gill 5
gills 5
gio 5
glacial 5
gland 5
gleeson 5
glide 5
glob@@ 5
glomerate 5
glows 5
glued 5
gmail 5
gments 5
gnarly 5
gnh 5
go-@@ 5
goldberg 5
golfer 5
goose 5
goosebumps 5
goran 5
gorilla 5
gorillas 5
gossiping 5
gourley 5
government-@@ 5
gradient 5
granddad 5
grander 5
graphers 5
graphies 5
grapple 5
greenery 5
greenhouses 5
grids 5
gripped 5
grips 5
groom 5
groomed 5
grounding 5
grownups 5
guar@@ 5
guizhou 5
h-@@ 5
hab 5
hable 5
had@@ 5
halal 5
hallmark 5
hamas 5
handi@@ 5
handler 5
handouts 5
hanson 5
hapless 5
har 5
hardship 5
haring 5
harmon@@ 5
haters 5
hau@@ 5
haunting 5
havoc 5
hazards 5
healed 5
heart-@@ 5
heart@@ 5
heath 5
heck@@ 5
helmets 5
hemi@@ 5
hepburn 5
heral@@ 5
heroism 5
hiber@@ 5
hiccu@@ 5
hierarchical 5
hierarchies 5
high-capacity 5
high-pressure 5
high-rise 5
high-risk 5
higher-@@ 5
highlighting 5
highs 5
hindi 5
hindsight 5
hindus 5
hippocrates 5
hips 5
hiv-infected 5
hiv-negative 5
hl 5
hob@@ 5
holi@@ 5
hologram 5
homeopathy 5
hone 5
honoring 5
honors 5
hop@@ 5
hopping 5
horrifying 5
hors 5
hover 5
hovering 5
hr@@ 5
huang 5
huaorani 5
hugged 5
hugs 5
humanism 5
humanistic 5
humanly 5
humbly 5
hundredth 5
hunter-gatherer 5
hur@@ 5
hydrothermal 5
hyper-consumption 5
hypertension 5
hypertext 5
hypnotize 5
hypothe@@ 5
i.e. 5
ice@@ 5
icing 5
ide 5
ideologies 5
ides 5
idiosyncratic 5
iest 5
if-then 5
igf-1 5
ignite 5
ignited 5
igniting 5
ikigai 5
ila 5
iles 5
iliac 5
illicit 5
illiteracy 5
illustrating 5
image-making 5
imaged 5
imam 5
immuno@@ 5
impactful 5
imperfections 5
implantation 5
implies 5
impossibility 5
impotent 5
impoundments 5
improvi@@ 5
improvised 5
impulsive 5
inanimate 5
inbox 5
inc@@ 5
incarcerated 5
incense 5
inci@@ 5
incorporated 5
incrementally 5
indicative 5
indignant 5
indistinguishable 5
industry-@@ 5
inequalities 5
inexhaustible 5
infancy 5
infantry 5
inferences 5
inflammation 5
inflammatory 5
inflated 5
inflicted 5
info@@ 5
infringement 5
infuse 5
inhibit 5
inhibits 5
inmate 5
inquire 5
insecticides 5
insides 5
insisting 5
institutes 5
insured 5
interconnect 5
interfering 5
interiors 5
internally 5
interspecies 5
intervened 5
interviewer 5
intimidating 5
intro 5
intru@@ 5
intuit 5
inu@@ 5
invariably 5
inver@@ 5
investigators 5
investor 5
ious 5
iron@@ 5
irreduci@@ 5
irreverence 5
irreversible 5
irritable 5
isaf 5
isaiah 5
ising 5
islamists 5
ison 5
isotopes 5
israelites 5
itative 5
itchy 5
ite@@ 5
iterative 5
itors 5
ity-@@ 5
jaipur 5
jamaica 5
jamming 5
jansky 5
jared 5
java 5
jawbone 5
jb 5
jealous 5
jealousy 5
jean-baptiste 5
jehane 5
jenkins 5
jerk 5
jetman 5
jewel 5
jewels 5
jfk 5
joachim 5
jody 5
johanna 5
joie 5
jor@@ 5
journalistic 5
journeyman 5
joyce 5
joystick 5
jt 5
judicial 5
jugaad 5
jump@@ 5
jurvetson 5
juveniles 5
juxta@@ 5
kaf@@ 5
kam@@ 5
kan 5
kane 5
kara 5
karma 5
kath@@ 5
kathryn 5
kazakhstan 5
kel@@ 5
kendal 5
kendall 5
kenneth 5
kerala 5
kerosene 5
kettle 5
kevlar 5
kew 5
keyhole 5
khalil 5
kick@@ 5
kicker 5
kiev 5
kiran 5
kirk 5
kismet 5
kittens 5
kitty 5
kly 5
kne@@ 5
knitting 5
knobs 5
kofi 5
koko 5
kon@@ 5
kpis 5
ks@@ 5
kurdistan 5
kwabena 5
ky@@ 5
kyi 5
l-dopa 5
laces 5
lacks 5
lam 5
lamanites 5
lancet 5
landers 5
lantern 5
larly 5
late@@ 5
latrines 5
latte 5
laun@@ 5
lax 5
layout 5
lear 5
lear@@ 5
learners 5
legadema 5
lehman 5
lesions 5
leslie 5
leton 5
leveraging 5
lexicographical 5
liabilities 5
liability 5
liar 5
libra 5
licensing 5
lier 5
lifeblood 5
lifeless 5
lig@@ 5
ligament 5
light-activated 5
light-sensitive 5
lima 5
limpopo 5
lindbergh 5
line@@ 5
lineage 5
liness 5
lingu@@ 5
liposuction 5
literate 5
lity 5
liu 5
live-@@ 5
lizes 5
ller 5
lm 5
loa@@ 5
locals 5
locomotor 5
lofty 5
logged 5
long-lasting 5
loo@@ 5
look-alike 5
loom 5
looping 5
lore 5
lored 5
loren 5
lou 5
louise 5
lov@@ 5
luci@@ 5
lumpy 5
lun@@ 5
lurking 5
lush 5
lux 5
luxurious 5
lxd 5
lymphatic 5
lyn 5
lyrical 5
maathai 5
macho 5
magn@@ 5
maiden 5
main@@ 5
majora 5
majoring 5
malthus 5
man-@@ 5
mangrove 5
manhood 5
manila 5
manipulative 5
manned 5
manually 5
manuel 5
mapendo 5
marcel 5
markus 5
marrying 5
marsupial 5
martian 5
marvels 5
marvin 5
mash 5
masonry 5
mated 5
materialism 5
mation 5
matriarch 5
maz 5
mble 5
mbo 5
mcfadden 5
mcgonigal 5
meaningfully 5
mecca 5
mechanization 5
medicare 5
medics 5
meditating 5
megabyte 5
megacities 5
megawatt 5
memo 5
memoir 5
memorizing 5
menacing 5
meniscus 5
menstrual 5
merckx 5
mercury 5
merger 5
meritocracy 5
mes@@ 5
messi@@ 5
meth@@ 5
metho@@ 5
metro 5
metro@@ 5
metry 5
mica 5
micro-controllers 5
microbloggers 5
microfluidic 5
micrometeorites 5
microorganisms 5
microphones 5
microprocessors 5
microscopy 5
midair 5
middle-income 5
mie 5
migraine 5
miko 5
milan 5
millennial 5
milli@@ 5
milligrams 5
milton 5
mimicry 5
minate 5
mings 5
minimizing 5
minorities 5
minsky 5
misdirection 5
misleading 5
misunderstand 5
miti@@ 5
mitra 5
mob 5
modernization 5
modular 5
module 5
mohammed 5
molded 5
momentarily 5
mon 5
mono-@@ 5
mono@@ 5
mony 5
moocs 5
moose 5
mop 5
mormon 5
morph 5
morphic 5
mortgages 5
mos 5
motivational 5
motorbike 5
mounds 5
mped 5
mris 5
mujahideen 5
multi-dimensional 5
murderers 5
murdering 5
murders 5
muslim-majority 5
mustaches 5
mustafa 5
muttering 5
mycoplasma 5
myesha 5
nab@@ 5
nachos 5
nad@@ 5
nah 5
nameless 5
nano-@@ 5
napot 5
napster 5
nard 5
narrower 5
narrowing 5
nasal 5
nate 5
nation@@ 5
nationalism 5
nationwide 5
natu@@ 5
naval 5
near-death 5
necks 5
needle@@ 5
negatives 5
nerds 5
netted 5
neurologically 5
neurosurgeon 5
neurosurgery 5
neutrino 5
neutrinos 5
nian 5
nicest 5
niches 5
nicotine 5
niece 5
nieces 5
nine@@ 5
nineteen 5
ninos 5
nintendo 5
nish 5
no-brainer 5
noi@@ 5
nom@@ 5
nomads 5
non-toxic 5
noodles 5
nostalgia 5
not@@ 5
notorious 5
noujaim 5
novocure 5
noxious 5
nrk 5
nucleic 5
nugget 5
numbing 5
nuns 5
nutri@@ 5
objectively 5
obligations 5
obse@@ 5
occurrence 5
odd@@ 5
oddities 5
ode 5
of-the-@@ 5
of@@ 5
offended 5
offending 5
oids 5
oils 5
okolloh 5
ole 5
olymp@@ 5
ome 5
omics 5
oming 5
ommm 5
one-by-one 5
one-size-fits-all 5
ong 5
op-ed 5
opi@@ 5
opportunity-makers 5
optically 5
optimized 5
orbits 5
orchard 5
orchestras 5
ore@@ 5
organizer 5
orphan 5
orwell 5
oslo 5
osorio 5
otic 5
oting 5
otto 5
oun@@ 5
out-of-body 5
out-of-the-box 5
outcry 5
outpatient 5
outright 5
outset 5
outsider 5
outwards 5
ovaries 5
overdose 5
overestimate 5
overheard 5
overpopulation 5
overstated 5
overtake 5
overview 5
oxid@@ 5
oy@@ 5
p.c. 5
paci@@ 5
pack@@ 5
painfully 5
paintbrush 5
paired 5
palpable 5
panama 5
pandora 5
parabola 5
paradoxical 5
paralyzing 5
paranoia 5
pardon 5
parker 5
parliamentary 5
partnered 5
passports 5
past-@@ 5
pathogenic 5
patricia 5
patriotic 5
pbs 5
pea 5
peace@@ 5
peck 5
penetrated 5
penile 5
pep@@ 5
percentages 5
percussion 5
perme@@ 5
permits 5
pernicious 5
perplexed 5
persia 5
persisted 5
perv@@ 5
perverted 5
petrified 5
petrochemicals 5
pew 5
phal@@ 5
pharaoh 5
pharmacy 5
phil@@ 5
philippe 5
pho@@ 5
photo-real 5
photon 5
photoreceptors 5
photosynthesis 5
phs 5
phthalate 5
physi@@ 5
phytoplankton 5
pickled 5
pier@@ 5
piercing 5
pierpont 5
pierson 5
pig@@ 5
piloting 5
piping 5
plac@@ 5
plasma 5
plateau 5
platonic 5
play-dough 5
playbook 5
playlist 5
playwright 5
plazas 5
ples 5
pli@@ 5
plight 5
plunge 5
pneu@@ 5
pogue 5
pointillist 5
poisoning 5
poking 5
polar@@ 5
polarized 5
polarizing 5
polis 5
pollinating 5
polynesian 5
poo@@ 5
popularity 5
portions 5
portrayed 5
posse@@ 5
post-war 5
postage 5
postpone 5
postsecret 5
poultry 5
poupon 5
pradesh 5
pragmatism 5
prayed 5
preach 5
preaching 5
predictor 5
prehen@@ 5
prehistory 5
premier 5
premises 5
preoccupied 5
prerequisite 5
present-@@ 5
prestige 5
prestigious 5
pretended 5
prevail 5
priceless 5
priests 5
prime-time 5
privately 5
pro 5
probes 5
procession 5
productions 5
prohi@@ 5
proliferate 5
prolific 5
promiscuous 5
prompted 5
pronunciation 5
proofs 5
propag@@ 5
propellant 5
propeller 5
propellers 5
prophetic 5
prophets 5
proportionate 5
props 5
prosaic 5
prosody 5
prosthetics 5
protectors 5
protested 5
prozac 5
psych 5
pulmonary 5
punchline 5
punctuated 5
pundits 5
puni@@ 5
purposeful 5
purse 5
push@@ 5
qatari 5
quadrant 5
quanti@@ 5
quarantine 5
quarter-@@ 5
quartet 5
quitting 5
r-@@ 5
r.@@ 5
rabbis 5
race@@ 5
rad 5
rags 5
rajasthan 5
ralph 5
randy 5
rankings 5
rants 5
rap@@ 5
ras 5
rash 5
raw@@ 5
raz@@ 5
realms 5
reas@@ 5
reasse@@ 5
reassured 5
recalling 5
receptacle 5
reclaiming 5
recluse 5
reconnecting 5
reconsider 5
recreating 5
redesigned 5
redistribution 5
reds 5
reductions 5
redundancy 5
redundant 5
refer@@ 5
referenced 5
refin@@ 5
reformed 5
refresher 5
refusing 5
regained 5
registry 5
regrow 5
regulates 5
regulators 5
rehabil@@ 5
rehearse 5
reintegration 5
reintroduce 5
rejecting 5
rejo@@ 5
rel 5
reliably 5
reliance 5
relic 5
relied 5
rem 5
remake 5
remembrance 5
reminding 5
remixing 5
removal 5
renny 5
reorganize 5
repaired 5
repairs 5
repeats 5
replay 5
repressive 5
reproducing 5
repu@@ 5
residence 5
resides 5
resonated 5
resonates 5
resourced 5
rested 5
restri@@ 5
restriction 5
restrictive 5
resume 5
resur@@ 5
resurrected 5
retrofitted 5
reusing 5
reuther 5
reversing 5
revert 5
revi@@ 5
rewind 5
rib 5
rich@@ 5
rico 5
rigor 5
risk-taking 5
ritalin 5
ritu@@ 5
rival 5
roadside 5
robbing 5
robes 5
rods 5
rogue 5
roll@@ 5
rollers 5
romanticize 5
romeo 5
rooftop 5
rovers 5
row@@ 5
royce 5
rube 5
rug 5
rum@@ 5
runaway 5
rup@@ 5
ry-@@ 5
s-on 5
s-worth 5
s.@@ 5
sacramento 5
sacredness 5
sacrificing 5
safeguard 5
sagan 5
sailors 5
sal 5
saliva 5
salman 5
salts 5
sam@@ 5
sams 5
sanccob 5
sandberg 5
santo 5
sargassum 5
sashimi 5
sation 5
sausages 5
savan@@ 5
savannah 5
saws 5
scan@@ 5
scandinavia 5
scapes 5
scarcely 5
scarves 5
schedules 5
schema 5
schism 5
scholarships 5
schulz 5
schwartz 5
scooter 5
scrambled 5
scrat@@ 5
screenshot 5
scribe 5
scrolling 5
sculptor 5
seafarers 5
sear@@ 5
sears 5
seaweed 5
seclu@@ 5
secretion 5
seeding 5
self-assembling 5
self-aware 5
self-destructive 5
self-fulfilling 5
self-knowledge 5
selfishness 5
sensibly 5
seoul 5
sequester 5
sermon 5
serpent 5
servicing 5
seventeenth 5
seventy 5
seventy-@@ 5
sewers 5
sexist 5
seye 5
shades 5
shadowy 5
shalt 5
shameful 5
share@@ 5
shawn 5
sheds 5
sheikh 5
shepher@@ 5
shire 5
shirin 5
shred 5
shree 5
shrunk 5
shyness 5
siberian 5
sichuan 5
sigmoidal 5
signaling 5
simplifying 5
simulating 5
simultaneous 5
sincerity 5
sioning 5
siri 5
sitopia 5
sity 5
six-word 5
sj 5
skim 5
slam 5
sleep-deprived 5
sley 5
slin@@ 5
slingers 5
slippers 5
slovenia 5
smack 5
small-@@ 5
smits 5
snails 5
snapped 5
snea@@ 5
snipers 5
snippet 5
snippets 5
soap@@ 5
socialization 5
sociology 5
sodas 5
solvable 5
sonic 5
soot 5
sorting 5
southwest 5
sow 5
spa@@ 5
spacewalk 5
spawning 5
spec@@ 5
specialty 5
species-specific 5
spect@@ 5
speculate 5
speculated 5
speculative 5
sped 5
spee@@ 5
sper@@ 5
spherical 5
spilled 5
spiraling 5
spla@@ 5
splits 5
spock 5
spotting 5
spouses 5
spr@@ 5
spreadsheets 5
sprinting 5
spu@@ 5
sq. 5
squatter 5
squishy 5
ss-@@ 5
ssa 5
ssion@@ 5
stac@@ 5
stadiums 5
staged 5
stagnating 5
stair@@ 5
stalled 5
starship 5
starter 5
startups 5
stat 5
statesmen 5
steffen 5
step-by-step 5
stephanie 5
stereoty@@ 5
stically 5
stifle 5
stitch 5
store@@ 5
strawberries 5
streak 5
strider 5
striped 5
strom 5
stron@@ 5
stru@@ 5
studios 5
stumbling 5
stunted 5
stupidity 5
stutter 5
stygimoloch 5
styling 5
sub-prime 5
subjected 5
submerged 5
submissions 5
subtraction 5
subversive 5
suff@@ 5
sugata 5
suing 5
sulfates 5
sum@@ 5
sunflower 5
sunflowers 5
sung 5
superhydrophobic 5
supernormal 5
superorganism 5
superstring 5
supplements 5
supplier 5
supplying 5
suring 5
surpassed 5
surre@@ 5
susana 5
suu 5
swahili 5
swam@@ 5
swamp 5
sweater 5
sweatshirt 5
sweetheart 5
swelling 5
swimmer 5
synapse 5
synaptic 5
synchron@@ 5
synchronize 5
synecdochically 5
synesthesia 5
synthesizer 5
synthesizers 5
szymborska 5
t-like 5
t.@@ 5
tailor 5
tailored 5
take@@ 5
taker 5
tamara 5
tame 5
tans 5
taping 5
taps 5
tattooed 5
taxpayer 5
te-@@ 5
tec 5
tectonic 5
ted2008 5
ted2012 5
tedious 5
teds 5
teeming 5
teeny 5
telltale 5
tenacious 5
tenacity 5
teresa 5
termed 5
terrace 5
territories 5
tes@@ 5
testify 5
tethered 5
tg 5
tha@@ 5
thal@@ 5
thaler 5
thankful 5
therine 5
thfulness 5
thighs 5
thirsty 5
thousand-@@ 5
thouse 5
threads 5
throwaway 5
tia 5
tibetan 5
ticks 5
tidied 5
til 5
tilting 5
tim@@ 5
timeless 5
timescale 5
timothy 5
tiness 5
ting@@ 5
tionary 5
tious 5
titill@@ 5
tivism 5
tiz@@ 5
tl@@ 5
tman 5
toa@@ 5
tolls 5
tombo 5
topo@@ 5
topsoil 5
torah 5
torajans 5
tornadoes 5
torso 5
tort 5
tos 5
toughness 5
toxin 5
traced 5
traction 5
trade-off 5
trademark 5
tradeoff 5
trails 5
trans 5
trans-@@ 5
transcends 5
transcripts 5
transgender 5
transgendered 5
transi@@ 5
translucent 5
transmitter 5
transplanting 5
tread 5
trekking 5
trio 5
trip@@ 5
tripod 5
tritium 5
troubles 5
trumpet 5
tty 5
tubing 5
tum 5
tundra 5
tune@@ 5
turin 5
turner 5
tutsi 5
tv-industrial 5
tweeted 5
twentieth 5
two- 5
two-hour 5
tyler 5
tz@@ 5
tzu 5
u-@@ 5
u.@@ 5
u.c. 5
ukrainian 5
ulcer 5
ultra-dense 5
unaids 5
unarmed 5
uncanny 5
uncharted 5
uncontrolled 5
undering 5
underpins 5
understandings 5
undertake 5
undertaken 5
undertaking 5
unex@@ 5
unexpectedly 5
unicorn 5
uniformly 5
unimportant 5
uninterrupted 5
unnecessarily 5
unorthodox 5
upbringing 5
upstate 5
upstream 5
uranus 5
urchin 5
urs 5
use@@ 5
utilities 5
vaccin@@ 5
vag@@ 5
vaginas 5
validation 5
vanier 5
varies 5
varsity 5
vas@@ 5
vastness 5
vectors 5
vels 5
velvet 5
veneer 5
veness 5
verifiable 5
verted 5
vets 5
vey 5
viability 5
vial 5
viewpoints 5
vil@@ 5
vine@@ 5
vintage 5
violinist 5
virtuality 5
virtuoso 5
visionaries 5
visitor 5
vitality 5
vitro 5
vivre 5
voiceless 5
voicemails 5
volta 5
volts 5
volumetric 5
voy@@ 5
wael 5
wald 5
walkers 5
walt 5
wand 5
ware 5
warned 5
warping 5
wastewater 5
wat@@ 5
water-@@ 5
watered 5
watermarks 5
watermelon 5
waterproof 5
watershed 5
waterways 5
weakened 5
weaponry 5
weather@@ 5
webb 5
webs 5
weed 5
weeds 5
weekday 5
wei 5
weightlessness 5
welder 5
well-designed 5
wer@@ 5
wet@@ 5
whewell 5
whichever 5
whimsical 5
whisper 5
whiz 5
whole-hearted 5
wiki@@ 5
willow 5
willy 5
winters 5
wiping 5
wishbone 5
wishing 5
wislawa 5
withheld 5
witty 5
wok 5
woken 5
wom@@ 5
womanhood 5
worcester 5
worldly 5
wormwood 5
worrisome 5
wrenching 5
wretched 5
wrink@@ 5
www.@@ 5
wyoming 5
x. 5
xi 5
xia 5
xu 5
y-axis 5
yar@@ 5
yaw 5
yb 5
yer@@ 5
yew 5
yi 5
yl 5
yman 5
your-@@ 5
youthful 5
yugoslavia 5
zaire 5
zappos 5
zhou 5
zimbardo 5
zooming 5
zuckerberg 5
&apos;an 4
&apos;ivoire 4
,000-dollar 4
-by-@@ 4
-looking 4
-makers 4
-minded 4
-related 4
-shaped 4
-type 4
.3 4
.d. 4
0,000 4
0.5 4
0.6 4
0.7 4
000 4
1.25 4
10-digit 4
10-foot 4
100th 4
102 4
103 4
104 4
106 4
11-year-old 4
117 4
13-@@ 4
13-year-old 4
14-@@ 4
140,000 4
156 4
160,000 4
17,000 4
1759 4
18,000 4
18-@@ 4
1812 4
1875 4
1880 4
1885 4
1890 4
190 4
1908 4
1912 4
1915 4
1939 4
1941 4
1944 4
1952 4
1964 4
197@@ 4
19th-century 4
1st 4
2,200 4
2,300 4
2-@@ 4
2.2 4
2.4 4
2.7 4
20-minute 4
20-year 4
2025 4
22nd 4
24-@@ 4
24th 4
256 4
26-year-old 4
260 4
28@@ 4
28th 4
3,500 4
3.2 4
3.3 4
35,000 4
38,@@ 4
3m 4
3rd 4
413 4
420 4
44,000 4
450,000 4
46664 4
4d 4
5-year-old 4
5.5 4
544 4
6,@@ 4
6.9 4
6.@@ 4
65,000 4
65-year-old 4
683 4
69 4
7,500 4
75,000 4
78@@ 4
8-year-old 4
8.1 4
80-@@ 4
826 4
9-@@ 4
900-@@ 4
996 4
999 4
a-one-two-three-four 4
a4 4
aaa 4
aaaa@@ 4
abbott 4
abdi 4
abdom@@ 4
aberdeen 4
abian 4
abject 4
able-@@ 4
abnormality 4
aboli@@ 4
abomination 4
abrahams 4
abruptly 4
absolu@@ 4
absor@@ 4
absorber 4
abyss 4
accessed 4
acco@@ 4
accommodation 4
accumulates 4
achill 4
acies 4
acknowledgment 4
acquain@@ 4
acquires 4
acquisitions 4
acroba@@ 4
acs 4
action-packed 4
actionable 4
acu@@ 4
adam@@ 4
adap@@ 4
addicts 4
adequ@@ 4
adhd 4
adher@@ 4
adhesive 4
adje@@ 4
adjusts 4
administrative 4
adol@@ 4
adversarial 4
adversaries 4
advertised 4
aerospace 4
affi@@ 4
affiliated 4
affirm 4
affor@@ 4
after-@@ 4
aga@@ 4
agarikon 4
agility 4
agitating 4
agony 4
agre@@ 4
ahen 4
ahn 4
aided 4
airbag 4
airlines 4
airways 4
ak-@@ 4
aka 4
ala 4
alanine 4
alarmed 4
alas@@ 4
alcoholic 4
alcoholism 4
aler@@ 4
ales 4
alex@@ 4
algerian 4
aligning 4
alisms 4
aliz@@ 4
all-important 4
alleg@@ 4
allegiance 4
allegiances 4
allocated 4
alma 4
alties 4
alway@@ 4
aly 4
aman 4
amas 4
amaz@@ 4
amaze 4
amazes 4
amazon@@ 4
ambivalent 4
amed 4
amend@@ 4
american-@@ 4
ames 4
amidst 4
aming 4
amoeba 4
amos 4
ample 4
amplified 4
amplitude 4
analo@@ 4
analyzes 4
ananda 4
anat@@ 4
anatom@@ 4
anatomage 4
anatomical 4
anatomists 4
and-a-half-@@ 4
anda 4
andr@@ 4
andre 4
androids 4
ane@@ 4
anesthesi@@ 4
ang 4
angelo 4
angrier 4
anguish 4
angular 4
anil 4
ankle 4
annihil@@ 4
annoyance 4
annu@@ 4
ano@@ 4
ant-@@ 4
antennas 4
anthropic 4
anti-quorum 4
anticip@@ 4
antiques 4
antithesis 4
anyhow 4
apathetic 4
ape 4
aphorisms 4
aphrodisiac 4
api@@ 4
apnea 4
apocalyptic 4
apollonian 4
apology 4
appeals 4
appendages 4
appetites 4
applau@@ 4
apple@@ 4
appointed 4
appreci@@ 4
apprenticeship 4
approximate 4
aptly 4
aquanauts 4
arable 4
arbit@@ 4
arcade 4
archaeological 4
archeologists 4
architectures 4
arduous 4
aremeyaw 4
areolar 4
arest 4
ari 4
arianism 4
arist 4
arium 4
arius 4
armenian 4
aroma 4
aron 4
arouse 4
arran@@ 4
art-@@ 4
articulation 4
artisanal 4
aru@@ 4
aser 4
ashes 4
asians 4
asperger 4
aspired 4
assa@@ 4
assassin@@ 4
assassinated 4
assaul@@ 4
assessing 4
associating 4
astute 4
ataturk 4
ater 4
athens 4
atmo@@ 4
atom@@ 4
atra 4
attac@@ 4
attain 4
attained 4
attendant 4
attracting 4
aubrey 4
aud@@ 4
aunts 4
aus@@ 4
austerity 4
authentically 4
authoritarianism 4
autop@@ 4
autopilot 4
auxiliary 4
aver@@ 4
avril 4
awakened 4
awww 4
ayelet 4
aylward 4
bacill@@ 4
back-to-@@ 4
backbone 4
backdoor 4
backside 4
baffling 4
baggage 4
bakeries 4
bale 4
ball-@@ 4
ballbot 4
bamiyan 4
band-aid 4
bangladeshi 4
banished 4
baraniuk 4
barb@@ 4
barbed-wire 4
barber@@ 4
barge 4
barley 4
barnett 4
barri@@ 4
barón 4
bashed 4
bastards 4
battalions 4
battlefields 4
bayon@@ 4
[...]
