, 117978
. 116107
và 61787
tôi 61539
là 55454
một 48314
có 47968
chúng 42916
những 36840
của 34118
không 30893
bạn 28679
ta 28565
đó 28524
người 25695
trong 24595
thể 22720
các 22542
này 21913
đã 21584
được 20955
nó 19703
với 19505
cho 18547
&quot; 18537
sự 18293
ra 17524
làm 17393
ở 16358
điều 15689
để 15449
như 15178
mà 15087
về 14901
sẽ 14820
thế 14523
họ 13962
khi 13784
đây 12330
nói 12029
nhưng 11888
đến 11110
? 11017
phải 11003
vào 10506
vì 10438
việc 10246
từ 10244
gì 10212
rằng 10199
đang 10137
rất 10015
lại 9789
thấy 9727
cách 9570
nhiều 9393
hơn 9350
thực 9320
đầu 8904
con 8689
cả 8681
cái 8487
học 8296
công 8267
khác 8222
vậy 8196
trên 8193
chỉ 8179
nào 7921
biết 7769
năm 7550
thứ 7524
nghĩ 7164
nếu 7130
đi 7064
thành 6966
cũng 6885
: 6827
nhà 6607
số 6460
-- 6444
nên 6303
muốn 6287
quan 6287
bị 6269
anh 6097
mình 5967
tại 5958
chính 5936
nhất 5919
giờ 5895
tạo 5790
động 5789
giới 5658
ông 5648
1 5605
hiện 5525
mọi 5525
bởi 5486
tất 5409
hình 5322
cảm 5189
hay 5080
sống 5067
thật 5039
nhận 5031
sau 5024
cuộc 4989
cần 4959
ý 4947
thì 4887
còn 4885
theo 4730
tự 4721
đề 4693
bắt 4614
câu 4600
nhìn 4592
tới 4554
bằng 4525
ấy 4523
cùng 4481
lớn 4454
bản 4442
ngày 4409
sao 4347
thời 4325
tế 4324
bộ 4292
tin 4289
dụng 4280
lên 4275
trước 4245
cơ 4218
chuyện 4188
trở 4154
nhân 4127
sinh 4099
qua 4085
phần 4026
nước 3992
năng 3941
vấn 3918
thay 3910
toàn 3909
phát 3881
đổi 3854
thông 3819
nơi 3809
gia 3794
tìm 3715
trường 3707
nhau 3689
định 3685
mới 3678
nhiên 3645
tốt 3618
tính 3576
kết 3564
sử 3548
hệ 3536
rồi 3522
tưởng 3513
lý 3499
trình 3482
hàng 3479
cô 3478
vật 3465
hỏi 3408
máy 3361
liệu 3331
mặt 3325
ảnh 3276
tiếp 3268
hợp 3250
hãy 3210
kinh 3194
ai 3155
hành 3153
nữa 3147
do 3133
thiết 3114
gian 3113
hội 3101
hoá 3095
xem 3095
hai 3089
thích 3027
thức 3026
trung 3015
vị 3002
trọng 2996
giải 2943
vài 2941
đồng 2940
trẻ 2915
độ 2913
đối 2912
lượng 2886
bất 2840
thường 2835
giống 2828
lần 2815
đều 2810
tiên 2793
loại 2771
quá 2767
nay 2720
bao 2707
sáng 2695
hiểu 2659
tâm 2651
bệnh 2617
nghệ 2597
điểm 2591
thống 2588
cứu 2587
nghĩa 2565
viên 2542
gọi 2528
đại 2521
tương 2505
hoàn 2499
nhỏ 2482
quốc 2459
lúc 2454
mỗi 2427
hoặc 2425
bây 2423
đường 2411
đưa 2409
quả 2388
tác 2385
chiếc 2377
vẫn 2374
nghiệm 2367
bên 2333
xảy 2309
dùng 2302
thuật 2257
khoảng 2244
đất 2244
biệt 2238
dân 2237
từng 2218
nghe 2216
đúng 2214
tuyệt 2208
ăn 2192
diễn 2187
chuyển 2180
quyết 2164
triển 2161
cao 2148
giáo 2140
chất 2121
phụ 2114
trị 2109
cầu 2091
liên 2089
kế 2077
ơn 2069
lời 2057
lực 2053
bảo 2047
cố 2035
tiến 2006
giá 1999
em 1998
ngay 1998
chưa 1996
hết 1987
phòng 1980
nghiên 1962
nữ 1960
tình 1954
xuất 1941
giúp 1934
đơn 1933
bình 1920
phân 1917
xe 1917
phương 1907
não 1904
điện 1904
tiếng 1893
tuổi 1879
kỳ 1876
truyền 1870
tranh 1868
cuối 1864
tập 1864
mang 1857
đặt 1856
tiền 1848
tượng 1843
bài 1840
tay 1840
khoa 1831
sản 1824
biến 1823
pháp 1818
trả 1808
gần 1807
giữa 1805
lấy 1800
yêu 1790
thú 1786
khả 1780
2 1760
chiến 1755
cá 1723
hoạt 1720
cứ 1717
dự 1712
đáng 1700
bỏ 1699
chủ 1694
sách 1689
khó 1677
xã 1673
mỹ 1669
dụ 1663
phẩm 1661
kể 1656
hiệu 1651
mất 1650
bức 1646
sức 1643
bà 1637
thân 1632
chơi 1628
đấy 1625
loài 1614
đời 1608
ít 1607
đồ 1607
tên 1602
ngoài 1598
minh 1586
bé 1570
tài 1563
luôn 1562
âm 1551
ba 1543
thử 1543
nghiệp 1540
lập 1539
chí 1534
mạnh 1531
cộng 1528
tinh 1527
xây 1526
ví 1523
tiêu 1516
dẫn 1514
văn 1506
trí 1499
mô 1497
tử 1494
vô 1492
chứng 1487
- 1486
dựng 1483
nguyên 1481
mẹ 1472
hướng 1463
thu 1462
viết 1448
đâu 1446
giả 1445
nhạc 1436
phố 1434
trái 1426
chọn 1425
đặc 1420
vời 1418
kiến 1415
tư 1412
ứng 1405
giản 1401
đứa 1398
bào 1396
quyền 1385
chức 1383
triệu 1383
nền 1380
chế 1378
chết 1375
màu 1369
vi 1369
đạo 1366
tăng 1364
khí 1361
suy 1361
mạng 1358
cấp 1354
lẽ 1339
sĩ 1333
thần 1332
tháng 1331
khá 1326
cực 1319
xin 1318
di 1315
dù 1305
phá 1305
đánh 1305
dưới 1302
khỏi 1299
thị 1298
chắc 1295
hôm 1291
chẳng 1287
chút 1286
khu 1286
gặp 1283
rõ 1281
thêm 1277
xuống 1274
3 1273
vụ 1272
phi 1256
xác 1244
gắng 1243
quay 1238
nhóm 1237
khiến 1236
quanh 1236
dữ 1235
án 1232
phép 1230
dịch 1226
% 1223
mở 1222
mức 1219
tổ 1219
bay 1218
vực 1213
tham 1203
trò 1200
dạng 1197
nhanh 1192
thuyết 1191
đàn 1189
cụ 1181
nguồn 1174
cảnh 1173
đôi 1173
vùng 1166
càng 1164
gây 1162
báo 1161
châu 1161
dễ 1157
vọng 1157
chia 1155
giác 1152
phía 1150
vũ 1150
thậm 1147
tục 1144
sát 1138
đẹp 1137
đoạn 1135
trang 1133
xa 1124
biểu 1122
nhớ 1122
đủ 1122
cây 1120
phim 1107
kiểm 1092
duy 1088
10 1083
thương 1080
hưởng 1077
kì 1075
dài 1069
ngữ 1060
vòng 1060
hồi 1049
phản 1049
chú 1044
giảm 1039
cậu 1034
thôi 1032
luận 1022
kia 1021
chân 1020
trời 1018
... 1011
bước 1011
vừa 1011
dục 1008
kiếm 999
ty 996
lợi 994
tích 992
hầu 991
mục 990
thuốc 984
toán 982
giao 980
lai 977
trăm 977
vâng 976
so 972
môi 970
thư 967
đầy 967
đình 964
hạn 954
diện 951
địa 949
tồn 946
; 943
luật 938
sai 938
trải 938
sâu 936
bố 935
giữ 934
lòng 930
thanh 929
tạp 929
phục 928
thí 922
dạy 919
dành 918
thuộc 918
đoán 916
nối 914
riêng 914
lịch 913
tối 911
đứng 911
căn 907
vẻ 907
rộng 906
sợ 904
phủ 902
vệ 901
kỹ 900
chi 899
trông 896
mẫu 894
đô 894
mắt 893
đạt 889
bàn 888
đọc 886
ấn 882
thúc 881
ánh 880
lệ 878
nổi 877
xung 876
thái 875
chạy 872
trụ 871
! 868
chương 860
kỷ 858
lớp 857
quy 855
cuốn 854
ngồi 849
tiết 842
yếu 842
khắp 834
phút 834
vui 831
ngôn 829
thiên 828
biển 827
chắn 825
suốt 824
khoẻ 819
gái 818
kiểu 816
mua 813
mối 810
sẻ 809
kiện 808
trợ 807
buổi 804
chung 802
cánh 795
đông 795
tuần 794
y 794
trúc 792
cửa 785
tỉ 783
vận 780
hoa 778
doanh 777
nam 777
viện 774
bán 772
sư 772
20 771
xét 771
sở 770
sắc 768
khám 762
xúc 762
ngạc 761
lâu 760
ràng 760
cấu 756
&apos; 751
nhiệm 748
chụp 745
ngôi 745
hiểm 742
nằm 737
băng 736
hoà 735
quý 735
thoại 735
5 732
mặc 732
phức 732
đa 730
bóng 729
nhập 729
kích 727
bác 721
ban 718
chuyên 714
ngành 713
chứ 711
4 709
cạnh 709
độc 709
kẻ 707
phí 707
hạnh 703
cung 702
chỗ 700
hữu 700
khủng 695
đức 692
thập 685
tấm 683
tra 681
vẽ 680
trưởng 679
tổng 678
an 677
la 675
ghi 671
chuẩn 667
phúc 666
tệ 666
xanh 666
hề 664
chịu 663
tức 661
sắp 656
lắng 654
nhiêu 653
to 652
hơi 650
khăn 650
phạm 650
ích 650
tây 648
thiếu 647
sẵn 646
thất 644
hoạ 642
áp 641
tái 639
bánh 638
lạc 637
đau 636
mong 635
chống 634
đóng 632
lạ 628
toà 628
niệm 625
dựa 622
dung 621
lựa 617
nội 616
trai 614
tỷ 614
cải 612
may 611
hạt 610
xử 608
đội 608
cha 607
đột 606
hy 602
trực 600
ẩn 600
da 596
gửi 594
mật 591
khắc 589
danh 588
tầm 587
vượt 587
hậu 586
dương 585
tim 584
kính 583
lưu 582
ngoại 580
nguy 580
chăm 579
xấu 578
nhiệt 575
dầu 574
ted 574
hộ 573
chiều 569
dấu 568
dần 568
trạng 568
thiện 566
hứng 565
ngược 564
lo 562
niềm 561
30 560
tội 559
sang 551
thủ 551
ung 550
chữ 548
ước 548
lãnh 545
cổ 544
nghèo 543
nạn 543
đen 541
khách 539
đấu 539
kéo 538
nỗi 538
thách 534
đẩy 534
tuy 530
cận 529
nuôi 529
tắc 527
nửa 524
new 522
tố 522
quân 521
giấy 518
khối 518
lí 514
chữa 513
bại 512
nhờ 511
lỗi 510
quản 509
dây 507
tốc 507
ngủ 504
tiện 504
50 503
lĩnh 503
đừng 503
bắc 502
cắt 499
nhiễm 498
khiển 497
soát 497
chị 495
mắc 492
nghi 490
100 488
điển 488
hoạch 487
hát 486
xếp 485
6 484
bốn 484
tả 483
đích 483
chiếu 482
nhật 482
thẳng 482
gồm 481
quen 481
giết 480
hại 480
cử 478
dòng 478
phóng 478
cười 477
gấp 477
lái 477
sóc 476
thấp 476
tàu 476
đêm 475
đá 474
bầu 473
internet 473
mơ 472
khán 471
phong 471
thi 471
lan 469
cập 468
dàng 468
giai 466
ngắn 465
ô 465
chấp 462
khai 462
giây 460
lưới 460
cám 459
chúa 458
lắm 458
niên 458
nông 458
ngân 457
rối 457
sàng 456
chuyến 454
kỉ 453
cư 452
cáo 451
gốc 451
hồ 451
siêu 450
bày 449
đổ 449
trách 448
vai 448
/ 447
tận 447
cân 445
đợi 445
bí 444
ngàn 443
nhảy 443
sân 442
tôn 442
ảo 442
dừng 441
phẫu 441
mê 440
xuyên 440
gắn 439
ngờ 439
đỡ 439
đem 437
nghị 436
kĩ 434
chim 432
mã 430
màn 429
âu 429
hài 427
bạo 426
cháu 425
thụ 425
ký 423
tầng 419
đỏ 413
video 412
phổ 409
tải 409
gen 407
khởi 407
mùa 407
đo 407
lao 406
mấy 406
hộp 405
chỉnh 404
đảm 404
góc 402
hấp 401
ổn 400
chuột 399
nhắc 399
khuôn 398
món 397
dĩ 396
hút 396
thải 396
hẳn 395
rừng 395
khái 394
mạch 394
nghiêm 394
ngăn 394
tù 394
15 392
coi 389
lá 388
già 387
luyện 383
trừ 383
in 382
tín 380
đám 380
ca 378
giàu 378
phận 378
giọng 375
môn 375
quyển 375
tai 375
huỷ 374
đảo 374
chứa 373
thơ 372
tuyến 372
vân 371
thắng 370
tấn 370
liệt 369
nặng 367
york 365
ống 364
hạ 363
chờ 362
trùng 362
robot 361
chủng 360
ồ 360
máu 359
buộc 358
nóng 358
bang 357
sóng 357
phù 356
chóng 355
trao 355
buồn 353
dậy 353
mềm 353
web 353
uống 352
điên 352
tồi 351
cũ 349
mắn 349
thảo 349
miễn 348
đương 348
kim 347
rời 347
lầm 344
bảng 343
hãi 343
sơ 343
tránh 343
trắng 343
tảng 343
dưỡng 342
quảng 342
thiệu 342
xu 342
đáp 342
mẽ 341
loạn 340
đào 340
dõi 339
khoản 338
tường 338
chàng 337
linh 336
lạnh 336
mái 335
đèn 335
cơn 334
khổng 333
vững 333
7 332
góp 332
sửa 332
thưởng 332
tờ 332
lộ 331
đói 330
lồ 328
mảnh 328
đỉnh 327
8 326
núi 324
áo 324
dường 323
hiển 323
quên 323
tốn 323
tổn 323
12 321
tiểu 320
trận 320
à 320
hảo 318
nhu 316
quần 315
diệu 314
tộc 314
9 313
trồng 313
mời 312
phỏng 312
chấm 311
lẫn 311
giỏi 310
quỹ 310
rơi 310
vàng 309
chạm 307
cầm 307
nghìn 307
bữa 305
mãi 304
du 303
khuẩn 303
lương 303
ong 302
vợ 302
ủng 302
40 301
bề 301
sánh 301
xương 301
bật 299
nổ 298
phấn 298
trì 298
chồng 297
hôn 297
cỡ 296
thịt 296
chiếm 294
khoá 294
tiềm 294
gió 293
nghỉ 293
tách 293
vốn 292
ngừng 290
điệu 290
biên 289
bền 289
làng 289
hà 288
ghế 287
hoảng 287
lửa 287
khẩu 286
nắm 286
chào 285
hào 284
hỗ 284
&#91; 283
hi 283
sớm 283
khích 282
vĩ 282
phối 281
sáu 281
sót 281
&#93; 280
chảy 280
rút 280
vỡ 280
đằng 280
chuỗi 278
trại 278
kịch 277
bọn 275
nghề 275
google 272
lối 272
suất 272
chậm 271
nhé 271
tắt 271
loạt 269
tàn 269
giấc 268
khổ 268
thoát 268
trữ 265
viễn 265
bè 264
gợi 263
kiệm 262
phê 262
khứ 261
kê 260
lỗ 260
sạch 260
túi 260
phiên 259
đăng 259
chó 258
tán 258
sỹ 257
trưng 256
80 255
cờ 255
nguyện 254
dặm 253
sông 253
kháng 252
vết 251
ok 250
thước 250
bơi 249
ngại 249
nhắn 248
sốt 248
khoảnh 247
thảm 247
ma 246
ngài 245
thăm 245
cà 244
kém 244
lặp 244
thoả 244
đuổi 244
25 243
lọc 243
quang 243
tàng 243
bờ 242
nâng 242
thở 240
voi 240
60 239
lặng 239
nỗ 238
tròn 236
ghép 235
tô 234
bò 233
mùi 232
nhẹ 232
vỏ 232
hoang 231
hùng 231
thánh 231
điệp 231
ưu 231
hổ 230
trống 229
hắn 228
rẻ 228
11 227
hoàng 227
họp 227
lục 226
ngẫu 226
thuỷ 226
đựng 225
ko 224
rác 224
thuận 224
giám 223
thừa 223
tan 222
u 222
hiệp 221
lính 221
san 221
đạp 221
hiv 220
xoay 220
lành 219
đẳng 219
mù 218
trích 218
đoàn 218
lễ 217
thác 217
chặt 216
nhựa 216
doạ 215
lãng 215
mừng 215
đam 214
cấy 213
cục 213
miếng 213
ngang 213
thang 213
sợi 211
cãi 210
lắp 210
thầy 210
lược 209
ngoái 209
tuyên 209
đòi 209
bảy 208
90 207
giảng 207
nhịp 207
nấm 207
thai 207
yên 207
can 206
mại 206
mực 206
thận 206
chép 205
mây 205
nhuận 205
tri 205
tật 205
đống 205
huống 204
hương 204
mập 204
sổ 204
đe 204
$ 203
bắn 203
chặn 203
thao 202
khung 201
súng 201
vú 201
18 200
hiếm 200
đùa 200
ả 200
cản 199
chán 198
diệt 198
200 197
bom 197
cặp 197
cứng 197
liền 197
70 196
bối 196
côn 196
hoả 196
lừa 196
rập 196
thù 196
vong 196
đua 196
gỗ 195
phiếu 195
ám 195
móc 194
tiêm 194
cát 193
khấu 193
đập 193
lũ 191
ngọn 191
trào 191
khía 190
tá 190
béo 189
dối 189
hè 189
thấu 189
thờ 189
hối 188
kí 188
mét 188
thoải 188
bậc 187
triết 187
cam 186
chốt 186
hỗn 186
mạc 186
nhằm 186
the 186
hải 185
tràn 185
tỏ 184
song 183
adn 182
rượu 182
thuyền 182
căng 181
e 181
khảo 181
thuỵ 181
mưa 180
mì 179
mũi 179
ngón 179
nút 179
a 178
chối 178
huấn 178
ngưỡng 178
ác 178
sụp 177
ạ 177
ghét 176
afghanistan 174
che 174
cụt 174
óc 174
khuyến 173
mỏ 173
truy 173
ức 173
kêu 172
trứng 172
xong 172
bi 171
bông 171
cháy 171
thọ 171
đảng 171
săn 170
túc 170
tỉnh 170
đắt 170
biện 169
bột 169
nhũng 169
sa 169
vườn 169
đài 169
bãi 168
gọn 168
mạo 168
dày 167
iran 167
nấu 167
táo 167
cột 166
giành 166
thiểu 166
cỏ 165
cỗ 165
david 165
hiến 165
xoá 165
chừng 164
dọc 164
khiếp 164
mai 164
thả 164
tia 164
trầm 164
đốc 164
john 163
khát 163
protein 163
thuê 163
tóm 163
binh 162
dinh 162
miền 162
xứng 162
á 162
giận 161
rủi 161
thạch 161
tạm 161
đắn 161
bạc 160
ngũ 160
ly 159
nhỉ 159
thuần 159
thổ 159
tụ 159
mộ 158
truyện 158
đốt 158
16 157
huyết 157
miệng 157
than 157
tv 157
cẩn 156
leo 156
mò 156
mĩ 156
phán 156
ro 156
thưa 156
xưa 156
ấm 156
hồn 155
khóc 155
nhấn 155
21 154
dị 154
lộn 154
mẩu 154
phó 154
răng 154
thiệp 154
tuỳ 154
đĩa 154
game 153
tặng 153
xâm 153
14 152
bạch 152
rưỡi 152
rắc 152
tám 152
.. 151
gương 151
huy 151
mát 151
rào 151
thẩm 151
cốc 150
gà 150
lão 150
ném 150
trộn 150
chu 149
dàn 149
dính 149
cốt 148
phổi 148
tóc 148
ổ 148
lỏng 147
đón 147
đậu 147
chẩn 146
miêu 146
quét 146
quê 146
cường 145
ngầm 145
ngựa 145
thượng 145
trạm 145
xạ 145
hạng 144
mèo 144
vuông 144
pin 143
trắc 143
500 142
giày 142
hước 142
hẹn 142
quí 142
thoảng 142
trăng 142
tuyết 142
tò 142
đớn 142
hằng 141
quái 141
trôi 141
khô 140
kiên 140
tuệ 140
facebook 139
i 139
nha 139
rồ 139
giường 138
ngã 138
quán 138
thỉnh 138
tiếc 138
đáy 138
lưng 137
nga 137
nhạy 137
trần 137
đếm 137
california 136
chai 136
lẻ 136
13 135
hoại 135
lây 135
chăng 134
cụm 134
gã 134
hứa 134
israel 134
nét 134
nướng 134
dna 133
dán 133
im 133
kênh 133
mãn 133
đeo 133
17 132
bổ 132
chris 132
giơ 132
gói 132
lâm 132
thợ 132
cong 131
hỏng 131
thói 131
tân 131
24 130
blog 130
đế 130
2000 129
bụng 129
vinh 129
-@@ 128
brazil 128
giấu 128
ngon 128
quà 128
virus 128
đực 128
chấn 127
hô 127
kèm 127
lệnh 127
mẻ 127
tiệc 127
tĩnh 127
ơi 127
dao 126
khoan 126
lôi 126
s@@ 126
ư 126
bão 125
cú 125
dã 125
email 125
gián 125
ép 125
ôi 125
hang 124
heo 124
hàm 124
hố 124
trục 124
cúm 123
khao 123
khuyên 123
ninh 123
phiền 123
trốn 123
va 123
19 122
dò 122
dứt 122
gỡ 122
long 122
sữa 122
trưa 122
x-quang 122
canada 121
cất 121
dược 121
hư 121
mexico 121
mệnh 121
thuế 121
camera 120
kenya 120
lãm 120
sàn 120
300 119
khỉ 119
lặn 119
mờ 119
tháp 119
buôn 118
ngọt 118
nàng 118
t@@ 118
thăng 118
chìm 117
liều 117
thiệt 117
– 117
al 116
bùng 116
gấu 116
ti 116
tung 116
&apos;s 115
aids 115
bill 115
bụi 115
c 115
cấm 115
dáng 115
lõi 115
muỗi 115
rét 115
bận 114
bếp 114
chìa 114
gõ 114
london 114
làn 114
thẻ 114
xinh 114
feet 113
hàn 113
iraq 113
lang 113
ngu 113
rau 113
thùng 113
thổi 113
tắm 113
ưa 113
bong 112
dư 112
kín 112
nảy 112
nốt 112
sưu 112
tí 112
khớp 111
lăn 111
nho 111
pha 111
rô 111
trượt 111
tươi 111
vua 111
bó 110
c@@ 110
co2 110
dãy 110
giam 110
phì 110
tướng 110
úc 110
b 109
bốt 109
cuộn 109
ngắm 109
nhẫn 109
phạt 109
t 109
thua 109
thám 109
thịnh 109
tủ 109
x 109
b@@ 108
hồng 108
mũ 108
oh 108
quãng 108
tị 108
3d 107
hầm 107
lông 107
ngốc 107
nhắm 107
phái 107
phú 107
sơn 107
châm 106
khôn 106
lướt 106
lường 106
mạn 106
ngập 106
rãi 106
say 106
tháo 106
trà 106
chúc 105
su 105
vắc 105
đâm 105
chà 104
d@@ 104
nhãn 104
nở 104
slide 104
sung 104
đuôi 104
bọ 103
gdp 103
lát 103
nghịch 103
nhiếp 103
nọ 103
tuyển 103
vây 103
bớt 102
hãng 102
quát 102
twitter 102
ồn 102
dám 101
l@@ 101
mười 101
mấu 101
xóm 101
điêu 101
cưỡng 100
cậy 100
einstein 100
gánh 100
khơi 100
400 99
chước 99
chục 99
kho 99
ngực 99
ranh 99
thính 99
h@@ 98
lò 98
nhở 98
nắng 98
sứ 98
carbon 97
cưới 97
cởi 97
gan 97
lùi 97
lạm 97
thâm 97
thô 97
van 97
dắt 96
hòn 96
hệt 96
kịp 96
toả 96
washington 96
150 95
bút 95
khúc 95
tuý 95
vải 95
charles 94
de 94
george 94
muộn 94
n@@ 94
trấn 94
tần 94
vịnh 94
vở 94
website 94
đới 94
chín 93
duyệt 93
múa 93
mệt 93
nghiện 93
nigeria 93
phẳng 93
tha 93
cối 92
hưu 92
m@@ 92
mày 92
nợ 92
sốc 92
&amp; 91
cướp 91
gene 91
lật 91
rửa 91
thằng 91
2008 90
chở 90
dải 90
g@@ 90
ga 90
khôi 90
mỏi 90
paul 90
rung 90
đố 90
and 89
khói 89
nhặt 89
rễ 89
sạn 89
treo 89
đồi 89
1000 88
cuồng 88
d 88
khoái 88
mồi 88
ngoan 88
rắn 88
thuẫn 88
ch@@ 87
khẳng 87
los 87
mảng 87
phím 87
ráp 87
trân 87
vỗ 87
đáo 87
đẻ 87
0 86
bấy 86
co 86
gối 86
khiếm 86
lợn 86
thôn 86
uy 86
vươn 86
vương 86
đạn 86
35 85
cắm 85
cừu 85
dẻo 85
khuyết 85
lưỡng 85
manh 85
đoan 85
địch 85
bơm 84
chả 84
cựu 84
màng 84
non 84
tựa 84
dọn 83
hẹp 83
khuynh 83
lấp 83
men 83
mâu 83
stress 83
sắt 83
thomas 83
vẹn 83
đạc 83
bắp 82
ham 82
lận 82
mit 82
nhầm 82
qui 82
th@@ 82
đền 82
bia 81
cạn 81
lũng 81
s 81
tông 81
bách 80
mỏng 80
thung 80
thắc 80
tuân 80
cương 79
dạo 79
e@@ 79
i@@ 79
kẹo 79
nhàng 79
pakistan 79
vĩnh 79
2010 78
adam 78
bỗng 78
dâm 78
huyền 78
khiêu 78
lệch 78
lờ 78
michael 78
youtube 78
đỗ 78
45 77
chăn 77
cắp 77
giãn 77
gps 77
hạch 77
iphone 77
kiệt 77
m 77
mọc 77
mồ 77
nơ-ron 77
r 77
v@@ 77
cacbon 76
chợ 76
haiti 76
hung 76
hôi 76
lượt 76
nô 76
thoái 76
trật 76
vang 76
vé 76
x@@ 76
đai 76
đàm 76
đợt 76
ếch 76
buýt 75
bá 75
dốc 75
dở 75
kẹt 75
lạp 75
ng@@ 75
pm 75
radio 75
ray 75
rẽ 75
75 74
a@@ 74
k@@ 74
khéo 74
lúa 74
quyên 74
sôi 74
thép 74
trú 74
xám 74
xô 74
đà 74
amp 73
bọc 73
dội 73
h 73
hacker 73
james 73
lắc 73
man 73
ron 73
2007 72
bìa 72
hoài 72
ngừa 72
nén 72
nêu 72
phác 72
vay 72
vượng 72
nasa 71
nhện 71
pho 71
ruồi 71
trộm 71
trừu 71
ván 71
xíu 71
xôi 71
xăng 71
dan 70
giặt 70
muối 70
nhĩ 70
o@@ 70
obama 70
richard 70
tr@@ 70
mòn 69
mượn 69
nghiệt 69
nhào 69
nát 69
nản 69
tiễn 69
uỷ 69
chua 68
chợt 68
dỗ 68
of 68
re@@ 68
robert 68
soạn 68
thẳm 68
việt 68
đan 68
độn 68
ốc 68
--- 67
bồ 67
cống 67
darwin 67
dũng 67
hét 67
khoáng 67
lơ 67
mộng 67
nano 67
tím 67
tạng 67
wikipedia 67
ốm 67
bám 66
chôn 66
giáng 66
hụt 66
lều 66
o 66
quạ 66
quặc 66
r@@ 66
sắm 66
thầm 66
tráng 66
xích 66
2009 65
bẩn 65
chẽ 65
cược 65
hóc 65
km 65
ma@@ 65
nobel 65
nề 65
oxy 65
steve 65
đẽ 65
23 64
2@@ 64
angeles 64
big 64
bóc 64
cài 64
derek 64
francisco 64
gìn 64
gũi 64
khan 64
kìa 64
lánh 64
oxytocin 64
súc 64
xuân 64
xưởng 64
ôm 64
giọt 63
ho 63
hò 63
logic 63
luỹ 63
mổ 63
nh@@ 63
okay 63
paris 63
ruột 63
sáo 63
tivi 63
triều 63
v 63
22 62
amazon 62
bấm 62
chuông 62
lùng 62
lăng 62
martin 62
mến 62
nhường 62
ph@@ 62
quyến 62
rũ 62
tê 62
vòi 62
vụn 62
xướng 62
ẩm 62
000 61
bồi 61
chọc 61
gi@@ 61
harvard 61
hiếp 61
hãm 61
joe 61
laptop 61
luân 61
lân 61
lỡ 61
mãnh 61
mươi 61
nhạt 61
nơ 61
nồng 61
nụ 61
phun 61
quỷ 61
ti@@ 61
vạch 61
vứt 61
xăm 61
đô-la 61
ừ 61
boston 60
lề 60
mỳ 60
nếp 60
tu 60
đc 60
bốc 59
chớp 59
huynh 59
inch 59
léo 59
lưỡi 59
mark 59
ngưng 59
ngẩn 59
nhóc 59
sahara 59
sét 59
thắt 59
trán 59
võng 59
ghê 58
khiêm 58
lồng 58
na 58
ngươi 58
ngẫm 58
ngớ 58
nhiễu 58
p 58
silicon 58
thấm 58
triệt 58
vờ 58
xà 58
2005 57
alzheimer 57
bê 57
chằm 57
el 57
g 57
golf 57
hít 57
manhattan 57
móng 57
smith 57
studio 57
sọ 57
tuỷ 57
1990 56
bầy 56
gác 56
gạch 56
gậy 56
hận 56
lui 56
mộc 56
peter 56
rỗng 56
súp 56
tom 56
ái 56
600 55
apple 55
cổng 55
dịp 55
gãy 55
hoan 55
ii 55
ngột 55
phật 55
que 55
trúng 55
vả 55
đ@@ 55
đoạt 55
đôla 55
27 54
95 54
bể 54
canh 54
chicago 54
chuyền 54
cọ 54
hoành 54
hưng 54
le@@ 54
luồng 54
mri 54
mỡ 54
tựu 54
ấu 54
99 53
am 53
ford 53
kiêng 53
phô 53
times 53
vòm 53
đuối 53
đúc 53
1960 52
ar@@ 52
de@@ 52
giật 52
hydro 52
k 52
lam 52
mầm 52
nghẽn 52
nhủ 52
nàn 52
origami 52
phốt 52
tam 52
thiêng 52
tuỵ 52
điền 52
đậm 52
ương 52
2004 51
chày 51
cự 51
dai 51
dạ 51
lo@@ 51
nhánh 51
nón 51
rio 51
rwanda 51
rạp 51
tony 51
vất 51
vội 51
xé 51
xỉ 51
y@@ 51
đốm 51
2006 50
3@@ 50
c. 50
cáp 50
cảng 50
giáp 50
gom 50
khoai 50
khoăn 50
lột 50
phiêu 50
run 50
thiền 50
vaccine 50
vạn 50
vặt 50
xứ 50
đóm 50
65 49
ben 49
bẻ 49
dệt 49
gabby 49
howard 49
hoãn 49
hông 49
in@@ 49
king 49
la@@ 49
led 49
phiến 49
qu@@ 49
rỉ 49
to@@ 49
tôm 49
uốn 49
vịt 49
đụng 49
ủi 49
1@@ 48
28 48
băn 48
clip 48
eric 48
hổng 48
khen 48
nhét 48
nhấp 48
phe 48
pizza 48
sướng 48
thơm 48
tiệm 48
tùng 48
tịch 48
wow 48
đinh 48
1970 47
ao 47
búa 47
bẩm 47
choáng 47
chíp 47
dập 47
gien 47
huýt 47
n 47
online 47
piano 47
ri@@ 47
rìa 47
thốt 47
xoắn 47
yeah 47
10,000 46
2003 46
3000 46
ah 46
congo 46
củng 46
frank 46
gates 46
henry 46
higgs 46
hái 46
jazz 46
kem 46
khẩn 46
koran 46
lego 46
lọ 46
microsoft 46
mt 46
mớ 46
nl 46
rốt 46
rộn 46
tao 46
tăm 46
u@@ 46
xách 46
2011 45
250 45
biếm 45
brian 45
cambridge 45
coca-cola 45
dồn 45
gai 45
kg 45
khùng 45
len 45
mưu 45
mốc 45
nan 45
ngư 45
on 45
oxford 45
p@@ 45
phơi 45
rỗi 45
trùm 45
tẩy 45
vẫy 45
xộn 45
yemen 45
z@@ 45
đệm 45
120 44
1950 44
26 44
banh 44
bin 44
bực 44
chip 44
chóc 44
dơi 44
dịu 44
ghana 44
ghé 44
hân 44
hả 44
lau 44
môt 44
nhi 44
nhàm 44
pháo 44
sw 44
sửng 44
taliban 44
trèo 44
trọn 44
trừng 44
uganda 44
ào 44
10.000 43
4@@ 43
bướm 43
co@@ 43
cồn 43
dê 43
entropy 43
f 43
gieo 43
kẹp 43
le 43
lê 43
ngụ 43
ngửi 43
quad 43
ro@@ 43
rỡ 43
stanford 43
sườn 43
thoáng 43
túng 43
vẩn 43
xí 43
đom 43
đàng 43
an@@ 42
aristotle 42
bush 42
bù 42
cent 42
chiêm 42
chướng 42
kệ 42
phế 42
phồng 42
syria 42
ta@@ 42
tang 42
texas 42
thèm 42
trễ 42
tống 42
virút 42
vớ 42
ân 42
ôtô 42
đục 42
ướt 42
1980 41
al@@ 41
buồng 41
bưu 41
bẫy 41
charlie 41
chay 41
do@@ 41
dại 41
er 41
gạt 41
kh@@ 41
li 41
li@@ 41
ngây 41
ngục 41
nuốt 41
quận 41
râu 41
su@@ 41
sếp 41
then 41
thắn 41
ts 41
vắng 41
vọt 41
xay 41
đòn 41
2001 40
29 40
bát 40
bón 40
di@@ 40
dưa 40
f@@ 40
florida 40
ha 40
ho@@ 40
hâm 40
insulin 40
it 40
jim 40
me@@ 40
nghiêng 40
nâu 40
nín 40
nạp 40
ra@@ 40
rèn 40
show 40
thiếp 40
thuỳ 40
tảo 40
wall 40
xoáy 40
đè 40
2050 39
32 39
33 39
700 39
85 39
bồn 39
bộc 39
chùm 39
cyrus 39
cóc 39
dẹp 39
gore 39
gộp 39
khiếu 39
kìm 39
latin 39
lô 39
nhị 39
norden 39
nãy 39
tớ 39
vi-rút 39
viêm 39
.... 38
bo@@ 38
bỏng 38
bổng 38
cuả 38
diều 38
gay 38
ha@@ 38
hán 38
marketing 38
ngộ 38
nhuộm 38
nhồi 38
rã 38
se@@ 38
sùng 38
usd 38
ve 38
vần 38
william 38
ấp 38
36 37
800 37
abraham 37
amy 37
arthur 37
bẩy 37
cộ 37
dâng 37
hans 37
hollywood 37
keo 37
khe 37
khăng 37
khốn 37
lượm 37
lạy 37
lậu 37
lội 37
mar@@ 37
mike 37
mu@@ 37
mép 37
ngô 37
ngợi 37
nhã 37
nhăn 37
rực 37
scotland 37
sói 37
te@@ 37
thạo 37
thắp 37
trinh 37
tơ 37
tụi 37
xá 37
xơ 37
ờ 37
18@@ 36
brown 36
bu@@ 36
bế 36
bời 36
chiên 36
detroit 36
en@@ 36
mông 36
na@@ 36
neanderthal 36
nắp 36
rổ 36
sam 36
singapore 36
vi@@ 36
xả 36
xế 36
— 36
31 35
am@@ 35
bới 35
cẩu 35
daniel 35
dvd 35
khâu 35
khép 35
l 35
laden 35
lee 35
mi@@ 35
ne@@ 35
nuối 35
phôi 35
pound 35
si@@ 35
trêu 35
trương 35
tu@@ 35
vách 35
zealand 35
ắc 35
+ 34
alpha 34
be@@ 34
bob 34
bóp 34
bùn 34
bến 34
cai 34
chì 34
chặng 34
dâu 34
es 34
gập 34
hiếu 34
hẻo 34
ibm 34
khoang 34
khoán 34
laser 34
lay 34
liêng 34
logo 34
mandela 34
muôn 34
ngắt 34
nếm 34
palestine 34
quăng 34
ria 34
rải 34
shakespeare 34
stephen 34
toa 34
trói 34
trội 34
tweet 34
tạ 34
tụt 34
v.v 34
vàn 34
watson 34
world 34
xài 34
.@@ 33
100,000 33
1999 33
37 33
48 33
5@@ 33
ad@@ 33
ceo 33
chui 33
devil 33
dỡ 33
giếng 33
hăng 33
joseph 33
khốc 33
kiều 33
loa 33
lách 33
mẹo 33
nghiền 33
no 33
nạ 33
quạt 33
rosling 33
rặng 33
rệt 33
scan 33
sảnh 33
sỏi 33
thề 33
tre 33
tát 33
tạc 33
vắc-xin 33
vặn 33
ôn 33
đun 33
đắm 33
đọng 33
ơ 33
--@@ 32
1900 32
2002 32
andrew 32
bj 32
bronx 32
bênh 32
bỉ 32
bội 32
carolina 32
chuộng 32
chốn 32
cua 32
cán 32
cọc 32
dời 32
ed 32
electron 32
en 32
er@@ 32
go 32
hàu 32
hở 32
iceland 32
indonesia 32
joshua 32
kevin 32
khiết 32
kề 32
lu@@ 32
lứa 32
mao 32
newton 32
ng 32
ngơi 32
ngả 32
nứt 32
pop 32
tedx@@ 32
tua 32
tước 32
wright 32
xảo 32
êm 32
đãi 32
đứt 32
ỏi 32
1930 31
6@@ 31
alexander 31
as@@ 31
bar 31
bar@@ 31
bọt 31
chile 31
chuối 31
da@@ 31
delhi 31
gandhi 31
gg 31
giàn 31
go@@ 31
hoi 31
line 31
lấn 31
nelson 31
nhược 31
nhộn 31
nến 31
nộp 31
rock 31
rìu 31
rò 31
rồng 31
soi 31
st. 31
suối 31
sô 31
toilet 31
us 31
váy 31
w 31
w@@ 31
wolfram 31
xốp 31
đồn 31
2030 30
55 30
7@@ 30
bi@@ 30
cay 30
chạp 30
chốc 30
cưỡi 30
cạo 30
cằn 30
củ 30
dang 30
dopamine 30
găng 30
hé 30
jh 30
kẽ 30
lót 30
lượn 30
lửng 30
mo@@ 30
ngoạn 30
nhạo 30
nhấc 30
olympic 30
phàn 30
quẩn 30
quỵ 30
son 30
south 30
street 30
sưởi 30
sứa 30
tiệt 30
tẻ 30
wk 30
xấp 30
you 30
chật 29
chọi 29
cắn 29
cớ 29
edi 29
ghen 29
gạo 29
gắt 29
khuất 29
khuếch 29
khử 29
liêu 29
lụa 29
mi 29
mạ 29
mọt 29
nguội 29
ngọc 29
ngủi 29
nhại 29
nặc 29
phanh 29
phớt 29
rùa 29
rớt 29
simon 29
stewart 29
sờ 29
te 29
tuộc 29
tít 29
vitamin 29
vùi 29
vướng 29
đốn 29
8@@ 28
ak 28
axit 28
ber@@ 28
bì 28
cafe 28
car@@ 28
chen 28
copenhagen 28
cu@@ 28
dồi 28
high 28
hu@@ 28
háo 28
ki@@ 28
me 28
mìn 28
ngào 28
ngạo 28
nhát 28
ni@@ 28
nộ 28
nới 28
or@@ 28
oxi 28
pa@@ 28
ph 28
rô-bốt 28
so@@ 28
thừng 28
tràng 28
trệ 28
tụng 28
virginia 28
vựng 28
z 28
đạm 28
&apos;@@ 27
42 27
5000 27
72 27
9@@ 27
argentina 27
babylon 27
bon 27
chích 27
cp 27
cành 27
cúi 27
củi 27
dào 27
dưng 27
gas 27
gớm 27
hon 27
jack 27
johnny 27
ken 27
khinh 27
les 27
lewis 27
lọt 27
matt 27
montana 27
n. 27
nhọn 27
nhục 27
nấc 27
ooh 27
opera 27
phích 27
poster 27
quấn 27
sa@@ 27
sylvia 27
tanzania 27
thiêu 27
trá 27
ven 27
venice 27
vành 27
well 27
điếu 27
đặn 27
ủ 27
ừm 27
1984 26
2.5 26
2012 26
album 26
alex 26
brooklyn 26
bự 26
chinh 26
choàng 26
click 26
clinton 26
columbia 26
cào 26
căm 26
cưng 26
diễu 26
dollar 26
dẳng 26
es@@ 26
gán 26
hao 26
hen 26
huỳnh 26
jerusalem 26
jill 26
khoác 26
kiềm 26
leonardo 26
lincoln 26
lụt 26
mm 26
mài 26
mác 26
méo 26
mỉ 26
mỉa 26
nhúng 26
nhốt 26
nhức 26
nick 26
này. 26
nực 26
rong 26
rảnh 26
sarah 26
somalia 26
suýt 26
sương 26
thảy 26
thỏ 26
thối 26
thốn 26
victoria 26
vắt 26
xen 26
đính 26
đôn 26
1.5 25
130 25
2,000 25
bali 25
bell 25
báu 25
cd 25
chênh 25
chảo 25
cm 25
cưa 25
du@@ 25
ethiopia 25
giầy 25
gót 25
gầy 25
hi@@ 25
hức 25
ion 25
ipad 25
is@@ 25
jay 25
jones 25
julia 25
láng 25
lười 25
moore 25
mánh 25
national 25
ng. 25
ngự 25
oecd 25
quầy 25
sputnik 25
um 25
ve@@ 25
vá 25
xào 25
điểu 25
98 24
acid 24
apollo 24
ba@@ 24
banjo 24
benjamin 24
berkeley 24
bosnia 24
bướu 24
bịt 24
cameron 24
chóp 24
chổ 24
dạn 24
edinburgh 24
el@@ 24
fg 24
ge@@ 24
giun 24
hawaii 24
he@@ 24
hiên 24
khoe 24
kiếp 24
kép 24
leone 24
lén 24
m. 24
ngh@@ 24
ngoặt 24
ngâm 24
nháy 24
né 24
on@@ 24
parkinson 24
pe@@ 24
phiện 24
phthalate 24
qatar 24
rãnh 24
rậm 24
sen 24
siberia 24
sấu 24
tasmanian 24
taxi 24
tesla 24
thản 24
time 24
ton 24
toạ 24
tởm 24
ushahidi 24
virut 24
von 24
vỉa 24
xót 24
đa-vít 24
điếc 24
đười 24
ươi 24
ớt 24
1.000 23
1998 23
2.0 23
= 23
alice 23
anderson 23
at@@ 23
atlanta 23
bangladesh 23
bén 23
bệ 23
carnegie 23
ce 23
chén 23
chải 23
city 23
côi 23
cúng 23
cửu 23
disney 23
dì 23
galapagos 23
gô-li-át 23
gốm 23
hamburger 23
hốc 23
is 23
jazeera 23
khuấy 23
ki 23
lester 23
luther 23
lúng 23
mầu 23
mỉm 23
n-- 23
nhôm 23
nike 23
no@@ 23
này-- 23
os@@ 23
philadelphia 23
plato 23
quấy 23
rà 23
scott 23
se 23
sh@@ 23
sierra 23
starbucks 23
sộ 23
teszler 23
tokyo 23
top 23
trớ 23
tý 23
viền 23
vôi 23
warren 23
xoa 23
xẻ 23
yves 23
zimbabwe 23
ập 23
… 23
100.000 22
140 22
20@@ 22
38 22
44 22
50.000 22
64 22
96 22
bal@@ 22
bhutan 22
bôi 22
bơ 22
bầm 22
ch 22
chanh 22
chéo 22
chói 22
colombia 22
cày 22
dj 22
euro 22
everest 22
fgm 22
ghim 22
gật 22
gục 22
ipod 22
ivan 22
j@@ 22
jonathan 22
kennedy 22
lakota 22
lon 22
lung 22
lạt 22
lầy 22
marco 22
mau 22
mg 22
michigan 22
mon@@ 22
nanopatch 22
nathan 22
nguỵ 22
nóc 22
nồi 22
phông 22
sáp 22
sập 22
t. 22
tasmania 22
tedx 22
tempest 22
tt 22
tặc 22
tứ 22
xi 22
xịt 22
xổ 22
ze 22
đầm 22
đắc 22
) 21
1.@@ 21
1994 21
1996 21
93 21
alaska 21
arizona 21
art 21
at 21
bus 21
ca@@ 21
captcha 21
carl 21
câm 21
còi 21
cừ 21
don 21
dẫu 21
edward 21
elizabeth 21
emily 21
ft 21
giục 21
har@@ 21
hơn. 21
i. 21
jesus 21
jordan 21
julian 21
ka@@ 21
kansas 21
khống 21
kiribati 21
larry 21
maya 21
má 21
nai 21
nepal 21
neuron 21
ngước 21
ngặt 21
nhượng 21
náo 21
roger 21
rw 21
samuel 21
susan 21
sô-cô-la 21
sẹo 21
talk 21
testosterone 21
th 21
thạc 21
thủng 21
trù 21
tỉa 21
vuốt 21
vầy 21
xuôi 21
xâu 21
xắn 21
đó-- 21
đó. 21
đươc 21
đắp 21
ầm 21
.com 20
180 20
1975 20
20.000 20
43 20
50,000 20
52 20
86 20
97 20
alan 20
bazơ 20
be 20
beethoven 20
berlin 20
bit 20
bàng 20
bành 20
bã 20
bịch 20
cam-pu-chia 20
cheryl 20
chiết 20
chồn 20
cnn 20
cẩm 20
d. 20
der 20
dấn 20
earth 20
eve 20
francis 20
gi 20
giang 20
graham 20
great 20
greenland 20
họng 20
i-@@ 20
j 20
jackson 20
jane 20
jeopardy 20
jihad 20
kelly 20
khờ 20
ko@@ 20
kị 20
lesterland 20
link 20
lít 20
lầu 20
lố 20
mumbai 20
mội 20
nang 20
news 20
nguyệt 20
ngà 20
nham 20
phao 20
phượng 20
powerpoint 20
quáng 20
quẳng 20
rap 20
reo 20
romo 20
ròng 20
seattle 20
steven 20
sudan 20
suôn 20
sải 20
sừng 20
tedglobal 20
ter 20
thà 20
trơn 20
trỏ 20
tòi 20
tản 20
viếng 20
vũng 20
xáo 20
xì 20
xít 20
yorker 20
đậy 20
đắng 20
1945 19
1992 19
1995 19
3,000 19
350 19
900 19
aimee 19
ap@@ 19
ar 19
beach 19
blue 19
bú 19
bịp 19
cairo 19
chad 19
christopher 19
chằng 19
chổi 19
cỗi 19
dean 19
dp 19
duyên 19
dấy 19
et 19
europa 19
fan 19
foxo 19
ga@@ 19
games 19
geographic 19
giềng 19
grace 19
gặm 19
havard 19
hèn 19
ia 19
ic@@ 19
iq 19
jefferson 19
jo@@ 19
joel 19
jonas 19
katrina 19
khuya 19
kiêu 19
kỵ 19
lãi 19
lẫy 19
marathon 19
mc@@ 19
murray 19
mường 19
ng-- 19
ngợp 19
nhấm 19
nhọc 19
par@@ 19
per@@ 19
phình 19
phả 19
phẫn 19
pi@@ 19
po@@ 19
princeton 19
rg 19
rick 19
rách 19
răn 19
serotonin 19
skype 19
sr 19
sạc 19
sụt 19
thêu 19
thẹn 19
titus 19
triễn 19
tưới 19
uhm 19
watt 19
we@@ 19
woo 19
ín 19
đấng 19
đỗi 19
ướp 19
1,000 18
16@@ 18
1997 18
19@@ 18
2.000 18
34 18
4000 18
46 18
58 18
82 18
a-@@ 18
a. 18
ac@@ 18
afghan 18
as 18
bangalore 18
buồm 18
báng 18
bùm 18
bần 18
canxi 18
carol 18
chi@@ 18
copernicus 18
craig 18
diego 18
dubai 18
fbi 18
fda 18
fibonacci 18
fox 18
gram 18
gwen 18
gôn 18
hawking 18
hungary 18
hắc 18
ig 18
island 18
jo 18
johnson 18
keith 18
kyoto 18
kèn 18
liễu 18
lẩn 18
man@@ 18
mcdonald 18
micro 18
microrna 18
movember 18
muhammad 18
mặn 18
n-@@ 18
ne 18
net 18
ngần 18
ngừ 18
nhún 18
nor@@ 18
north 18
nòng 18
nôn 18
nấng 18
nặn 18
oliver 18
one 18
oregon 18
park 18
philip 18
rachel 18
rose 18
roy 18
rành 18
rạc 18
rọi 18
sandwich 18
shock 18
spaghetti 18
sảy 18
sấm 18
thình 18
thỉu 18
toronto 18
tro 18
trỗi 18
tột 18
vancouver 18
ver@@ 18
vv 18
vóc 18
xl 18
điềm 18
đút 18
# 17
125 17
160 17
17@@ 17
2,5 17
2020 17
404 17
41 17
5,000 17
6000 17
alfred 17
american 17
bertie 17
black 17
bạt 17
bục 17
chệch 17
clay 17
cor@@ 17
cáu 17
cơm 17
den 17
doha 17
doug 17
duỗi 17
dè 17
eo 17
fi@@ 17
file 17
foot 17
franklin 17
gary 17
gaza 17
ge 17
gel 17
gh@@ 17
giòn 17
guinea 17
gào 17
gầm 17
gồ 17
gởi 17
hun 17
hươu 17
ja@@ 17
jerry 17
julie 17
ke@@ 17
kibera 17
kén 17
lawrence 17
ley 17
liberia 17
like 17
loan 17
lol 17
loé 17
lộng 17
margaret 17
mo 17
mozart 17
mút 17
mịn 17
một-hai-ba-bốn 17
nairobi 17
nghênh 17
nhảm 17
ni 17
nè 17
password 17
photoshop 17
rome 17
ross 17
ru@@ 17
rưởi 17
rạng 17
sopa 17
stone 17
t-@@ 17
ten@@ 17
thoi 17
thuở 17
trọt 17
uyên 17
vác 17
vã 17
walker 17
west 17
xở 17
ê 17
ô@@ 17
út 17
đây-- 17
đựơc 17
ảm 17
00 16
110 16
1989 16
450 16
47 16
aaron 16
albert 16
ali 16
av 16
axít 16
b. 16
barack 16
billy 16
blogger 16
bri@@ 16
buông 16
calo 16
caltech 16
chu@@ 16
chửng 16
cuba 16
d.c. 16
dave 16
diana 16
ds 16
evan 16
fa@@ 16
freespeech 16
gando 16
giễu 16
grand 16
green 16
gu@@ 16
gân 16
gò 16
hack 16
harlem 16
hoạn 16
hãnh 16
hời 16
ian 16
jennifer 16
jersey 16
ju@@ 16
justin 16
langley 16
lebanon 16
loà 16
luẩn 16
ly@@ 16
lẫm 16
ma-ra-tông 16
mars 16
mary 16
men@@ 16
metan 16
miên 16
miệt 16
moma 16
mình. 16
neil 16
ngách 16
ngừơi 16
nhí 16
nhô 16
nico 16
nôi 16
nọc 16
oscar 16
peru 16
pheromone 16
qaeda 16
r.s 16
ram 16
ryan 16
rán 16
rạch 16
saudi 16
sms 16
sobule 16
ss 16
sút 16
taylor 16
tehran 16
thoa 16
thục 16
treasure 16
trâu 16
trút 16
tú 16
túp 16
venezuela 16
võ 16
wi@@ 16
xuẩn 16
xén 16
xông 16
yo 16
át 16
í 16
ô-xy 16
đê 16
đệ 16
1,@@ 15
20,000 15
40,000 15
56 15
76 15
ag 15
ann 15
archie 15
are 15
arkansas 15
az@@ 15
ben@@ 15
bono 15
bruce 15
bịa 15
cad 15
carter 15
cc 15
chat 15
chocolate 15
chững 15
cia 15
ck 15
cl 15
code 15
cõi 15
daf-2 15
dolby 15
doo 15
e.@@ 15
east 15
em@@ 15
esg 15
fort 15
gehry 15
ghề 15
god 15
goering 15
her@@ 15
hong 15
hằn 15
i-- 15
ikea 15
ireland 15
irắc 15
jeff 15
jon 15
jr 15
karl 15
kiêm 15
kông 15
kẽm 15
lab 15
latinh 15
loang 15
love 15
loãng 15
lẽo 15
lốc 15
m-- 15
mac 15
mahmoud 15
mario 15
matthew 15
miller 15
moi 15
mor@@ 15
moses 15
my 15
nba 15
ner 15
nguyền 15
ngó 15
ngấm 15
ngất 15
nhung 15
nhì 15
nhẽ 15
noi 15
oprah 15
orleans 15
ot@@ 15
palextin 15
pat 15
pepsi 15
phồn 15
pipa 15
post 15
quật 15
quỳ 15
ran 15
rao 15
red 15
ry 15
rệp 15
rụng 15
solly 15
sri 15
stanley 15
state 15
stirling 15
sweeney 15
sưng 15
sỡ 15
sụn 15
tahrir 15
teen 15
tem 15
tennessee 15
thê 15
tri@@ 15
tể 15
us@@ 15
váng 15
vãn 15
wa@@ 15
water 15
weibo 15
white 15
wilson 15
wo@@ 15
yến 15
ăng-ten 15
đũa 15
đấm 15
ĩ 15
1500 14
1986 14
1988 14
200,000 14
5.000 14
54 14
57 14
67 14
74 14
77 14
94 14
ab@@ 14
agnes 14
ailen 14
amsterdam 14
andy 14
anthony 14
au@@ 14
aye 14
baltimore 14
biếng 14
bonnie 14
broadmoor 14
browne 14
c.@@ 14
chernobyl 14
chiêu 14
chậu 14
chắt 14
chộp 14
cochrane 14
con@@ 14
cật 14
cội 14
diêm 14
dặn 14
dốt 14
essex 14
freud 14
gallon 14
gam 14
gamma 14
giở 14
glucose 14
gặt 14
hal 14
han 14
harry 14
hill 14
homo 14
hoán 14
hy@@ 14
húp 14
hơn-- 14
i.q. 14
id 14
intel 14
jean 14
johns 14
kepler 14
lanh 14
linux 14
louis 14
mitchell 14
măng 14
nauy 14
ney 14
ng-@@ 14
nghiã 14
ngẩng 14
nhoi 14
nhoáng 14
nitric 14
noel 14
norman 14
náu 14
núm 14
nại 14
nấp 14
ol@@ 14
pantheon 14
pennsylvania 14
phai 14
phu 14
potter 14
pro@@ 14
pu@@ 14
re 14
rezero 14
ri 14
rory 14
rẫy 14
rợ 14
santa 14
sch@@ 14
si 14
sioux 14
sp@@ 14
stein 14
sên 14
ten 14
the@@ 14
tso 14
tôi. 14
ubuntu 14
vu 14
văng 14
vệt 14
vịn 14
whoa 14
yoga 14
zk 14
đong 14
đùng 14
đả 14
đẫm 14
--và 13
0,@@ 13
0.@@ 13
10000 13
1800 13
1940 13
1957 13
30,000 13
360 13
4.000 13
53 13
68 13
7000 13
78 13
84 13
89 13
abu 13
al-qaeda 13
ana 13
anna 13
aurora 13
bahamas 13
bayes 13
beverly 13
biosphere 13
bonnet 13
catadore 13
cha@@ 13
chang 13
charlotte 13
chk 13
chuồng 13
chèn 13
ci@@ 13
connecticut 13
cỏi 13
cợt 13
dc 13
dép 13
dằn 13
dế 13
e. 13
elvis 13
emma 13
enzyme 13
fo@@ 13
for@@ 13
freeman 13
giỏ 13
guatemala 13
gáy 13
helen 13
hmm 13
hop 13
hopkins 13
hoóc 13
hp 13
hs 13
hóm 13
hót 13
hỉnh 13
il@@ 13
ina 13
incra 13
ine 13
ixaren 13
jake 13
jamie 13
jason 13
jimmy 13
joey 13
ka 13
kate 13
kay 13
kb 13
ke 13
khoanh 13
khoát 13
khoé 13
khoả 13
khánh 13
ku@@ 13
l.a 13
lanka 13
libăng 13
loanh 13
luồn 13
lình 13
lư 13
mal@@ 13
malcolm 13
maria 13
mathematica 13
mb@@ 13
mbi 13
melinda 13
milimet 13
more 13
mp3 13
mw 13
netflix 13
ngóc 13
ngơ 13
ngửa 13
nhai 13
nhút 13
nhổ 13
nhứng 13
nitơ 13
noah 13
nành 13
nách 13
oakland 13
odysseus 13
osama 13
oz 13
p. 13
palestin 13
progeria 13
proton 13
quác 13
qúi 13
rob 13
rầm 13
rẩy 13
rắm 13
rộ 13
scratch 13
sean 13
sing 13
stockholm 13
suyễn 13
sành 13
sán 13
sục 13
sủa 13
tamiflu 13
tan@@ 13
ted@@ 13
tedwomen 13
tel 13
thuyên 13
thây 13
thét 13
thầu 13
tic 13
tour 13
triceratops 13
tuôn 13
túm 13
tấu 13
u. 13
uh 13
violin 13
voyager 13
vượn 13
vạt 13
vấp 13
vụng 13
walmart 13
xo@@ 13
yale 13
đần 13
.org 12
1,5 12
1.3 12
1918 12
1965 12
1983 12
1991 12
2015 12
3.000 12
365 12
39 12
4,000 12
4,@@ 12
401 12
59 12
60,000 12
8000 12
accenture 12
arn 12
bach 12
baxter 12
beep 12
bel@@ 12
berg 12
bilbao 12
bp 12
burger 12
by 12
bíp 12
bở 12
bừa 12
canyon 12
carroça 12
central 12
chuồn 12
chánh 12
chần 12
chập 12
cocktail 12
copy 12
critic 12
day 12
dy 12
dẫm 12
ebay 12
eeg 12
for 12
foundation 12
gaga 12
ganh 12
gara 12
giông 12
giời 12
graffiti 12
gt 12
guardian 12
gãi 12
h5n1 12
helium 12
hip 12
hitler 12
hũ 12
i.@@ 12
ice 12
irag 12
kosovo 12
linus 12
lock 12
lu 12
luke 12
lõm 12
lộc 12
m-@@ 12
mahatma 12
marshall 12
maryland 12
mba 12
media 12
mellon 12
mer@@ 12
mic 12
my@@ 12
mào 12
ngu@@ 12
ngợm 12
nhau. 12
nhím 12
nhối 12
nung 12
ny 12
năn 12
nạt 12
nể 12
nỉ 12
o2 12
ohio 12
palm 12
papua 12
pascal 12
picasso 12
pittsburgh 12
polymer 12
pri@@ 12
prôtein 12
quặng 12
rain 12
ram@@ 12
ran@@ 12
robinson 12
robots 12
rockett 12
rufus 12
russell 12
ruộng 12
râm 12
rùng 12
rơm 12
rầu 12
rụi 12
rữa 12
sb 12
sebastian 12
siết 12
splashy 12
st 12
st@@ 12
stefan 12
sto@@ 12
sôcôla 12
tarahumara 12
ter@@ 12
thiển 12
thu@@ 12
thưc 12
thềm 12
token 12
toraja 12
toyota 12
tunisia 12
té 12
u-- 12
ucla 12
ue 12
un@@ 12
v.v. 12
ville 12
vinci 12
viêc 12
vãnh 12
vơ 12
who 12
williams 12
wood 12
xua 12
xói 12
ys 12
zi@@ 12
é@@ 12
ô-xi 12
đùi 12
ưng 12
ươm 12
ạt 12
ắt 12
ỉ 12
ị 12
1.2 11
101 11
1962 11
1979 11
1985 11
1993 11
2-3 11
25,000 11
30.000 11
750 11
83 11
92 11
actor 11
af@@ 11
ai-len 11
amino 11
anas 11
anne 11
ard 11
awesome 11
ay@@ 11
ban@@ 11
bandura 11
barbara 11
bbc 11
biêt 11
blackberry 11
bonobo 11
brand 11
bur@@ 11
bô 11
bặm 11
campuchia 11
can@@ 11
casey 11
cello 11
cern 11
che@@ 11
chót 11
chũng 11
chừ 11
chừa 11
civic 11
cohen 11
complex 11
cooper 11
cortisol 11
các-bon 11
cặn 11
cồng 11
darpa 11
data 11
dennis 11
der@@ 11
dó 11
dơ 11
dạt 11
e.u. 11
enceladus 11
estrogen 11
evelyn 11
f. 11
faiza 11
flash 11
friedman 11
galileo 11
gayla 11
georgia 11
gilbert 11
goá 11
gra@@ 11
gàng 11
gợn 11
hamlet 11
hampshire 11
hidro 11
higg 11
huck 11
huyện 11
hòm 11
hẻm 11
illinois 11
im@@ 11
indiana 11
ines 11
ing 11
jk 11
ju 11
judy 11
kabul 11
karen 11
khay 11
khong 11
khơ-me 11
khứu 11
ler 11
linda 11
ling 11
lt 11
lóng 11
lồi 11
malaysia 11
maratông 11
marc 11
massachusetts 11
max 11
monkey 11
ms 11
mách 11
mùng 11
mắng 11
najmuddin 11
neo 11
nghĩnh 11
ngòi 11
ngõ 11
ngượng 11
ngời 11
ngỡ 11
nhan 11
nhen 11
nhuần 11
nhót 11
nhõm 11
nhúm 11
nhầy 11
nicholas 11
nó. 11
nều 11
nữa. 11
olympics 11
oà 11
pal@@ 11
pants 11
pc 11
perry 11
photon 11
phách 11
phụng 11
quây 11
rang 11
riley 11
riverside 11
rót 11
sal@@ 11
sergey 11
sinclair 11
sofa 11
star 11
ste@@ 11
sun 11
super 11
sò 11
sọc 11
t.@@ 11
tedtalk 11
terence 11
tho@@ 11
thoạt 11
thòi 11
transition 11
troy 11
tròng 11
trũng 11
trơ 11
trướng 11
tuột 11
tôi-- 11
tợn 11
ur@@ 11
usda 11
ven@@ 11
venter 11
viking 11
vói 11
vẹt 11
vụt 11
wales 11
war 11
wikileaks 11
windows 11
wired 11
x. 11
xao 11
y-@@ 11
yum 11
zipcar 11
¼ 11
ó@@ 11
úp 11
đay 11
ắp 11
ụ 11
0.5 10
1,3 10
1,500 10
12,000 10
14@@ 10
1858 10
1973 10
1987 10
2.@@ 10
3.5 10
40.000 10
500,000 10
61 10
63 10
650 10
79 10
a.@@ 10
abc 10
ag@@ 10
algeria 10
altos 10
amanda 10
amen 10
ang@@ 10
australia 10
barefoot 10
bass 10
beau 10
bla 10
blair 10
bloop 10
bra@@ 10
bre@@ 10
brenda 10
byrne 10
bạn. 10
bổn 10
cape 10
cargill 10
caroline 10
cassini 10
char@@ 10
christian 10
chuộc 10
chèo 10
chưng 10
chồi 10
colorado 10
cotton 10
cphi 10
cra@@ 10
cynthia 10
darfur 10
del 10
demo 10
dollars 10
donald 10
dĩa 10
dừa 10
ed@@ 10
england 10
enzim 10
estonia 10
eureka 10
fear 10
ff 10
fred 10
gabriel 10
gen@@ 10
geo-engineering 10
giới-- 10
giỡn 10
gordon 10
gowanus 10
greg 10
gv 10
gù 10
gỉ 10
himalayas 10
hiroshima 10
hirshhorn 10
hiều 10
house 10
hunter 10
hyderabad 10
há 10
héo 10
hùm 10
hốt 10
hột 10
imf 10
istanbul 10
jamaica 10
je@@ 10
jesse 10
josh 10
kaluza 10
kar@@ 10
kentucky 10
ker 10
kha 10
kho@@ 10
khắt 10
kiva 10
kềnh 10
las 10
laze 10
lb 10
libya 10
light 10
lim 10
lin 10
luria 10
là-- 10
lóc 10
lẹ 10
lốp 10
madagascar 10
mafia 10
malawi 10
mann 10
marduk 10
mas 10
minnesota 10
mis@@ 10
missouri 10
miến 10
monterey 10
máng 10
mòng 10
mị 10
mồm 10
một-@@ 10
ng- 10
nguời 10
ngáp 10
ngạt 10
ngầu 10
nh-- 10
nhàn 10
nháp 10
nhả 10
nhẹn 10
nih 10
niêm 10
nu@@ 10
nẹp 10
o-@@ 10
oxide 10
pas@@ 10
paula 10
pauling 10
penicillin 10
phiệt 10
phước 10
pin@@ 10
pine 10
point 10
prego 10
prize 10
quĩ 10
ragu 10
reagan 10
reddit 10
roma 10
ros@@ 10
rèm 10
rạn 10
rầy 10
rợn 10
samantha 10
sc@@ 10
school 10
science 10
scoop 10
senegal 10
series 10
sh 10
sheila 10
shirley 10
sisyphus 10
subtitles 10
sảo 10
sầu 10
sệt 10
sồi 10
sững 10
tedmed 10
tennis 10
ters 10
thớ 10
tor 10
town 10
transcript 10
trau 10
trờ 10
tweets 10
ty@@ 10
tz 10
tằm 10
ukraine 10
university 10
up 10
uất 10
vivian 10
vậy. 10
vớt 10
vợt 10
way 10
webcam 10
wi-fi 10
wide 10
wifi 10
wii 10
ya 10
yo-yo 10
ê@@ 10
ì 10
ó 10
đu 10
đuợc 10
đái 10
đước 10
được. 10
ả-rập 10
ắng 10
ế 10
0.1 9
05 9
1,2 9
1-2 9
1.8 9
10@@ 9
12.000 9
1200 9
15@@ 9
170 9
1920 9
1947 9
1949 9
1953 9
1976 9
2,@@ 9
2.3 9
200@@ 9
2013 9
25@@ 9
3,5 9
3,@@ 9
51 9
66 9
7,000 9
73 9
80.000 9
_ 9
ac 9
ahmed 9
ai@@ 9
aires 9
airstream 9
alberta 9
alberto 9
ale@@ 9
all 9
america 9
amin 9
android 9
ani@@ 9
arab 9
armstrong 9
ate 9
atlantic 9
aviv 9
azerbaijan 9
berry 9
bkt 9
blo@@ 9
bm 9
bolt 9
boltzmann 9
bon@@ 9
broadway 9
budrus 9
buenos 9
bêu 9
bỏi 9
c-@@ 9
cal@@ 9
cap@@ 9
cas@@ 9
cdc 9
celine 9
chao 9
chaz 9
chiêc 9
chopin 9
chê 9
chùi 9
chĩa 9
chường 9
chửi 9
cleveland 9
coke 9
collider 9
collins 9
cookie 9
costa 9
danny 9
ddt 9
deep 9
den@@ 9
des@@ 9
dick 9
ding 9
dolly 9
dr. 9
dy@@ 9
dyson 9
dìm 9
dặt 9
eames 9
economist 9
emmanuel 9
etc 9
exxon 9
ez 9
fe@@ 9
feynman 9
fi 9
field 9
fmri 9
forbes 9
fortune 9
gal@@ 9
git 9
giê-su 9
giùm 9
giũ 9
gol@@ 9
good 9
goro 9
gàn 9
gẫu 9
h2 9
hadron 9
hannah 9
hansen 9
hany 9
harris 9
hasan 9
hc 9
heather 9
hills 9
hindu 9
home 9
hudson 9
hurtigruten 9
hussein 9
hãn 9
hạc 9
hỡi 9
i-rắc 9
ic 9
isabel 9
ja 9
janine 9
jeremy 9
jessica 9
juan 9
juliet 9
jy 9
kal@@ 9
kant 9
kaplan 9
khu@@ 9
khố 9
klein 9
knee 9
kong 9
kurdistan 9
kuwait 9
két 9
kỉnh 9
lagos 9
lake 9
laramie 9
len@@ 9
lhc 9
libby 9
life 9
list 9
lm 9
lucy 9
luyến 9
là@@ 9
lún 9
lả 9
lảng 9
lở 9
lụi 9
lự 9
maslow 9
matthieu 9
mcchrystal 9
meerkat 9
microphone 9
mini 9
moscow 9
mozambique 9
muội 9
mó 9
mậu 9
một-hai-ba 9
nan@@ 9
naomi 9
nevada 9
nghiến 9
nghẹn 9
ngo 9
ngùng 9
ngạch 9
ngỏ 9
ngứa 9
nh. 9
nhau-- 9
nhuyễn 9
nhãng 9
nhòm 9
nhờn 9
nice 9
nikola 9
nixon 9
nó-- 9
nĩa 9
nương 9
oi 9
ola 9
ons 9
orkut 9
owens 9
pan@@ 9
patrick 9
paulo 9
petersburg 9
pheromones 9
philippines 9
phỉ 9
pounds 9
pp@@ 9
pre@@ 9
q@@ 9
quark 9
quệ 9
rebecca 9
rives 9
robicsek 9
robin 9
ronald 9
roosevelt 9
rossy 9
rên 9
ròi 9
sagmeister 9
salad 9
sam@@ 9
sat 9
saul 9
sha@@ 9
shah 9
she@@ 9
shi@@ 9
socola 9
sony 9
sophia 9
sta@@ 9
str@@ 9
sunphua 9
séc 9
sỉ 9
t-- 9
ta. 9
tar@@ 9
tech 9
teo 9
tg 9
thun 9
thàng 9
thẩn 9
thụt 9
thự 9
tide 9
ting 9
tion 9
titanic 9
toi 9
torosaurus 9
toái 9
tra@@ 9
tro@@ 9
tru 9
tru@@ 9
trăn 9
trặc 9
trề 9
trồi 9
trợn 9
trụi 9
tulu 9
u-@@ 9
uc 9
utah 9
uyển 9
uý 9
va@@ 9
victor 9
vo@@ 9
và@@ 9
vênh 9
vể 9
wal@@ 9
wil@@ 9
will 9
wingsuit 9
xiếc 9
xiết 9
xui 9
xỉn 9
y. 9
za@@ 9
zambia 9
ze@@ 9
zetas 9
àm 9
ô-@@ 9
úi 9
đi@@ 9
đành 9
đên 9
ơ@@ 9
ạ@@ 9
ố 9
ối 9
ổng 9
( 8
-40 8
0@@ 8
1.7 8
1100 8
185 8
1968 8
1969 8
1972 8
1974 8
1977 8
1978 8
1981 8
1982 8
200.000 8
2014 8
25000 8
3g 8
62 8
71 8
747 8
91 8
@ 8
a-- 8
acrylic 8
ad 8
afganistan 8
al-@@ 8
alain 8
alexis 8
allen 8
allende 8
allosphere 8
and@@ 8
andes 8
ang 8
ans 8
arabia 8
ares 8
ari@@ 8
ariely 8
atm 8
ay 8
base 8
beatles 8
biễu 8
bowl 8
boy 8
br 8
british 8
bro@@ 8
brothers 8
bruno 8
bung 8
bái 8
bít 8
bạ 8
bợm 8
bứt 8
bừng 8
c-- 8
cam@@ 8
carolyn 8
cau 8
cel@@ 8
cents 8
chechnya 8
chém 8
chòi 8
chòm 8
chầm 8
ck@@ 8
coca 8
collagen 8
cre@@ 8
csf 8
cta 8
curitiba 8
cò 8
cúc 8
cảu 8
dale 8
dam@@ 8
davis 8
dow 8
duke 8
dum 8
duolingo 8
durga 8
dãn 8
dí 8
dả 8
dật 8
dộng 8
dột 8
e-@@ 8
earle 8
edison 8
eleanor 8
ell 8
erik 8
ethanol 8
ex@@ 8
ferris 8
film 8
flickr 8
font 8
free 8
fu 8
fải 8
g.@@ 8
gapminder 8
gar@@ 8
georgetown 8
ger@@ 8
giũa 8
giấm 8
gladwell 8
gluten 8
grant 8
grey 8
guitar 8
gô 8
haidt 8
harvey 8
heli 8
hiền 8
hoffman 8
hắt 8
hớt 8
hừm 8
igbo 8
il 8
ipcc 8
itunes 8
jacques 8
jam@@ 8
je 8
ji@@ 8
jm 8
jordans 8
js 8
kaaba 8
ker@@ 8
kerry 8
khoét 8
khác. 8
khét 8
khít 8
không-@@ 8
kir@@ 8
kur@@ 8
l.a. 8
la-de 8
lady 8
lakshmi 8
lan@@ 8
licklider 8
lin@@ 8
lisa 8
liếc 8
loát 8
luỵ 8
lìa 8
lùa 8
lùn 8
lăm 8
lại. 8
lọi 8
lỏi 8
lới 8
mac@@ 8
makoko 8
mania 8
marcus 8
mc 8
mer 8
met 8
miles 8
min@@ 8
mississippi 8
mubarak 8
myhrvold 8
múc 8
mẫn 8
mịt 8
n- 8
na-nô 8
nao 8
neumann 8
newcastle 8
nghén 8
nghê 8
nghếch 8
ngoạc 8
ngoặc 8
ngton 8
ngàng 8
ngáy 8
ngấy 8
ngỗng 8
ngừoi 8
nh 8
nheo 8
nhái 8
nhám 8
nhât 8
nhất-- 8
nhịn 8
nicole 8
ninja 8
nino 8
nom 8
nít 8
nơron 8
nắn 8
og@@ 8
okinawa 8
oliu 8
ornish 8
ottoman 8
out 8
pa 8
palin 8
penn 8
percy 8
phil 8
phoenix 8
phàm 8
phẩu 8
pia 8
pinker 8
poly@@ 8
popcorn 8
port 8
port-au-prince 8
power 8
ps 8
ptolemy 8
punk 8
q 8
qui@@ 8
quyện 8
ra. 8
randolph 8
rica 8
rich 8
ridge 8
rna 8
rockefeller 8
rumi 8
rupi 8
rể 8
sad@@ 8
saddam 8
sandy 8
sar@@ 8
sarajevo 8
sau-lơ 8
saunders 8
serra 8
seth 8
sexy 8
sheryl 8
shirky 8
sho@@ 8
shows 8
shreddies 8
sil@@ 8
sin 8
sir 8
sk 8
slow 8
sm 8
snowden 8
stalin 8
sunni 8
sài 8
sá 8
sọt 8
số@@ 8
t- 8
tam@@ 8
tb 8
td 8
tedster 8
tes 8
thatcher 8
thon 8
thât 8
thường. 8
thặng 8
titan 8
tobago 8
toby 8
transistor 8
trinidad 8
trành 8
ts@@ 8
tucson 8
turbo 8
tuối 8
táng 8
tã 8
tót 8
tết 8
tễ 8
umar 8
unicef 8
usain 8
vaccin 8
valley 8
vegas 8
vila 8
vin 8
vs 8
vò 8
vơi 8
vảy 8
vồng 8
vừng 8
wa 8
warner 8
we 8
whiskey 8
win@@ 8
wong 8
xo 8
xy 8
xê 8
xù 8
xẻo 8
xới 8
yahoo 8
ye 8
yo@@ 8
young 8
zz@@ 8
á@@ 8
ách 8
ô-tô 8
ôxy 8
ùn 8
đây. 8
đãng 8
đờ 8
ản 8
ậy 8
ợ 8
0.2 7
1.4 7
12@@ 7
1300 7
150,000 7
1926 7
1948 7
1954 7
1963 7
1kg 7
250.000 7
2500 7
3-4 7
300,000 7
400,000 7
400.000 7
50000 7
5m 7
6.000 7
7.@@ 7
8,000 7
8.@@ 7
80,000 7
80@@ 7
9000 7
90@@ 7
aa 7
aah 7
achilles 7
air 7
ak@@ 7
alabama 7
ali@@ 7
alisa 7
als 7
alto 7
angela 7
ano 7
app 7
aspen 7
ati 7
atkins 7
aw 7
aw@@ 7
babbage 7
bai 7
bank 7
barbie 7
barcelona 7
bas@@ 7
beatbox 7
beijerinck 7
bergen 7
bernard 7
betty 7
blah 7
bluegrass 7
bmw 7
bolivia 7
bor@@ 7
botswana 7
botton 7
brent 7
bridge 7
britannica 7
bu 7
buffett 7
burma 7
buy 7
bye 7
byte 7
bèn 7
bùa 7
búng 7
bản. 7
bấp 7
bồng 7
bợ 7
ca-ri-bê 7
cac-bon 7
cacbonat 7
capetown 7
cash 7
ce@@ 7
cesar 7
chimborazo 7
choi 7
cholesterol 7
chon 7
chuck 7
chuốt 7
cháo 7
chùn 7
chú@@ 7
chạc 7
chấu 7
cker 7
clarke 7
cle@@ 7
cloud 7
coast 7
coban 7
cocaine 7
coumarin 7
ct 7
curtis 7
cy@@ 7
càm 7
càn 7
cá@@ 7
cácbon 7
còng 7
cóng 7
cúp 7
cằm 7
cẳng 7
d-@@ 7
dance 7
dar@@ 7
del@@ 7
denisovan 7
dereck 7
des 7
diamond 7
diane 7
die 7
dietrich 7
dioxit 7
diệp 7
donna 7
dor@@ 7
dr 7
dracorex 7
dublin 7
durkheim 7
dãi 7
dìu 7
dòm 7
dể 7
dụ@@ 7
ebert 7
edwards 7
eg 7
ela 7
eli@@ 7
engelbart 7
ent 7
epoxy 7
eskimo 7
et@@ 7
eu@@ 7
farmer 7
fildes 7
fischeri 7
frankie 7
g20 7
ganđi 7
geneva 7
geoff 7
ger 7
gever 7
giffords 7
glass 7
gogh 7
goi 7
goldilocks 7
goldman 7
gor@@ 7
gothic 7
gould 7
granny 7
greenville 7
ground 7
gs 7
gu 7
gupta 7
gw 7
gy@@ 7
gẫy 7
gắm 7
gọt 7
gột 7
gở 7
gừng 7
ham@@ 7
harriet 7
heidi 7
hen@@ 7
himalaya 7
hip-hop 7
hol@@ 7
homeopathy 7
hormones 7
houston 7
hubble 7
huh 7
huyên 7
hói 7
hấn 7
hợt 7
i- 7
ibuprofen 7
ica 7
ig@@ 7
india 7
instagram 7
inter@@ 7
iowa 7
iv 7
jackie 7
janeiro 7
jarrett 7
javascript 7
jeep 7
jet 7
jose 7
k. 7
karachi 7
kh 7
khác-- 7
khô@@ 7
kilomet 7
kin 7
kinsey 7
kipp 7
kobe 7
ks 7
kuznets 7
lar@@ 7
let 7
lhq 7
liu 7
locke 7
loét 7
luton 7
lạ@@ 7
lẻn 7
lẻo 7
lổ 7
m-pesa 7
madrid 7
magie 7
mail 7
manju 7
maps 7
marie 7
marilyn 7
martha 7
marx 7
mccain 7
mcluhan 7
mcmurdo 7
meggendorfer 7
mena 7
micro@@ 7
microblog 7
mill 7
miranda 7
mission 7
mix 7
mohamed 7
mohammed 7
monica 7
motors 7
mr 7
muông 7
mè 7
mí 7
mẩn 7
na-uy 7
namibia 7
natalie 7
nes 7
ness 7
neu@@ 7
neutron 7
nghẹt 7
ngo@@ 7
ngấu 7
ngậm 7
nhoà 7
nhói 7
nhậm 7
nhằng 7
nhỡ 7
nic@@ 7
nicolas 7
night 7
niết 7
now 7
nsa 7
nua 7
nòi 7
nơtrino 7
nấy 7
nần 7
nớt 7
o. 7
oc@@ 7
oklahoma 7
oldenburg 7
op@@ 7
os 7
p.@@ 7
pa-nô 7
pac-man 7
palmer 7
pat@@ 7
patel 7
peace 7
philips 7
phillips 7
phiếm 7
phà 7
phất 7
phầm 7
phết 7
pierre 7
pink 7
portland 7
pr@@ 7
pranav 7
psa 7
pur@@ 7
quot 7
r. 7
randi 7
rap@@ 7
rca 7
reed 7
ren 7
report 7
rhode 7
rotterdam 7
row 7
ruby 7
rọc 7
rồi. 7
rủa 7
s. 7
s.@@ 7
sachs 7
sally 7
sars 7
seligman 7
ser@@ 7
set 7
sey 7
shaw 7
sim 7
simpson 7
sky 7
sleep 7
spe@@ 7
ss@@ 7
stan 7
stern 7
sue 7
sutherland 7
suzanne 7
sydney 7
sào 7
sấy 7
sầm 7
sặc 7
table 7
tamil 7
tango 7
tata 7
terry 7
thán 7
thâu 7
thò 7
thảnh 7
thể. 7
thớt 7
tie 7
tine 7
tivo 7
tomorrow 7
torvalds 7
toát 7
trc 7
triền 7
tron 7
truỵ 7
trạch 7
tti 7
tulley 7
tur@@ 7
turing 7
tuýp 7
tz@@ 7
tơi 7
tẹo 7
tịt 7
unesco 7
unilever 7
uri 7
usb 7
val@@ 7
valdez 7
vali 7
ver 7
ves 7
viagra 7
vét 7
vê 7
vậy-- 7
vữa 7
walter 7
wan@@ 7
wang 7
wel@@ 7
whole 7
wiki 7
wisconsin 7
ws 7
xãy 7
xóc 7
xửa 7
yay 7
ye@@ 7
yellowstone 7
yr 7
zach 7
zero 7
êt 7
ói 7
ăng 7
đít 7
đư@@ 7
đễnh 7
ư@@ 7
̣ 7
ậ@@ 7
ồ@@ 7
ổi 7
ủa 7
* 6
---- 6
0,000 6
1.6 6
100@@ 6
13@@ 6
1400 6
15,000 6
150.000 6
1600 6
180@@ 6
1879 6
1890 6
1910 6
1959 6
2,500 6
20000 6
2016 6
2100 6
30000 6
30@@ 6
3m 6
4,5 6
4.5 6
4.@@ 6
4shbab 6
5,@@ 6
50@@ 6
6,@@ 6
7.5 6
70,000 6
8.000 6
88 6
99.9 6
a-rập 6
ab 6
act 6
action 6
acumen 6
adams 6
aha 6
ala 6
alison 6
allan 6
alley 6
ammonia 6
amyloid-beta 6
angola 6
apophis 6
arnold 6
ash@@ 6
ashdown 6
atlas 6
attenborough 6
audio 6
aung 6
austin 6
avatar 6
avelile 6
ax@@ 6
b.@@ 6
ba-lê 6
bab@@ 6
baby 6
bacon 6
baghdad 6
balkans 6
ball 6
barry 6
bartok 6
bat@@ 6
batiuk 6
beatrice 6
behar 6
benoit 6
ber 6
berners-lee 6
bert 6
best 6
beth 6
bieber 6
bionicle 6
birmingham 6
bis@@ 6
bitcoin 6
bits 6
bla@@ 6
blanc 6
bloom 6
bo 6
board 6
boeing 6
bond 6
boom 6
boong 6
borane 6
bos@@ 6
bosch 6
boulder 6
bragg 6
brck 6
bren@@ 6
brooks 6
brussels 6
budapest 6
bulgaria 6
bundy 6
burg 6
burkina 6
bói 6
búp 6
bềnh 6
bện 6
bộn 6
bớ 6
cabin 6
calcutta 6
cap 6
centimét 6
chandler 6
cheval 6
china 6
cho@@ 6
chút. 6
chội 6
claes 6
clo@@ 6
club 6
com@@ 6
comp@@ 6
container 6
cornell 6
coun@@ 6
cour@@ 6
cox 6
crimer 6
cruzeiro 6
cs 6
cuôc 6
cuốc 6
công-gô 6
cùa 6
cút 6
cạch 6
cầ@@ 6
cọp 6
cỡi 6
cụ@@ 6
dakota 6
dar 6
darwln 6
db 6
democracyos 6
depp 6
derartu 6
design 6
dewey 6
dharamsala 6
diesel 6
din 6
dink 6
disneyland 6
dmca 6
don@@ 6
dorothy 6
douglas 6
doyle 6
drew 6
drori 6
dt 6
dù@@ 6
dầm 6
dịnh 6
dỏm 6
ecosia 6
eddy 6
egan 6
eiffel 6
ek 6
electrolux 6
eliot 6
ellen 6
end 6
enron 6
enzym 6
ep@@ 6
erick 6
erin 6
esther 6
eva 6
fabian 6
fb 6
fe 6
ferrofluid 6
ff@@ 6
fm 6
fn 6
food 6
fowler 6
fre@@ 6
g. 6
gallup 6
gambia 6
gamble 6
garage 6
garden 6
gell-mann 6
gh 6
ghiếc 6
ghraib 6
giêng 6
giăng 6
giương 6
giới. 6
giờ@@ 6
grameen 6
gray 6
greene 6
gregory 6
gri@@ 6
grier 6
grove 6
guga 6
gulf 6
guy 6
guồng 6
gài 6
gươm 6
gấm 6
h1n1 6
hall 6
hama 6
hamburg 6
han@@ 6
harold 6
hasbro 6
hatzalah 6
heads 6
hecta 6
herbie 6
hey 6
hillary 6
hit 6
holocaust 6
honolulu 6
hoo 6
hot@@ 6
hotmail 6
huntington 6
huých 6
hypercard 6
hám 6
hóc-môn 6
hăm 6
hơp 6
hợm 6
hủ 6
ikigai 6
inches 6
international 6
interval 6
io 6
ip 6
ir 6
ira 6
ise 6
italy 6
jacob 6
jeanny 6
jenny 6
jn 6
joan 6
jobs 6
joplin 6
journal 6
kamal 6
kamen 6
karate 6
karmapa 6
kasparov 6
kat@@ 6
ken@@ 6
kermit 6
kes 6
khadija 6
khua 6
khuỷu 6
không-thời 6
khẽ 6
kilo@@ 6
kindle 6
kinshasa 6
krosoczka 6
kung 6
kurzweil 6
kyi 6
kền 6
la-tinh 6
la-ze 6
lag 6
lam@@ 6
land 6
lauren 6
laurie 6
lazarus 6
legadema 6
lehman 6
ler@@ 6
lg 6
lia 6
limb 6
lithium 6
liz 6
liêm 6
liệng 6
ll 6
lothar 6
lou 6
ls 6
lus 6
lán 6
lòi 6
lươn 6
lằn 6
lặt 6
lựu 6
macintosh 6
maddie 6
madison 6
maidan 6
main 6
mali 6
malthus 6
manchester 6
marcel 6
matty 6
maui 6
mckay 6
meadow 6
meegeren 6
megawatt 6
mes@@ 6
meyer 6
meyerowitz 6
michel 6
micrô 6
midwest 6
mili 6
milliken 6
minority 6
mitra 6
modem 6
mon 6
monster 6
montreal 6
moon 6
morgana 6
moskowitz 6
mp 6
mp@@ 6
mul@@ 6
mullins 6
muồi 6
myspace 6
mê-hi-cô 6
mênh 6
mía 6
mảy 6
mền 6
mụn 6
n--@@ 6
n-gram 6
n.@@ 6
nam@@ 6
nancy 6
nar@@ 6
nato 6
nc 6
neanderthals 6
nellie 6
new@@ 6
ng.@@ 6
nger 6
ngoi 6
ngs 6
nguệch 6
ngán 6
ngóng 6
ngông 6
người-- 6
ngưởi 6
nhiê@@ 6
nho@@ 6
nhu@@ 6
nhác 6
nhân-- 6
nhúc 6
nhẩm 6
nhằn 6
nhừng 6
nickname 6
nina 6
nn 6
nng 6
noir 6
not 6
not@@ 6
nuông 6
nài 6
nào. 6
nái 6
nó@@ 6
nôm 6
nạo 6
nẻo 6
nức 6
o.@@ 6
oan 6
or 6
orwell 6
osorio 6
ot 6
ozone 6
oái 6
oát 6
p-@@ 6
palo 6
paolo 6
party 6
pe 6
pear 6
phi@@ 6
pho@@ 6
phũ 6
phạn 6
phẩy 6
pi 6
pilot 6
playstation 6
pmtct 6
po 6
por@@ 6
pp 6
prius 6
project 6
prospera 6
protêin 6
puerto 6
pugh 6
punta 6
python 6
quai 6
quixote 6
quy@@ 6
quàng 6
quất 6
quậy 6
r.@@ 6
rabin 6
radar 6
radcliffe 6
ratan 6
reader 6
remix 6
ren@@ 6
research 6
resnick 6
reuters 6
rico 6
ridley 6
risd 6
rita 6
robbie 6
robbins 6
roman 6
ron@@ 6
rov 6
rus 6
ruy 6
ráo 6
rât 6
rì 6
rỏ 6
rụt 6
salaam 6
san@@ 6
sarkozy 6
sau@@ 6
scrabble 6
seri 6
sesame 6
sex 6
shackleton 6
sheena 6
shephelah 6
shhh 6
sig@@ 6
silver 6
siri 6
smithsonian 6
socrates 6
spi@@ 6
standford 6
star@@ 6
starck 6
steward 6
store 6
sugata 6
sughar 6
sun@@ 6
sunitha 6
sur@@ 6
sushi 6
suu 6
suông 6
svalbard 6
swaptree 6
são 6
sưa 6
sảng 6
sắn 6
sởi 6
ta-- 6
tal@@ 6
tate 6
tec 6
tedtalks 6
tele@@ 6
telescope 6
terawatt 6
terroir 6
theodore 6
ther@@ 6
thinh 6
thong 6
thuý 6
thy 6
thơi 6
thế-- 6
tijuana 6
tions 6
tis 6
tncs 6
tonya 6
tor@@ 6
toxo 6
tq 6
tracy 6
tre@@ 6
trek 6
try 6
trĩ 6
trọ 6
trọc 6
tte 6
tulip 6
turk 6
tus 6
tuyền 6
tà 6
tào 6
tìn 6
tĩu 6
tưng 6
tấp 6
tầu 6
tẩm 6
ukraina 6
upload 6
uranium 6
uruguay 6
uy@@ 6
vermeer 6
vincent 6
vm 6
vodka 6
vồ 6
wan 6
wangari 6
warcraft 6
webster 6
whirlwind 6
wilkins 6
winky 6
with 6
worldwide 6
wounded 6
wt 6
x-@@ 6
xiên 6
xml 6
xuồng 6
xát 6
xẩy 6
xắp 6
xỏ 6
y.@@ 6
yes 6
yochai 6
yunus 6
zabbaleen 6
zig 6
zullinger 6
zurich 6
ày 6
â@@ 6
ã 6
ã@@ 6
ên 6
íc 6
ăm 6
đễ 6
ại 6
ẩu 6
ẹt 6
ệt 6
ị@@ 6
ố@@ 6
ỗ@@ 6
ớn 6
ự 6
ựng 6
--tôi 5
0.8 5
03 5
09 5
1,4 5
1-@@ 5
1.500 5
102 5
11.000 5
11@@ 5
12000 5
15-20 5
15.000 5
15000 5
175 5
1904 5
1919 5
1928 5
1929 5
1932 5
1938 5
1941 5
1952 5
1956 5
1958 5
1966 5
1967 5
220 5
25.000 5
250,000 5
2d 5
3-@@ 5
3.7 5
330 5
350.000 5
40@@ 5
442 5
49 5
4chan 5
5,5 5
5-6 5
5-@@ 5
550 5
60@@ 5
911 5
9kg 5
\ 5
aba 5
abdul 5
ack 5
ada 5
adrenalin 5
adrian 5
age 5
agra 5
ahh 5
ahmedabad 5
aicha 5
airbus 5
albania 5
ale 5
allah 5
amjad 5
analog 5
antonio 5
apartheid 5
ara 5
archer 5
ari 5
aria 5
ariel 5
ary 5
atacama 5
atala 5
athabasca 5
au 5
augustine 5
austen 5
autodesk 5
avaz 5
bannister 5
bart 5
basit 5
basque 5
beatjazz 5
bennington 5
berkley 5
bernoulli 5
bertrand 5
bes@@ 5
biều 5
bloomberg 5
bluetooth 5
bobby 5
bogota 5
bolte 5
borges 5
bose 5
bowling 5
brad 5
bradley 5
braxin 5
bucardo 5
buckminster 5
bueller 5
bumblebee 5
burn 5
burns 5
business 5
but 5
bét 5
bòng 5
bập 5
bậy 5
bẽ 5
bịu 5
bọng 5
bủa 5
ca-lo 5
calori 5
calorie 5
camden 5
cameroon 5
cannes 5
caramen 5
card 5
caribbean 5
carrillo 5
carson 5
casa 5
casablanca 5
castle 5
cat@@ 5
caucasus 5
chan@@ 5
ches@@ 5
children 5
chilê 5
chitra 5
choir 5
chong 5
churchill 5
chác 5
chè 5
chí@@ 5
chùng 5
chắp 5
cky 5
clark 5
claron 5
cod 5
coleridge 5
college 5
collusion 5
coltan 5
commons 5
conan 5
cool 5
copernican 5
corn 5
corp 5
county 5
creative 5
crick 5
cronin 5
cruise 5
csi 5
cu 5
cy 5
cyborg 5
cáng 5
cùn 5
cún 5
cưú 5
cầy 5
cộc 5
d.@@ 5
d.j. 5
daily 5
dallas 5
dan@@ 5
daphne 5
dine 5
dioxide 5
diển 5
dong 5
dotcom 5
download 5
drybath 5
dunlap 5
duplex 5
duệ 5
dùi 5
dầy 5
dẻ 5
dứa 5
ebola 5
ec@@ 5
eden 5
eg@@ 5
elyn 5
empire 5
ensler 5
ep 5
epa 5
erez 5
ese 5
espresso 5
est 5
evans 5
everywhere 5
fargo 5
farm 5
faso 5
fax 5
fel@@ 5
fellow 5
ferguson 5
fey 5
fide 5
fis@@ 5
fitzgerald 5
foods 5
forer 5
frankenstein 5
frederick 5
fu@@ 5
fuller 5
g8 5
gad@@ 5
gal 5
galvani 5
gang 5
gao 5
gayle 5
gbm 5
german 5
get 5
ghita 5
giacometti 5
gil@@ 5
giá@@ 5
giõi 5
giầu 5
giằng 5
giớ 5
glasgow 5
gleeson 5
gmail 5
gnh 5
godin 5
gon 5
goog@@ 5
goran 5
grams 5
gross 5
gượng 5
had 5
haha 5
hai@@ 5
hamas 5
hanna 5
hanson 5
hard 5
hardy 5
haring 5
he 5
hebrew 5
hei@@ 5
hel@@ 5
hepburn 5
heroin 5
hinh 5
hippocrates 5
hoc 5
homer 5
hoocmôn 5
hood 5
hormone 5
huang 5
hutu 5
hão 5
hê 5
hơ@@ 5
học. 5
hồ@@ 5
hổn 5
hững 5
idaho 5
idol 5
ids 5
ie 5
igf-1 5
improv 5
inuit 5
ipods 5
ir@@ 5
ire 5
isaf 5
iss 5
it@@ 5
ity 5
j.@@ 5
jack@@ 5
jansen 5
jansky 5
java 5
jb 5
jeans 5
jer@@ 5
jetman 5
ji 5
joachim 5
jody 5
jonny 5
joyce 5
jpl 5
jt 5
jurvetson 5
kane 5
kathryn 5
kazakhstan 5
ked 5
kendal 5
kendall 5
kenneth 5
kenyan 5
kerala 5
kers 5
kevlar 5
khalil 5
kham 5
khi@@ 5
khiêng 5
khạo 5
khải 5
khảm 5
khồng 5
kia. 5
kiev 5
kiki 5
kin@@ 5
kiran 5
kirk 5
kismet 5
knight 5
kofi 5
koko 5
kra@@ 5
kri@@ 5
ky 5
kít 5
l-dopa 5
lamanites 5
lar 5
las@@ 5
laura 5
laurel 5
lbs 5
league 5
lear 5
lei@@ 5
leslie 5
lich 5
lima 5
limpopo 5
little 5
live 5
liềm 5
lli@@ 5
loai 5
locavore 5
loi 5
lon@@ 5
lord 5
loren 5
louise 5
lovegrove 5
low 5
lunch 5
lynn 5
lênh 5
líp 5
lúp 5
lút 5
lơi 5
lạch 5
lẩm 5
lằng 5
lữ 5
lữa 5
m- 5
m.@@ 5
ma-@@ 5
maathai 5
mad@@ 5
maine 5
mall 5
mand@@ 5
mapendo 5
marla 5
marrow 5
marvin 5
mas@@ 5
mason 5
masters 5
may@@ 5
maz 5
mcgonigal 5
mecca 5
mechanical 5
mel@@ 5
merckx 5
michoacán 5
miko 5
milan 5
mildred 5
milk 5
milton 5
miner 5
ml 5
mmm 5
mobile 5
model 5
moocs 5
morocco 5
mos@@ 5
musica 5
mustafa 5
mycoplasma 5
myesha 5
mát-xa 5
mê-tan 5
mêhicô 5
mô-men 5
môtô 5
mùn 5
múi 5
mượt 5
mầy 5
mẫm 5
mống 5
mới. 5
mủ 5
mứt 5
mửa 5
nanh 5
napot 5
napster 5
nas@@ 5
ned 5
network 5
nfl 5
nghiễm 5
ngi 5
ngoằn 5
ngày. 5
ngạn 5
ngốn 5
ngụm 5
nh- 5
nhiếm 5
nhiện 5
nhuỵ 5
nhá 5
nhích 5
như@@ 5
nia 5
ning 5
nokia 5
nong 5
noujaim 5
novocure 5
nrk 5
ny@@ 5
nylon 5
nà@@ 5
này- 5
năm-- 5
năm. 5
o-- 5
oai 5
oanh 5
ob@@ 5
oli@@ 5
olson 5
om 5
omg 5
ommm 5
oops 5
organ 5
oslo 5
ox@@ 5
pac 5
pad@@ 5
page 5
panama 5
pandora 5
pao 5
parabol 5
parker 5
participant 5
pbs 5
pen@@ 5
people 5
pet 5
pew 5
phi-li-tin 5
phone 5
phá@@ 5
phăng 5
phăng-teo 5
phường 5
phập 5
picnic 5
pierpont 5
pierson 5
pimp 5
poker 5
pollock 5
pope 5
pot@@ 5
pper 5
ppm 5
pr 5
pra@@ 5
prickly 5
prozac 5
pt 5
qua@@ 5
quầng 5
quở 5
rajasthan 5
ral 5
ralph 5
randy 5
rat 5
renny 5
reuther 5
rian 5
richards 5
rip 5
ris 5
river 5
rockwell 5
roi 5
roll 5
romeo 5
rony 5
rou@@ 5
router 5
ry@@ 5
rám 5
ráng 5
rít 5
rôi 5
rằ@@ 5
rằm 5
rốn 5
s-@@ 5
sacramento 5
sagan 5
salman 5
salt 5
sams 5
sanccob 5
sardinia 5
saxe 5
schulz 5
schwartz 5
scrubs 5
sears 5
seoul 5
shar@@ 5
shawn 5
shirin 5
sia 5
siemens 5
sis@@ 5
sivers 5
siêng 5
sj 5
slash 5
slick 5
slo@@ 5
slovenia 5
small 5
smartphone 5
solo 5
somali 5
soundscape 5
sox 5
spock 5
springs 5
square 5
stage 5
stan@@ 5
standard 5
start 5
stephanie 5
sti@@ 5
strider 5
studs 5
stygimoloch 5
sulfur 5
sum 5
susana 5
suỵt 5
sw@@ 5
sy@@ 5
szymborska 5
sâm 5
sê-ri 5
só 5
sắc. 5
sởn 5
sực 5
tal 5
talks 5
tamara 5
tech@@ 5
ted.com 5
ted2010 5
tedsters 5
tedxusc 5
tel@@ 5
temple 5
teresa 5
thaler 5
thali 5
thé 5
thóc 5
thôi. 5
thế@@ 5
thệ 5
thọc 5
thổng 5
timothy 5
tina 5
tiền-@@ 5
tombo 5
tommy 5
tong 5
tos 5
tritium 5
true 5
trìu 5
trệt 5
trổ 5
trớn 5
turin 5
tutsi 5
tuy-ni-di 5
tuynisi 5
twain 5
tyler 5
type 5
táp 5
tâ@@ 5
tô@@ 5
tôt 5
tạ@@ 5
tạt 5
tủa 5
u- 5
u.@@ 5
unaids 5
und 5
uni@@ 5
united 5
universal 5
ur 5
use 5
ut 5
v.@@ 5
vac@@ 5
val 5
valen@@ 5
vanier 5
ves@@ 5
virgin 5
virtual 5
vision 5
vo 5
volta 5
volvo 5
vu@@ 5
vulnerability 5
vy 5
váo 5
vát 5
vât 5
vè 5
vén 5
vít 5
vầng 5
vắn 5
vế 5
về. 5
vệc 5
vỏn 5
wael 5
wagner 5
walt 5
web@@ 5
webb 5
weiffenbach 5
willy 5
wislawa 5
wool 5
worcester 5
wormwood 5
worth 5
wyoming 5
xenluloza 5
xi-lanh 5
xô-viết 5
xơi 5
xước 5
ya@@ 5
yards 5
yb 5
your 5
yếm 5
za 5
zappos 5
zer 5
zi 5
zimbardo 5
zu@@ 5
© 5
àng. 5
ác-@@ 5
áng 5
ây 5
è@@ 5
é 5
ê-@@ 5
ì@@ 5
í@@ 5
ò@@ 5
ón 5
ú 5
ă@@ 5
đh 5
đich 5
đung 5
đuốc 5
đúp 5
đăc 5
đăt 5
đểu 5
độ@@ 5
ạnh 5
ải 5
ậm 5
ằng 5
ẵm 5
ẻo 5
ến 5
ển 5
ệ 5
ỉ@@ 5
ịch 5
ọ 5
ốn 5
ở@@ 5
ỡ 5
ợt 5
ứ 5
ừ@@ 5
ỷ 5
&apos;an 4
&apos;n 4
&apos;t 4
--những 4
-1 4
.&apos; 4
.tôi 4
0,05 4
0.6 4
000@@ 4
00@@ 4
01 4
07 4
1,100 4
1,6 4
1-2-3 4
1.25 4
1.600 4
1.9 4
10-@@ 4
103 4
104 4
106 4
111 4
14.@@ 4
156 4
16,000 4
1650 4
16mm 4
1759 4
1850 4
1875 4
1880 4
1885 4
190 4
1908 4
1912 4
1915 4
192 4
1939 4
1944 4
1964 4
1971 4
199@@ 4
1cm 4
1m@@ 4
2,3 4
2.7 4
230 4
240 4
250000 4
256 4
260 4
2kg 4
3.3 4
3.@@ 4
3500 4
4.6 4
40km 4
46664 4
544 4
5kg 4
5t 4
6.5 4
600,000 4
683 4
69 4
8,@@ 4
8.1 4
81 4
826 4
9,000 4
996 4
` 4
a4 4
aaaa@@ 4
abdi 4
aberdeen 4
able 4
abrahams 4
accordion 4
ace@@ 4
achill 4
adelaide 4
adhd 4
adrenaline 4
adventist 4
africa 4
agaricon 4
ahn 4
aid 4
air@@ 4
ald 4
allison 4
ally 4
alo@@ 4
amip 4
amos 4
amp@@ 4
anatomage 4
anda 4
anders 4
andre 4
angeline 4
angelo 4
annie 4
anonymous 4
aol 4
apa@@ 4
aremeyaw 4
armenia 4
aron 4
ase 4
asperger 4
assange 4
ataturk 4
athens 4
ato@@ 4
aubrey 4
auschwitz 4
av@@ 4
avril 4
ayelet 4
aylward 4
b-@@ 4
babble 4
bacillus 4
bad 4
balkan 4
ballbot 4
balochistan 4
bam@@ 4
baobab 4
baraniuk 4
barricelli 4
barón 4
battery 4
bay-- 4
bb 4
bear 4
belshazzar 4
bennett 4
benz 4
berlow 4
bes 4
bible 4
biff 4
bihar 4
bil@@ 4
bindi 4
bing 4
biophony 4
bir@@ 4
bird 4
bjorn 4
blaise 4
blakley 4
ble@@ 4
bliss 4
bobo 4
borneo 4
bossy 4
bot 4
bot@@ 4
bouba 4
box 4
boyle 4
boys 4
braille 4
brain 4
bran@@ 4
brendan 4
bric 4
brin 4
brisbane 4
britlin 4
brooke 4
brother 4
bs 4
bud 4
buettner 4
building 4
bunker 4
bur 4
burundi 4
buốt 4
by@@ 4
bá@@ 4
bưng 4
bướng 4
bạn- 4
bắ@@ 4
bẹ 4
bẹp 4
bỏ@@ 4
c--@@ 4
c.a. 4
ca-nô 4
cacbonic 4
caffeine 4
cage 4
cal 4
cambri@@ 4
campbell 4
capitol 4
carmen 4
carrie 4
cassava 4
catholic 4
caí 4
cedars-sinai 4
cellulose 4
cen@@ 4
centimet 4
ces 4
chagall 4
cham@@ 4
chan 4
channelrhodopsin 4
chaos 4
chaplin 4
chapman 4
chateau 4
check 4
cher 4
chihuahua 4
christina 4
chài 4
chùa 4
chúng-- 4
chắng 4
chỉa 4
chịt 4
chỏ 4
chớ 4
chớm 4
chực 4
cirque 4
cis 4
cisco 4
citi@@ 4
ckey 4
cla@@ 4
clathrin 4
clooney 4
close 4
cloudburst 4
cocain 4
cogito 4
col@@ 4
coli 4
colo@@ 4
com 4
come 4
company 4
cop@@ 4
copper 4
cot@@ 4
cou@@ 4
cricket 4
crunch 4
cruz 4
cul@@ 4
cup 4
cur@@ 4
cus 4
cuống 4
cuồn 4
các-tông 4
câ@@ 4
cô-@@ 4
cô@@ 4
cù 4
cùm 4
cả. 4
cả@@ 4
cấn 4
cọng 4
cộm 4
cứ@@ 4
d-rev 4
dall 4
damon 4
dana 4
danone 4
dartmouth 4
das@@ 4
dd 4
deb 4
debora 4
defriend 4
delaware 4
delta 4
denis 4
denver 4
depthx 4
deqo 4
dge 4
dh 4
dhabi 4
dian 4
dich 4
dicke 4
diet 4
digital 4
din@@ 4
dingo 4
dis 4
diếp 4
dodi 4
dogs 4
domain 4
doris 4
dos 4
dra@@ 4
dunbar 4
dur@@ 4
duran 4
dusty 4
dà 4
dùm 4
dúng 4
dượng 4
dượt 4
dậm 4
dặc 4
dến 4
dục-- 4
e-mail 4
ear@@ 4
eas@@ 4
ecuado 4
eddi 4
edith 4
edx 4
ei 4
eisenhower 4
el-@@ 4
ele@@ 4
elegans 4
eliasson 4
elliot 4
elliott 4
els 4
emanuel 4
ena 4
ence 4
eng@@ 4
eno 4
ernest 4
ery 4
esta 4
etete 4
ethel 4
ethi@@ 4
euro@@ 4
ever 4
ey 4
fa 4
far@@ 4
feed 4
feki 4
fen@@ 4
ferrari 4
fez 4
fin@@ 4
financial 4
finn 4
fisher 4
florence 4
flu@@ 4
force 4
foster 4
four 4
foxp2 4
fransisco 4
fraser 4
fried 4
frieda 4
full 4
ga-ra 4
galen 4
gam@@ 4
gan@@ 4
ganson 4
gas@@ 4
gate 4
gatsby 4
gene@@ 4
general 4
generic 4
genes 4
geoffrey 4
georges 4
gers 4
gger 4
ghi-ta 4
ghiền 4
gho@@ 4
ghonim 4
ght 4
ghìm 4
gian. 4
gigabyte 4
gin 4
giovanni 4
github 4
giê 4
glenn 4
goldstein 4
goliath 4
googler 4
gordian 4
gorilla 4
got 4
gourley 4
gr@@ 4
graph 4
graves 4
gre@@ 4
griffin 4
griffith 4
guer@@ 4
guinness 4
guttenberg 4
gì. 4
gòn 4
gạc 4
gội 4
gờ 4
h. 4
h.@@ 4
h.w. 4
hacking 4
hai-sáu 4
hallelujah 4
halloween 4
hamilton 4
hancock 4
harford 4
hawkins 4
head 4
headphone 4
health 4
heatherwick 4
helvetica 4
hemozoin 4
heparin 4
hercules 4
herman 4
herschel 4
hexanol 4
hhh 4
hindi 4
hitchcock 4
hiệ@@ 4
hm 4
hn 4
homaro 4
hope 4
hor@@ 4
hot 4
hotdog 4
how 4
html 4
huaorani 4
hunt 4
huyệt 4
hyd@@ 4
héc 4
hòng 4
hù 4
hú 4
húc 4
hấu 4
hẵng 4
hế 4
hển 4
họ. 4
họ@@ 4
học-- 4
hộc 4
hờ 4
i&apos; 4
i.tôi 4
ich 4
ideo 4
ik 4
image 4
impactful 4
impass 4
imperial 4
ing@@ 4
ini 4
ink 4
ino 4
institu@@ 4
io@@ 4
isa 4
isaac 4
isaiah 4
ish 4
ison 4
isoprene 4
israeli 4
italia 4
ite 4
iều 4
jaclyn 4
jain 4
jal 4
jan@@ 4
janet 4
jared 4
jawbone 4
jaws 4
jean-@@ 4
jehane 4
jehovah 4
jen@@ 4
jenkins 4
jenn 4
jennings 4
jobrani 4
johanna 4
johannesburg 4
johnston 4
joie 4
jonh 4
jorge 4
joubert 4
juanderson 4
jugaad 4
jump 4
june 4
jung 4
kai@@ 4
kalenjin 4
kam@@ 4
kamkwamba 4
kang-gu-ru 4
kangaroo 4
kar 4
kareem 4
kas 4
kas@@ 4
keats 4
kel@@ 4
ket 4
kew 4
key 4
khaled 4
khalida 4
khayelitsha 4
khoàng 4
khoải 4
khuyếch 4
khư 4
ki-@@ 4
ki-lô-mét 4
ki-ốt 4
kid 4
kil@@ 4
kilowatt 4
kilô 4
kings 4
kins 4
kitchen 4
kitty 4
kiếng 4
kiếu 4
klee 4
kohn 4
kon@@ 4
koolhaas 4
kpi 4
krishna 4
kru@@ 4
ku 4
kun@@ 4
kwabena 4
kyle 4
kyu 4
kílian 4
labs 4
lahore 4
lama 4
lancet 4
large 4
lau@@ 4
leadbeater 4
lean 4
legacy 4
lem 4
leonard 4
leopold 4
leroy 4
less 4
lestari 4
li-@@ 4
lil 4
limbaugh 4
limor 4
lindbergh 4
linkedin 4
liếm 4
lman 4
lois 4
lotto 4
loud 4
love@@ 4
low@@ 4
lower 4
loáng 4
loè 4
luca 4
lula 4
luyên 4
luộc 4
lxd 4
lài 4
lác 4
lâng 4
lèo 4
lét 4
lì 4
líu 4
lô-gic 4
lơn 4
lẳng 4
lệ@@ 4
lỉnh 4
lớn-- 4
macarthur 4
mad 4
magellanic 4
mairead 4
majora 4
mam@@ 4
mama 4
mandelbrot 4
market 4
markus 4
mashelkar 4
mat@@ 4
mccarthy 4
mckean 4
mdg 4
medicine 4
melbourne 4
mellody 4
memes 4
ment 4
mental 4
mercedes 4
mi-ca 4
mi-li-mét 4
miami 4
michaela 4
michelin 4
mid@@ 4
mil@@ 4
mile 4
milimét 4
minsky 4
mises 4
mixing 4
mizzone 4
moby 4
mont@@ 4
mori@@ 4
mormon 4
morris 4
mot@@ 4
motor 4
mowgli 4
mr. 4
mta 4
mtt 4
mtv 4
mui 4
mujahideen 4
muruganantham 4
muỗng 4
myanmar 4
mãng 4
mú 4
mướt 4
mải 4
mất. 4
mỏm 4
mốt 4
mới-- 4
mớm 4
mụ 4
mỹ. 4
nabokov 4
nachtwey 4
nanô 4
nashville 4
nat@@ 4
nation 4
natural 4
nazi 4
nbc 4
nell 4
nem 4
nephites 4
newsweek 4
ng--@@ 4
ngai 4
nge 4
nge@@ 4
nghiệm. 4
nghành 4
ngoai 4
nguôi 4
ngà@@ 4
người- 4
người. 4
ngỗ 4
ngụp 4
nh-@@ 4
nhang 4
nhanh. 4
nhin 4
nhiểu 4
nhình 4
nhíp 4
nhò 4
nhó 4
nhơ 4
nhạnh 4
nhẩy 4
nhẵn 4
nhỏ. 4
nhợ 4
nhử 4
niall 4
nic 4
nicotine 4
nielsen 4
nigel 4
niger 4
nin 4
nintendo 4
ninth 4
nova 4
nucleic 4
nuggets 4
nye 4
ná 4
nã 4
níu 4
núng 4
nếu-thì 4
nệm 4
nện 4
ocarina 4
oed 4
ok@@ 4
ome@@ 4
oni@@ 4
ony 4
ore 4
ori@@ 4
orville 4
ostrow 4
otto 4
ov 4
oxfam 4
oxit 4
p-- 4
p25 4
pachycephalosaurus 4
pam 4
pamela 4
panh 4
pap@@ 4
para@@ 4
pari 4
parusharam 4
pashtun 4
pasteurii 4
patricia 4
patton 4
pccc 4
pedro 4
pepper 4
pete 4
petri 4
pettengill 4
phen 4
phia 4
phillip 4
phàng 4
phít 4
phú@@ 4
phỉnh 4
phực 4
pie@@ 4
pilots 4
ping 4
pinot 4
pla@@ 4
plan@@ 4
plasma 4
play 4
plaza 4
polo 4
poor 4
pop-@@ 4
porco 4
portal 4
porter 4
pos@@ 4
postsecret 4
poupon 4
pradesh 4
pragmatic 4
pranitha 4
pratury 4
press 4
pringle 4
print 4
prism 4
prô-tê-in 4
pul@@ 4
purple 4
quad@@ 4
quentin 4
quyệt 4
qủa 4
r-@@ 4
ra-- 4
ra-@@ 4
rain@@ 4
rapamycin 4
rapper 4
rebel 4
recaptcha 4
recording 4
red@@ 4
rem 4
rembrandt 4
remen 4
res@@ 4
rey 4
rice 4
rider 4
rie 4
rift 4
right 4
ring 4
rinh 4
ritalin 4
robben 4
roche 4
rock@@ 4
rod 4
ronson 4
rosa 4
rosalie 4
rosey 4
rot@@ 4
royal 4
rt 4
rtpj 4
ru 4
rupal 4
rupert 4
rưới 4
rượt 4
rồ@@ 4
s-h 4
sac@@ 4
sage 4
sai. 4
saima 4
saint 4
sal 4
salinas 4
samboja 4
sand@@ 4
sandberg 4
sandel 4
sandor 4
sandra 4
sandwiches 4
santee 4
sapien 4
sari 4
scalia 4
scandinavia 4
scho@@ 4
scud 4
sea 4
seal 4
see 4
sel@@ 4
sen@@ 4
serbia 4
sethi 4
shady 4
sharmeen 4
shelf 4
shereen 4
shermer 4
shi 4
shin@@ 4
ship 4
shop 4
sida 4
sidney 4
silic 4
sinek 4
sitopia 4
siyathemba 4
siza 4
skerry 4
sle@@ 4
smo@@ 4
soc 4
sole 4
sou@@ 4
soviet 4
spam 4
spar@@ 4
spinoza 4
spo@@ 4
sse@@ 4
ster 4
stock 4
stones 4
sufi 4
sumatra 4
summerwear 4
sunfat 4
swahili 4
swenson 4
sá@@ 4
sáng-tối 4
sơm 4
sạo 4
sần 4
sẳn 4
số. 4
sủng 4
sữ 4
t.com 4
ta-@@ 4
tag 4
tai@@ 4
tajfel 4
talking 4
taniyama 4
tas@@ 4
tatum 4
tch 4
tcn 4
ted2008 4
tedxwomen 4
teeb 4
thes@@ 4
thich 4
think 4
this 4
thoai 4
thom 4
thoreau 4
thre@@ 4
thrived 4
throve 4
thrun 4
thum 4
thuât 4
thuật-- 4
thâ@@ 4
thòng 4
thùa 4
thưở 4
thấy. 4
thể@@ 4
tilson 4
tive 4
tm 4
tms 4
toang 4
torah 4
toại 4
treatment 4
tree 4
trilogy 4
trumpet 4
truồng 4
truờng 4
trytophan 4
trư 4
tta 4
ture 4
tuscany 4
tuyệ@@ 4
tuốc 4
tuốt 4
tuồi 4
tw 4
tành 4
tât 4
tè 4
tính. 4
típ 4
tôi- 4
tôi@@ 4
tư@@ 4
tắp 4
tề 4
tời 4
tủi 4
từ-@@ 4
từ@@ 4
ui 4
uk 4
un 4
ups 4
usa 4
uổng 4
vacxin 4
van@@ 4
vannevar 4
vas@@ 4
vauxhall 4
vel 4
velcro 4
velde 4
vera 4
vibro 4
vich 4
videos 4
vishna 4
vivre 4
viên. 4
viển 4
vun 4
vung 4
vusi 4
và-- 4
vào-- 4
vác-xin 4
vèo 4
vù 4
vằn 4
vẵn 4
vọc 4
vờn 4
wal-mart 4
wald 4
wallace 4
walters 4
war@@ 4
ward 4
watts 4
wei@@ 4
wen 4
wer@@ 4
whewell 4
whitacre 4
whitney 4
wick 4
willie 4
win 4
winnipeg 4
winston 4
wire 4
wis@@ 4
wit@@ 4
woods 4
worldchanging 4
wug 4
wurman 4
www.@@ 4
wy@@ 4
wyss 4
xem. 4
xi-@@ 4
xi-náp 4
xia 4
xix 4
xkcd 4
xuông 4
xéo 4
xó 4
xúp 4
xạc 4
xẩu 4
xắt 4
xịn 4
xố 4
xốt 4
yami 4
yan@@ 4
yentl 4
yesterday 4
yosemite 4
you@@ 4
yugoslavia 4
zaire 4
zan@@ 4
zf 4
zo@@ 4
zuckerberg 4
zulu 4
½ 4
¾ 4
ài 4
ài. 4
àoo 4
áy 4
ãy 4
è 4
èn 4
én 4
ét 4
ên-- 4
òng 4
óng 4
ô-liu 4
ôc 4
ôliu 4
õi 4
ø@@ 4
ù 4
ùm 4
úa 4
ăn-ten 4
đ 4
đanh 4
đo@@ 4
đrô 4
đtdđ 4
đu@@ 4
đàu 4
đác-uyn 4
đê@@ 4
đìều 4
đó- 4
đó@@ 4
đúa 4
đúng. 4
được-- 4
được@@ 4
đạ@@ 4
đản 4
đấy-- 4
đấy. 4
đầu-- 4
đầu. 4
đặng 4
đếu 4
để@@ 4
đỉa 4
đựoc 4
ơ-@@ 4
ơng 4
ưc 4
ươ@@ 4
ướ@@ 4
ướn 4
ạn 4
ả@@ 4
ấ@@ 4
ất 4
ầ@@ 4
ần. 4
ầy 4
ẩ@@ 4
ẫn 4
ận 4
ận. 4
ắ@@ 4
ắc-@@ 4
ẳ@@ 4
ề 4
ền 4
ễ 4
ỉn 4
ọi 4
ồi 4
ồng 4
ớ@@ 4
ới 4
ờm 4
ờn 4
ờng 4
ởi 4
ụ@@ 4
ụi 4
ụp 4
ụt 4
ủn 4
ứ@@ 4
ử 4
ửng 4
ững 4
ỵ 4
 4
&apos;hãy 3
&apos;m 3
---@@ 3
--chúng 3
--đây 3
-18 3
-50 3
-p@@ 3
..... 3
.000 3
.5 3
.chúng 3
.com. 3
.v.v. 3
0. 3
0.7 3
000usd 3
00s 3
02 3
04 3
0s 3
1,034 3
1,1 3
1,2,3 3
1,600 3
1,800 3
1.1 3
1.6@@ 3
10,@@ 3
10-15 3
10.@@ 3
100000 3
1000@@ 3
105 3
108 3
10h 3
10km 3
11,000 3
117 3
12.@@ 3
127 3
129 3
13,7 3
13.000 3
13000 3
134 3
135 3
14,@@ 3
14000 3
144 3
1455 3
146 3
148 3
154 3
155.000 3
16.000 3
160.000 3
162 3
165 3
16k 3
1700 3
174 3
1787 3
1813 3
1824 3
1829 3
1840 3
1863 3
1870 3
1871 3
1891 3
19,000 3
1903 3
190@@ 3
1931 3
1933 3
1955 3
1990s 3
2,200 3
2-5 3
2.2 3
2.4 3
2.9 3
20-@@ 3
200m 3
2025 3
2300 3
24@@ 3
24h 3
254 3
2600 3
3,7 3
3.2 3
30,@@ 3
30-40 3
30cm 3
30m 3
30s 3
32,000 3
36,000 3
38@@ 3
390 3
3k 3
3mm 3
3po 3
4,6 3
4-@@ 3
40000 3
400000 3
405 3
413 3
45,000 3
450.000 3
4d 3
4g 3
4x@@ 3
5-10 3
5.5 3
500.000 3
529 3
530 3
539 3
55.000 3
581 3
6,000 3
6,5 3
6-@@ 3
6.@@ 3
60.000 3
600.000 3
620 3
66.000 3
6kg 3
7,@@ 3
7.000 3
7.500 3
700@@ 3
70@@ 3
75,000 3
75-25 3
7m 3
8-@@ 3
84k 3
87 3
8h 3
9,@@ 3
9.@@ 3
900.000 3
99.5 3
99@@ 3
9h 3
aaah 3
ace 3
ach 3
acids 3
acorn 3
aden@@ 3
adi@@ 3
adinkra 3
adriatic 3
adventists 3
aer@@ 3
afghan@@ 3
aga@@ 3
agusta 3
ahmad 3
ahmadinejad 3
aidg 3
airpix 3
ajit 3
ak-47 3
aki 3
alaikum 3
alanine 3
albright 3
aldo 3
alisch 3
all@@ 3
allo@@ 3
also 3
alu 3
alô 3
ama 3
amar@@ 3
ames 3
ami 3
amine 3
amnesty 3
amstrong 3
an-pơ 3
ana@@ 3
anatotitan 3
andon 3
andrea 3
andres 3
andros@@ 3
ane 3
angelina 3
angry 3
anh. 3
anil 3
annan 3
anthro@@ 3
aparna 3
apple@@ 3
aptamer 3
aquarius 3
ara@@ 3
arap 3
arby 3
architecture 3
arctic 3
arduino 3
area 3
arias 3
ars 3
arts 3
arty 3
arunachalam 3
arusha 3
arvind 3
asa 3
asa@@ 3
ash 3
ashanti 3
ashburn 3
aston 3
astro 3
astroturf 3
ata 3
atari 3
ath 3
atlassian 3
ats 3
atu@@ 3
au-prince 3
auenbrugger 3
aur 3
aus@@ 3
avi 3
ax 3
axis 3
b12 3
back 3
bailey 3
baja 3
balasubramaniam 3
baldwin 3
bamiyan 3
band 3
banderas 3
bangoora 3
barbecue 3
barclays 3
barnaby 3
barnett 3
barton 3
bas 3
basil 3
basin 3
bavelier 3
bcg 3
beam 3
beat 3
beau@@ 3
beaufort 3
beaver 3
beck 3
beckstrom 3
becky 3
bee 3
beirut 3
bela 3
beloit 3
benedict 3
benefield 3
bengal 3
benjamín 3
beo 3
bercken 3
bernie 3
beta 3
bethlehem 3
bharti 3
bi-na 3
bian 3
bic 3
bigelow 3
biggie 3
bike 3
bila@@ 3
bingo 3
biogas 3
biology 3
bir 3
birds 3
birke 3
bismark 3
bitch 3
bitcoins 3
biế@@ 3
biệt. 3
blackawton 3
blake 3
ble 3
block 3
bloggs 3
blow 3
blues 3
bma 3
boing 3
bol@@ 3
bolinsky 3
bollywood 3
bom@@ 3
boo@@ 3
books 3
boothe 3
botero 3
botox 3
bound 3
bowery 3
bowski 3
boyd 3
bpa 3
br@@ 3
bra-xin 3
brahimi 3
braun 3
brd4 3
break@@ 3
bristol 3
britney 3
brohi 3
bru@@ 3
buchanan 3
buddha 3
budweiser 3
buffet 3
buil@@ 3
bukavu 3
bul@@ 3
bum 3
burntisland 3
burstein 3
bury 3
butler 3
bèo 3
bình. 3
bính 3
bươm 3
bạ@@ 3
bạn-- 3
bảnh 3
bằn 3
bẵng 3
bết 3
bỉnh 3
cacilda 3
cain 3
caledonia 3
caliban 3
calvin 3
camfed 3
camilla 3
campaign 3
canaletto 3
cantu 3
cao-- 3
capgras 3
carbo@@ 3
carbohydrate 3
caribê 3
carlos 3
carlton 3
carnival 3
carole 3
carrel 3
carroll 3
carta 3
cary 3
cat 3
catalog 3
catch 3
catherine 3
cavendish 3
cayman 3
cbgb 3
center 3
cer 3
cer@@ 3
cervantes 3
ch-- 3
challe@@ 3
champs-elysees 3
charley 3
cheese 3
chekhov 3
chet 3
chevy 3
chiat 3
chicken 3
chie 3
child 3
child@@ 3
chinanet 3
chinoy 3
chio 3
chiề@@ 3
chladni 3
chlamydia 3
chop 3
choạng 3
christ 3
christakis 3
christchurch 3
christien 3
christine 3
church 3
chyện 3
chình 3
chúng. 3
chấy 3
chặc 3
chọ 3
chồm 3
ci 3
citizen 3
citywalk 3
cks 3
clare 3
clayton 3
cli@@ 3
clint 3
clive 3
clonie 3
cnc 3
cobalt 3
cock 3
cody 3
coleman 3
colin 3
collier 3
colombo 3
columbus 3
con-@@ 3
constitución 3
control-z 3
copacabana 3
corbusier 3
corps 3
cos 3
cos@@ 3
cousteau 3
cpu 3
cr 3
cranbrook 3
crash 3
crete 3
cristine 3
cru@@ 3
crème 3
cso 3
csp 3
ctor 3
cukier 3
custer 3
cuội 3
cyark 3
cà-phê 3
cát-sét 3
còm 3
có@@ 3
công-@@ 3
công-tư 3
cõ 3
cơ-đốc 3
cước 3
cạc-tông 3
cạm 3
cấ@@ 3
cầu-- 3
cầu. 3
cới 3
cở 3
củ@@ 3
cứa 3
da-- 3
dad@@ 3
dah 3
dalai 3
dam 3
damascus 3
damasio 3
dame 3
damien 3
daria 3
dassen 3
davos 3
dawn 3
deavere 3
dec 3
declan 3
dell 3
dench 3
denisovans 3
dennett 3
deskbar 3
dev 3
dge@@ 3
diamandis 3
dic@@ 3
dickens 3
diffee 3
dijon 3
dik@@ 3
dington 3
dionysus 3
direct 3
discovery 3
district 3
dit 3
diy 3
diên 3
diêu 3
do-@@ 3
doang 3
dodo 3
dodson 3
domi@@ 3
domin@@ 3
donne 3
doodle 3
dorset 3
dos@@ 3
dot 3
dow@@ 3
dozo 3
dr.@@ 3
dson 3
duflo 3
duh 3
dun@@ 3
dutton 3
dylan 3
dát 3
dũa 3
dề 3
dổi 3
eagles 3
ear 3
econo@@ 3
ecorock 3
ecuador 3
edi@@ 3
edmund 3
eduardo 3
ee 3
ee@@ 3
ei@@ 3
eigen 3
eileen 3
eisner 3
electric 3
electrons 3
eli 3
elle 3
emi@@ 3
emmart 3
emory 3
ene 3
ene@@ 3
english 3
eni 3
enriquez 3
enti@@ 3
epsilon 3
era 3
erectus 3
ergo 3
eri@@ 3
ers 3
espn 3
ess 3
estelle 3
ets 3
euros 3
ever@@ 3
evil 3
excel 3
exe 3
exl 3
express 3
ey@@ 3
f-@@ 3
face 3
fal@@ 3
famillia 3
fark 3
farmville 3
faron 3
faulkner 3
favela 3
favelas 3
federation 3
fedex 3
fes@@ 3
fiji 3
finkle 3
fire@@ 3
fission 3
fle@@ 3
fleming 3
fli@@ 3
flintstone 3
flip 3
flow 3
floyd 3
fls 3
flupsy 3
fon@@ 3
forever 3
formaldehyde 3
format 3
forte 3
fractal 3
francesca 3
frans 3
franz 3
freedom 3
freeflying 3
french 3
fresh 3
fri@@ 3
friedrich 3
friend 3
from 3
frost 3
fry 3
ft. 3
ful 3
fulla 3
fullbright 3
fusiform 3
g-@@ 3
g.m 3
g7 3
gagarin 3
gallery 3
gallo 3
ganesha 3
gar 3
garniez 3
garrett 3
garth 3
geary 3
geert 3
gegenschatz 3
gel@@ 3
gelatin 3
genitalium 3
genspace 3
geraldine 3
gerhard 3
ges 3
ges@@ 3
ghz 3
ghém 3
ghì 3
ghềnh 3
gian-@@ 3
gian@@ 3
gibraltar 3
gillian 3
gio 3
gis 3
giáo-- 3
giãi 3
giả@@ 3
giẫm 3
giếm 3
giống-mạng-lưới 3
giớ@@ 3
giờ. 3
gle@@ 3
global 3
glu@@ 3
gluon 3
gneezy 3
golden 3
gon@@ 3
gopnik 3
gor 3
gos@@ 3
grade 3
grady 3
grandin 3
green@@ 3
greenpeace 3
greenspan 3
gsm 3
guacamole 3
guar 3
gucci 3
gue 3
guốc 3
gy 3
găm 3
gường 3
gượm 3
gạ 3
gả 3
gẫm 3
gằng 3
gỏi 3
ha-woai 3
habibi 3
hadrian 3
hah 3
haifa 3
haiku 3
hal@@ 3
halal 3
hale@@ 3
hanczyc 3
handel 3
handspring 3
harbisson 3
harbor 3
hare 3
hari 3
harlan 3
hart 3
hartman 3
has@@ 3
hat@@ 3
haven 3
hawa 3
hawai 3
hawkes 3
haydn 3
hazlewood 3
healy 3
heathrow 3
hebron 3
hectocotylus 3
heisenberg 3
hello 3
hemingway 3
henri 3
herbert 3
hercles 3
here 3
heritage 3
hetain 3
hi-@@ 3
hieronymus 3
highline 3
hijaz 3
hil@@ 3
hillel 3
hillis 3
hilton 3
hippie 3
hiroshi 3
his 3
hiu 3
hiể@@ 3
hl 3
hobbes 3
hockenberry 3
hockey 3
hodgman 3
hogwart 3
hole 3
holly 3
honduras 3
hooc-môn 3
hoover 3
hop@@ 3
horn 3
horner 3
horowitz 3
hou@@ 3
howey 3
hoá-dẫn 3
hoá. 3
hoỉ 3
hr 3
hru@@ 3
hsbc 3
hughes 3
hugo 3
humboldt 3
hunts 3
huyễn 3
huân 3
huênh 3
hy-wire 3
hydrocacbon 3
hydrocarbon 3
hypponen 3
háng 3
hâu 3
hòi 3
hóoc-môn 3
hú@@ 3
hĩnh 3
hường 3
hất 3
hậ@@ 3
hỏ@@ 3
hổi 3
hội. 3
hớn 3
hứ@@ 3
i-ran 3
i.p. 3
ibrahim 3
ick 3
ics 3
ier 3
iger 3
iii 3
illa 3
illi@@ 3
impact 3
imu 3
inca 3
inception 3
indi@@ 3
indus 3
iner 3
ingrid 3
inh 3
ini@@ 3
inside 3
interaxon 3
ious 3
iphones 3
ira@@ 3
iri@@ 3
ish@@ 3
islam 3
issac 3
istan 3
ito 3
iucn 3
iến 3
iết 3
iểm 3
iển-- 3
iệ@@ 3
j. 3
j2 3
jac@@ 3
jacek 3
jacobs 3
jacobson 3
jagger 3
jaipur 3
jakarta 3
jan 3
jang 3
jar 3
jay-z 3
jayant 3
jean-baptiste 3
jeffrey 3
jfk 3
jinsop 3
jl 3
joaquin 3
job 3
joh@@ 3
johannes 3
jolly 3
jose@@ 3
jr. 3
juliana 3
julius 3
julián 3
jumping 3
jun@@ 3
jus@@ 3
just 3
jw 3
k-@@ 3
kad@@ 3
kai 3
kallikuppam 3
kaminsky 3
kan@@ 3
kang 3
kanji 3
kanwisher 3
kap@@ 3
kara 3
karolinska 3
kartikeya 3
katy 3
keller 3
kenny 3
kent 3
kenyon 3
key@@ 3
khatanga 3
kheo 3
khiên 3
khiễng 3
khoáy 3
khoắc 3
khoẻ@@ 3
khuông 3
khz 3
khà 3
không-- 3
khập 3
khều 3
khổi 3
khộng 3
kibaki 3
kickstarter 3
kid@@ 3
kidd 3
kilimanjaro 3
kilogram 3
kimbo 3
kinect 3
kis@@ 3
kk 3
klin 3
knopf 3
kos@@ 3
kraft 3
krill 3
krista 3
kruger 3
kryptonite 3
ks@@ 3
kw 3
kymaerica 3
kè 3
kèo 3
kình 3
kí@@ 3
kẻ-@@ 3
kếch 3
kỏoảng 3
l.@@ 3
l.d. 3
lad 3
laetitia 3
lafayette 3
lance 3
lane 3
lanza 3
lap@@ 3
larsson 3
lascaux 3
lauder 3
laughing 3
laurence 3
lawler 3
legos 3
lehi 3
lene 3
lepage 3
lers 3
let@@ 3
levi@@ 3
levin 3
levine 3
lexicographical 3
leyla 3
lgbt 3
libeskind 3
lie 3
limbic 3
limburger 3
lings 3
lionel 3
lip 3
lithuania 3
livermore 3
liến 3
liệu. 3
lloyd 3
lo-gíc 3
lolita 3
long@@ 3
lot@@ 3
lou@@ 3
louvre 3
loyola 3
loã 3
loạng 3
loẹt 3
lp 3
lucas 3
luce 3
luis 3
lumin@@ 3
lux 3
lyn 3
lyne 3
lz 3
lá@@ 3
lên-- 3
lói 3
lý- 3
lượng-@@ 3
lạng 3
lần. 3
lọng 3
lớn. 3
lởn 3
lừng 3
lực. 3
lỳ 3
m2 3
ma-rốc 3
maasai 3
maasais 3
mack 3
macy 3
madhav 3
madoff 3
madonna 3
maeda 3
maersk 3
maezza 3
magic 3
magritte 3
mahabharata 3
mahattan 3
mahler 3
major 3
malin 3
mallifert 3
malone 3
managua 3
manila 3
mankoff 3
manuel 3
map 3
mapquest 3
mar 3
marble 3
marge 3
mari@@ 3
marley 3
marmite 3
marsh 3
masai 3
matas 3
match 3
match.com 3
math@@ 3
matreyek 3
mau@@ 3
maureen 3
max@@ 3
mayo 3
mbo 3
mcafee 3
mcdougall 3
mcfadden 3
mckinsey 3
mechai 3
med 3
med@@ 3
meg 3
megaffic 3
melcher 3
melville 3
menu 3
merchant 3
merz 3
mes 3
meters 3
methane 3
methyl 3
metrics 3
mhz 3
mi-crô 3
mi-li-met 3
michal 3
micheal 3
michelangelo 3
michelle 3
michoacana 3
mick 3
micromet 3
midi 3
miguel 3
mikey 3
mikko 3
mills 3
min 3
mira 3
miriam 3
mister 3
mistry 3
miwa 3
mj 3
ml@@ 3
mmmm 3
moai 3
molly 3
monrovia 3
mons 3
mont 3
monta@@ 3
montessori 3
monty 3
morgan 3
moto 3
motorola 3
mouflon 3
mount 3
mountains 3
mugabe 3
muk@@ 3
mulgan 3
muniz 3
mur@@ 3
murdoch 3
muố@@ 3
mybo.com 3
mycelium 3
mysore 3
mé 3
mình-- 3
mình@@ 3
mói 3
mô-@@ 3
mô-tô 3
mô-tơ 3
mõm 3
măt 3
mạt 3
mắm 3
mặ@@ 3
mọn 3
n&apos; 3
n.&apos; 3
na-@@ 3
nacho 3
nad@@ 3
nadia 3
nair 3
nalini 3
nanomet 3
nanotyrannus 3
naná 3
napoleon 3
narcissus 3
nathaniel 3
nature 3
nay. 3
nch 3
ndd 3
nebuchadnezzar 3
negroponte 3
nein 3
nel 3
nelli 3
neoprene 3
ner@@ 3
neshat 3
netscape 3
neutrino 3
newark 3
newyork 3
ng.&apos; 3
ngac 3
nghi@@ 3
nghiệ@@ 3
nghĩ@@ 3
ngiên 3
ngoãn 3
ngram 3
nguyen 3
ngáng 3
người-@@ 3
người-máy 3
ngổn 3
ngớt 3
ngở 3
nhem 3
nhg 3
nhh 3
nhiên. 3
nhuệ 3
nhuốm 3
nhè 3
nhì@@ 3
nhíu 3
nhón 3
nhấ@@ 3
nhậu 3
nhẹm 3
nhẽo 3
nhếch 3
nhọ 3
nhổm 3
nhộng 3
nhụt 3
nhữn 3
nhựng 3
ni-@@ 3
niagara 3
nian 3
nicolaus 3
nietzsche 3
nis@@ 3
nitr@@ 3
niu 3
nm 3
noble 3
novak 3
ns 3
nuland 3
num 3
nán 3
náy 3
né@@ 3
nê 3
nêm 3
ních 3
nô-en 3
núc 3
núp 3
nảo 3
nỡ 3
nữ@@ 3
nữa-- 3
nựng 3
oak 3
obaid 3
obiang 3
ockelford 3
ocr 3
od@@ 3
oe@@ 3
oedipus 3
off 3
off@@ 3
office 3
oh@@ 3
okolloh 3
ol 3
olof 3
olympus 3
ona 3
ontario 3
oo 3
oph@@ 3
ora 3
orange 3
ory 3
oso 3
ote 3
oth 3
othello 3
ou 3
ounce 3
out@@ 3
outlook 3
ow 3
oxalat 3
p53 3
pa-@@ 3
pacak 3
pack 3
pad 3
paddy 3
pagel 3
pajama 3
paldin 3
paley 3
palme 3
palu 3
pangea 3
panô 3
paragliding 3
paralympics 3
paravicini 3
parikma 3
parikrma 3
pau@@ 3
payne 3
pda 3
pdf 3
pel@@ 3
pen 3
penh 3
peninsula 3
pentium 3
penzias 3
perony 3
pers 3
peruse 3
peterborough 3
petra 3
petrus 3
phage 3
pharaoh 3
phelps 3
phen@@ 3
phi. 3
phiá 3
phnom 3
pho-mát 3
phot@@ 3
photocopy 3
phu@@ 3
phui 3
phung 3
phyllis 3
phào 3
phí@@ 3
phả@@ 3
phảm 3
phẩm-- 3
phễu 3
phộng 3
phới 3
pickles 3
pike 3
piroxicam 3
pisa 3
pixel 3
place 3
plains 3
play@@ 3
pleistocene 3
plexi 3
pogue 3
pol@@ 3
polaroid 3
police 3
pollan 3
polyme 3
pompeii 3
pompidou 3
porto 3
pot 3
powell 3
praagh 3
prada 3
pratham 3
prednisone 3
proctor 3
productions 3
profile 3
projec@@ 3
prometheus 3
prote@@ 3
protocol 3
prototaxites 3
proust 3
providencia 3
pshoo-shoo 3
pton 3
ptsd 3
puck 3
puli@@ 3
pune 3
pur 3
pvc 3
py 3
py@@ 3
pythago 3
quar@@ 3
queen 3
queens 3
quiz 3
quánh 3
quơ 3
quạc 3
quại 3
quắt 3
quằn 3
quẹo 3
quị 3
quốc-- 3
qúa 3
rachelle 3
rada 3
rafi 3
rahm 3
rai@@ 3
railway 3
rajiv 3
raku 3
ramadan 3
ramon 3
rand 3
random 3
rani 3
ras 3
rasselas 3
rc 3
rcif 3
read 3
reading 3
real 3
reeve 3
rene 3
res 3
resources 3
retrovirus 3
review 3
rewilding 3
rho@@ 3
ricard 3
ricardo 3
richar@@ 3
rides 3
rin 3
rin@@ 3
risperidone 3
ritchie 3
ritz-carlton 3
rob@@ 3
robot@@ 3
robotics 3
rode 3
rodrigo 3
rogers 3
rolling 3
rolls 3
rosalind 3
roth 3
rover 3
rowe 3
royce 3
rr@@ 3
rrrr@@ 3
rubin 3
rug@@ 3
rush 3
rushing 3
rustichini 3
ruồng 3
ruổi 3
rát 3
rè 3
rê 3
rêu 3
ríu 3
rú 3
rơ 3
rườm 3
rận 3
rắt 3
rỗ 3
s.com 3
s.h. 3
sabia 3
sacks 3
safeway 3
saharan 3
sanford 3
sangu 3
santo 3
sao. 3
sapling 3
sar 3
sara 3
sarawak 3
sasha 3
sashimi 3
saturday 3
savannah 3
save 3
saw 3
scan@@ 3
scandal 3
scatch 3
scha@@ 3
schindler 3
schrodinger 3
schu@@ 3
schwarzchild 3
scot@@ 3
scotch 3
scottish 3
seatle 3
seb 3
sebasti@@ 3
sef 3
seine 3
selinger 3
seng-ts 3
senior 3
sergio 3
serif 3
server 3
seuss 3
sevitha 3
shack 3
shaffi 3
shalan 3
shan@@ 3
sharon 3
shea 3
shekel 3
shel@@ 3
shell 3
shepherd 3
sher@@ 3
sherwin 3
shimon 3
shiva 3
shot 3
shree 3
shriram 3
side 3
sie 3
siegel 3
sietas 3
silhouette 3
sinaloa 3
singer 3
sins 3
six 3
skid 3
skoll 3
skydiving 3
slides 3
smartbird 3
smits 3
smolin 3
snack 3
snoopy 3
soda 3
sokoto 3
soleil 3
solomon 3
soloveitchik 3
son-@@ 3
son@@ 3
sophal 3
sor@@ 3
soren 3
soto 3
southam 3
soyuz 3
soạt 3
species 3
spect 3
spelling 3
spider 3
spitzer 3
stacy 3
stamets 3
starshade 3
stawi 3
steffen 3
steinberg 3
steindl-rast 3
steiner 3
stereo 3
stratford 3
streetview 3
stuart 3
stuxnet 3
suarez 3
suey 3
sulfate 3
sum@@ 3
sunfua 3
super@@ 3
superior 3
superman 3
sussman 3
svante 3
swat 3
swe@@ 3
syn@@ 3
syri@@ 3
system 3
sáng-@@ 3
sâ@@ 3
săm 3
sượt 3
sạm 3
sất 3
sẫm 3
sắng 3
sẵ@@ 3
sến 3
sỏ 3
sống. 3
sột 3
sụ 3
sụng 3
sủ 3
sủi 3
sứt 3
t-shirt 3
t.s. 3
tahiti 3
tahltan 3
taiga 3
takaungu 3
takei 3
tali 3
talmud 3
talwar 3
tampa 3
tana 3
tandon 3
tantalum 3
tar 3
target 3
tau 3
tay. 3
tch@@ 3
tea 3
ted2006 3
ted2012 3
tedxsydney 3
telecomix 3
templar 3
tering 3
terkel 3
terminator 3
test 3
thandie 3
thau 3
theme 3
theo. 3
theodor 3
they 3
thi@@ 3
things 3
thiêt 3
thiếc 3
tho 3
thompson 3
thor@@ 3
thoã 3
thpt 3
thui 3
thwaites 3
thàm 3
thành. 3
thá@@ 3
thãi 3
thìa 3
thía 3
thẩy 3
thới 3
thừ 3
thực. 3
tibet 3
ticketmaster 3
tics 3
ties 3
tif@@ 3
tiger 3
tikal 3
til@@ 3
tillett 3
tinkering 3
titanium 3
tiế@@ 3
tiều 3
tiệ@@ 3
tj 3
tn 3
toan 3
toanh 3
today 3
toni 3
top@@ 3
torng 3
torre 3
tot@@ 3
toạc 3
tracey 3
trang. 3
tren 3
tribeca 3
trix 3
triến 3
trott 3
trung-@@ 3
trust 3
truất 3
trám 3
trát 3
trét 3
trính 3
trót 3
trĩu 3
trước-- 3
trước. 3
trường. 3
trược 3
trạc 3
trạnh 3
trầy 3
trị. 3
trịa 3
trọng-- 3
trức 3
trứơc 3
tsy 3
tter 3
tter@@ 3
tua-bin 3
tufts 3
tunguska 3
tupperware 3
turbine 3
turkmenistan 3
turner 3
tuýt 3
tuổ@@ 3
tuổi. 3
twe@@ 3
twilight 3
twin 3
twit@@ 3
tzu 3
tùm 3
tược 3
tượt 3
tại-- 3
tẩu 3
tậ@@ 3
tậm 3
tắn 3
tế. 3
tệ. 3
tệp 3
tịnh 3
tốt. 3
tổ@@ 3
tở 3
từ-- 3
tỵ 3
u.k 3
uae 3
ud 3
ud@@ 3
udaipur 3
ueli 3
ufo 3
ug@@ 3
uldus 3
um@@ 3
union 3
update 3
ursus 3
usc 3
uttar 3
uv 3
uzbekistan 3
uộc 3
v-day 3
valencia 3
valenti 3
vander 3
vanilla 3
vardi 3
vasconcelos 3
vector 3
velázquez 3
ventura 3
vesta 3
vey 3
vi-rut 3
vi-ô-lông 3
via 3
vian 3
vibrio 3
vie 3
vienna 3
viewer 3
viii 3
vik 3
viktor 3
villa 3
village 3
violon 3
vis 3
vishnu 3
viên-@@ 3
viêt 3
việc-- 3
vladimir 3
vol@@ 3
volkman 3
voltaire 3
vsky 3
vãi 3
vãng 3
vì@@ 3
vôn 3
vông 3
vút 3
vược 3
vạ 3
vảng 3
vầ 3
vẩy 3
vắc-xin-học-ngược 3
về@@ 3
vời. 3
vởn 3
w-@@ 3
w. 3
w.@@ 3
wadah 3
wai@@ 3
walkman 3
ware 3
was@@ 3
washburn 3
wasichu 3
wat@@ 3
water@@ 3
watergate 3
waterhouse 3
wax 3
wayne 3
weber 3
wehrli 3
wei 3
wells 3
wes 3
western 3
what 3
whe@@ 3
whi@@ 3
whitesides 3
widow 3
wikihouse 3
williamsburg 3
williamson 3
willis 3
winehouse 3
wing 3
winter 3
witness 3
wmap 3
wofford 3
wolf 3
wolfgang 3
wolpert 3
woman 3
wonderbread 3
wonka 3
woohoo 3
wor@@ 3
word 3
word@@ 3
wuhahaha 3
wujec 3
xavan 3
xcot-len 3
xcốt-len 3
xem-- 3
xen-lu-lô 3
xen@@ 3
xi-măng 3
xiềng 3
xoài 3
xoàng 3
xoè 3
xoăn 3
xunphua 3
xuý 3
xuể 3
xuốt 3
xém 3
xẩm 3
xết 3
xỉa 3
xỉu 3
xối 3
xổm 3
xụp 3
yadda 3
yam@@ 3
yan 3
yang 3
yann 3
yaourt 3
yer 3
yip 3
yitzhak 3
yn@@ 3
yon@@ 3
yorke 3
yossi 3
your@@ 3
yucatan 3
yết 3
z. 3
zacharias 3
zai@@ 3
zar@@ 3
zara 3
zeisel 3
zim@@ 3
zip 3
zo 3
zodiac 3
zon 3
zoom 3
zvika 3
zzy 3
zôn 3
~ 3
£ 3
à-@@ 3
à. 3
à@@ 3
àu 3
ái. 3
â 3
âu. 3
ãn 3
ä@@ 3
èo 3
ên-@@ 3
ía 3
ôxi 3
õ 3
ùa 3
đao 3
đi. 3
điếm 3
đoái 3
đá@@ 3
đát 3
đáu 3
đâ 3
đây- 3
đây@@ 3
đã@@ 3
đén 3
đô@@ 3
đông-tây 3
đăm 3
đơ 3
đơợc 3
đạng 3
đất. 3
đẫn 3
đẵng 3
đẽo 3
đến-- 3
đềm 3
đị@@ 3
đỏi 3
độ. 3
động-- 3
đớp 3
đụn 3
ơn. 3
ương. 3
ường 3
ưởng 3
ạch 3
ảng-- 3
ảy 3
ấy-- 3
ầ 3
ẫ 3
ẫy 3
ật 3
ậu 3
ắn. 3
ặc 3
ẹo 3
ẻ 3
ẻ@@ 3
ẽ 3
ế@@ 3
ết 3
ếu 3
ệ@@ 3
ệch 3
ệm 3
ọng 3
ọt 3
ỗi 3
ỗi. 3
ộ@@ 3
ộn 3
ộng 3
ộp 3
ớ 3
ớc 3
ờ@@ 3
ỡ@@ 3
ỡi 3
ợ@@ 3
ợng 3
ụa 3
ụm 3
ủ. 3
ủ@@ 3
ứt 3
ửa 3
ữ@@ 3
ựa 3
ực-- 3
ỳ 3
ỹ 3
madeupword0000 0
madeupword0001 0
madeupword0002 0
madeupword0003 0
madeupword0004 0
madeupword0005 0
